unsigned char g_model[] = {
  0x1c, 0x00, 0x00, 0x00, 0x54, 0x46, 0x4c, 0x33, 0x14, 0x00, 0x20, 0x00,
  0x1c, 0x00, 0x18, 0x00, 0x14, 0x00, 0x10, 0x00, 0x0c, 0x00, 0x00, 0x00,
  0x08, 0x00, 0x04, 0x00, 0x14, 0x00, 0x00, 0x00, 0x1c, 0x00, 0x00, 0x00,
  0x88, 0x00, 0x00, 0x00, 0xe0, 0x00, 0x00, 0x00, 0x48, 0x0a, 0x00, 0x00,
  0x58, 0x0a, 0x00, 0x00, 0x34, 0x11, 0x00, 0x00, 0x03, 0x00, 0x00, 0x00,
  0x01, 0x00, 0x00, 0x00, 0x04, 0x00, 0x00, 0x00, 0xaa, 0xf4, 0xff, 0xff,
  0x0c, 0x00, 0x00, 0x00, 0x1c, 0x00, 0x00, 0x00, 0x3c, 0x00, 0x00, 0x00,
  0x0f, 0x00, 0x00, 0x00, 0x73, 0x65, 0x72, 0x76, 0x69, 0x6e, 0x67, 0x5f,
  0x64, 0x65, 0x66, 0x61, 0x75, 0x6c, 0x74, 0x00, 0x01, 0x00, 0x00, 0x00,
  0x04, 0x00, 0x00, 0x00, 0x94, 0xff, 0xff, 0xff, 0x0c, 0x00, 0x00, 0x00,
  0x04, 0x00, 0x00, 0x00, 0x08, 0x00, 0x00, 0x00, 0x64, 0x65, 0x6e, 0x73,
  0x65, 0x5f, 0x31, 0x39, 0x00, 0x00, 0x00, 0x00, 0x01, 0x00, 0x00, 0x00,
  0x04, 0x00, 0x00, 0x00, 0x9e, 0xf5, 0xff, 0xff, 0x04, 0x00, 0x00, 0x00,
  0x08, 0x00, 0x00, 0x00, 0x69, 0x6e, 0x70, 0x75, 0x74, 0x5f, 0x31, 0x30,
  0x00, 0x00, 0x00, 0x00, 0x02, 0x00, 0x00, 0x00, 0x34, 0x00, 0x00, 0x00,
  0x04, 0x00, 0x00, 0x00, 0xdc, 0xff, 0xff, 0xff, 0x0f, 0x00, 0x00, 0x00,
  0x04, 0x00, 0x00, 0x00, 0x13, 0x00, 0x00, 0x00, 0x43, 0x4f, 0x4e, 0x56,
  0x45, 0x52, 0x53, 0x49, 0x4f, 0x4e, 0x5f, 0x4d, 0x45, 0x54, 0x41, 0x44,
  0x41, 0x54, 0x41, 0x00, 0x08, 0x00, 0x0c, 0x00, 0x08, 0x00, 0x04, 0x00,
  0x08, 0x00, 0x00, 0x00, 0x0e, 0x00, 0x00, 0x00, 0x04, 0x00, 0x00, 0x00,
  0x13, 0x00, 0x00, 0x00, 0x6d, 0x69, 0x6e, 0x5f, 0x72, 0x75, 0x6e, 0x74,
  0x69, 0x6d, 0x65, 0x5f, 0x76, 0x65, 0x72, 0x73, 0x69, 0x6f, 0x6e, 0x00,
  0x10, 0x00, 0x00, 0x00, 0x64, 0x09, 0x00, 0x00, 0x5c, 0x09, 0x00, 0x00,
  0x48, 0x09, 0x00, 0x00, 0x28, 0x09, 0x00, 0x00, 0x10, 0x09, 0x00, 0x00,
  0xf8, 0x08, 0x00, 0x00, 0xe0, 0x08, 0x00, 0x00, 0xd0, 0x00, 0x00, 0x00,
  0xb0, 0x00, 0x00, 0x00, 0xa8, 0x00, 0x00, 0x00, 0xa0, 0x00, 0x00, 0x00,
  0x98, 0x00, 0x00, 0x00, 0x90, 0x00, 0x00, 0x00, 0x88, 0x00, 0x00, 0x00,
  0x68, 0x00, 0x00, 0x00, 0x04, 0x00, 0x00, 0x00, 0x56, 0xf6, 0xff, 0xff,
  0x04, 0x00, 0x00, 0x00, 0x54, 0x00, 0x00, 0x00, 0x0c, 0x00, 0x00, 0x00,
  0x08, 0x00, 0x0e, 0x00, 0x08, 0x00, 0x04, 0x00, 0x08, 0x00, 0x00, 0x00,
  0x10, 0x00, 0x00, 0x00, 0x24, 0x00, 0x00, 0x00, 0x00, 0x00, 0x06, 0x00,
  0x08, 0x00, 0x04, 0x00, 0x06, 0x00, 0x00, 0x00, 0x04, 0x00, 0x00, 0x00,
  0x00, 0x00, 0x00, 0x00, 0x00, 0x00, 0x0a, 0x00, 0x10, 0x00, 0x0c, 0x00,
  0x08, 0x00, 0x04, 0x00, 0x0a, 0x00, 0x00, 0x00, 0x02, 0x00, 0x00, 0x00,
  0x02, 0x00, 0x00, 0x00, 0x04, 0x00, 0x00, 0x00, 0x06, 0x00, 0x00, 0x00,
  0x32, 0x2e, 0x31, 0x35, 0x2e, 0x30, 0x00, 0x00, 0xb6, 0xf6, 0xff, 0xff,
  0x04, 0x00, 0x00, 0x00, 0x10, 0x00, 0x00, 0x00, 0x31, 0x2e, 0x35, 0x2e,
  0x30, 0x00, 0x00, 0x00, 0x00, 0x00, 0x00, 0x00, 0x00, 0x00, 0x00, 0x00,
  0x9c, 0xf0, 0xff, 0xff, 0xa0, 0xf0, 0xff, 0xff, 0xa4, 0xf0, 0xff, 0xff,
  0xa8, 0xf0, 0xff, 0xff, 0xac, 0xf0, 0xff, 0xff, 0xe6, 0xf6, 0xff, 0xff,
  0x04, 0x00, 0x00, 0x00, 0x10, 0x00, 0x00, 0x00, 0x02, 0xf6, 0x1a, 0xbf,
  0x96, 0x6a, 0x26, 0x3c, 0x1d, 0x38, 0xac, 0x3f, 0x17, 0xfa, 0x7e, 0xbf,
  0x02, 0xf7, 0xff, 0xff, 0x04, 0x00, 0x00, 0x00, 0x00, 0x08, 0x00, 0x00,
  0x78, 0xba, 0xc4, 0xbc, 0x63, 0xa4, 0x04, 0x3e, 0xda, 0x1f, 0x5d, 0xbd,
  0xc9, 0xcd, 0x89, 0xbd, 0xb1, 0x14, 0x54, 0x3d, 0xab, 0x77, 0x86, 0xbb,
  0x4c, 0xef, 0xab, 0xbd, 0x0f, 0xf3, 0xc2, 0x3d, 0xb9, 0x72, 0xe3, 0x3d,
  0x89, 0x6a, 0xb3, 0x3d, 0x01, 0xd2, 0x38, 0xbd, 0x54, 0xd4, 0x23, 0x3d,
  0xe3, 0x74, 0xf9, 0xbd, 0x98, 0x64, 0x75, 0xbd, 0xfe, 0x04, 0x5e, 0xbe,
  0x65, 0x3e, 0xe2, 0xbe, 0xf9, 0x05, 0xb4, 0xbe, 0x7c, 0x42, 0x95, 0xbe,
  0x1b, 0xb6, 0x2a, 0xbe, 0x31, 0x31, 0x1e, 0xbe, 0x94, 0xb3, 0x9d, 0xbe,
  0x52, 0x27, 0x78, 0xbe, 0xb4, 0xb1, 0x37, 0xbe, 0x6a, 0xba, 0xcd, 0xbe,
  0x83, 0x3b, 0xbe, 0xbd, 0x2d, 0x35, 0x6f, 0xbe, 0x16, 0x18, 0xbb, 0xbd,
  0x43, 0x07, 0x8d, 0x3d, 0x6f, 0x29, 0x52, 0xbd, 0x21, 0xc3, 0x5c, 0xbc,
  0x27, 0x22, 0xf8, 0x3c, 0x61, 0x1b, 0x5e, 0x3c, 0x3b, 0x9d, 0xb1, 0xbd,
  0x03, 0x66, 0x09, 0xbd, 0x5e, 0x6f, 0x11, 0xbc, 0xe3, 0x53, 0x89, 0xbd,
  0x79, 0xe0, 0xa7, 0xbd, 0xdd, 0x6d, 0x01, 0xbe, 0xed, 0x4f, 0xb6, 0xbb,
  0x99, 0xe4, 0x0e, 0x3e, 0x4d, 0x2f, 0x51, 0xbd, 0x0a, 0x0c, 0x40, 0x3d,
  0x58, 0x66, 0x22, 0x3e, 0xe3, 0x75, 0xae, 0xbd, 0xba, 0x5e, 0x0b, 0xbd,
  0xca, 0x31, 0x33, 0xbd, 0x67, 0xb2, 0x53, 0x3d, 0x58, 0x3e, 0x78, 0x3e,
  0x05, 0x4b, 0x8d, 0x3e, 0xbd, 0xd6, 0x28, 0x3e, 0x40, 0x0f, 0xac, 0x3d,
  0x8d, 0xf7, 0xec, 0x3d, 0x9d, 0x16, 0xd0, 0x3c, 0xfb, 0x3c, 0x6b, 0x3e,
  0xa2, 0xdc, 0x91, 0x3d, 0xeb, 0xb9, 0xa6, 0x3d, 0xde, 0xe0, 0xf6, 0x3d,
  0x1d, 0xee, 0x68, 0xbd, 0xfa, 0x05, 0x92, 0x3d, 0xb6, 0x7e, 0x3d, 0x3d,
  0x2e, 0x0e, 0x97, 0x3d, 0xa7, 0x53, 0xe9, 0xbb, 0x71, 0x76, 0x37, 0x3d,
  0x20, 0x99, 0xf4, 0x3d, 0xd7, 0xc7, 0xb4, 0x3c, 0x3b, 0xdf, 0x9c, 0x3d,
  0x7d, 0x90, 0x42, 0x3e, 0x88, 0xf1, 0x78, 0x3e, 0xa7, 0x16, 0x58, 0x3e,
  0x55, 0xf2, 0x41, 0x3d, 0xb0, 0xb3, 0xf1, 0x3d, 0x94, 0x35, 0x6a, 0x3e,
  0x73, 0x4e, 0x9a, 0x3e, 0x0e, 0x4e, 0x62, 0xbc, 0x69, 0xed, 0x1b, 0xbd,
  0xc5, 0x09, 0x87, 0x3e, 0xcb, 0xfa, 0x13, 0xbd, 0xda, 0x34, 0x5c, 0x3e,
  0x93, 0xf4, 0x6e, 0xbd, 0x55, 0xe0, 0x99, 0x3c, 0x32, 0xd4, 0x30, 0x3e,
  0x94, 0x8b, 0x25, 0x3e, 0xfb, 0x9e, 0xce, 0xbc, 0xa7, 0x9f, 0x2d, 0x3e,
  0x6c, 0x6e, 0xce, 0x3d, 0x31, 0xd3, 0xa4, 0x3d, 0x3e, 0x46, 0x3e, 0x3e,
  0x59, 0xb8, 0x70, 0x3e, 0xda, 0xb6, 0x96, 0x3e, 0x60, 0xf9, 0xb6, 0x3e,
  0xef, 0xf0, 0xd0, 0x3e, 0xe0, 0x77, 0xcb, 0x3e, 0xab, 0x46, 0x76, 0x3e,
  0xd0, 0x24, 0x3c, 0x3e, 0x4d, 0xb2, 0x65, 0x3d, 0x6c, 0x46, 0x2d, 0x3e,
  0xce, 0x89, 0xf4, 0x3d, 0x7f, 0x5d, 0x78, 0x3e, 0x1c, 0xe0, 0xb3, 0x3e,
  0xb0, 0x1a, 0x65, 0x3e, 0xab, 0x9a, 0x98, 0x3d, 0x24, 0x7e, 0x36, 0x3e,
  0xf9, 0x02, 0x17, 0x3e, 0x50, 0x97, 0x8f, 0x3d, 0xdf, 0xe1, 0x1a, 0x3e,
  0x0e, 0x6b, 0xea, 0x3d, 0xd6, 0x61, 0x27, 0x3e, 0x46, 0xa6, 0x63, 0x3e,
  0x7b, 0x62, 0x14, 0x3e, 0x00, 0x0a, 0x48, 0x3e, 0x82, 0x9c, 0x6f, 0x3e,
  0x11, 0x2b, 0xd6, 0x3d, 0xdd, 0x0f, 0x8f, 0x3e, 0x24, 0x81, 0xc1, 0x3e,
  0x51, 0x3d, 0xcd, 0x3e, 0x14, 0x2a, 0xbc, 0x3e, 0xe3, 0xe8, 0xae, 0x3e,
  0x53, 0xd6, 0x88, 0x3e, 0xa7, 0xd3, 0x7a, 0x3e, 0x8f, 0x7e, 0x04, 0x3e,
  0x8c, 0x57, 0x58, 0x3d, 0xcc, 0xae, 0x49, 0x3d, 0xfa, 0xee, 0x90, 0x3b,
  0xbc, 0x14, 0x9e, 0x3d, 0x29, 0xcd, 0x43, 0xbe, 0x3d, 0x48, 0xe2, 0xbd,
  0x63, 0xb7, 0x2e, 0xbd, 0xdc, 0x06, 0x25, 0xbe, 0x1e, 0x8b, 0x4c, 0x3b,
  0xc3, 0x44, 0x8a, 0xbd, 0xd7, 0xf5, 0xad, 0x3d, 0x6b, 0xfb, 0x3a, 0xbc,
  0x5f, 0xe1, 0xdb, 0x3c, 0x59, 0xe0, 0xc2, 0x3c, 0x54, 0xfe, 0xb7, 0x3d,
  0x84, 0x12, 0x1a, 0x3d, 0xb2, 0x86, 0x4a, 0xbc, 0x7a, 0x2c, 0x02, 0x3e,
  0x8a, 0xfa, 0x13, 0xbe, 0x69, 0x81, 0x51, 0xbe, 0x27, 0x1b, 0x01, 0xbe,
  0xc8, 0xb8, 0xb4, 0xbe, 0xef, 0x8f, 0x75, 0xbe, 0xce, 0x4e, 0xde, 0xbe,
  0xd4, 0x47, 0x94, 0xbe, 0x42, 0x23, 0xd9, 0xbe, 0x6a, 0x08, 0xca, 0xbe,
  0x26, 0x86, 0xcc, 0xbe, 0x7c, 0xd0, 0xa2, 0xbe, 0xde, 0x57, 0xe7, 0xbe,
  0xf7, 0xae, 0xa5, 0xbe, 0x6d, 0x3b, 0x34, 0xbe, 0xaf, 0x27, 0x84, 0xbe,
  0x5d, 0x4c, 0x13, 0xbd, 0xcc, 0xdb, 0xde, 0xbd, 0xb4, 0x2a, 0x7d, 0xbc,
  0x81, 0xf1, 0x54, 0x3d, 0xe3, 0x30, 0x0f, 0xbe, 0x27, 0xb7, 0x2f, 0xbc,
  0xc1, 0x90, 0xaf, 0x3d, 0x88, 0xef, 0x9e, 0xbc, 0x97, 0xa7, 0x96, 0xbd,
  0x06, 0xdb, 0xaf, 0x3c, 0x3b, 0x88, 0x71, 0x3e, 0x77, 0xe2, 0x58, 0x3d,
  0x98, 0x7b, 0xdc, 0xbb, 0x7e, 0xed, 0xcb, 0x3b, 0x9f, 0xf0, 0xba, 0x3d,
  0x9c, 0x27, 0x85, 0xbd, 0x99, 0xe2, 0x24, 0xbd, 0x9d, 0x75, 0x2f, 0xbd,
  0x89, 0xdb, 0x4d, 0x3d, 0x57, 0x8f, 0xa2, 0x3d, 0xcc, 0x8e, 0x1e, 0x3c,
  0x25, 0x5f, 0x61, 0xbe, 0x50, 0x1d, 0x55, 0xbe, 0x4c, 0x68, 0x4e, 0xbd,
  0x9f, 0xbf, 0x80, 0x3c, 0xbf, 0x60, 0x12, 0xbe, 0xf4, 0x65, 0xb3, 0x3c,
  0x2f, 0x82, 0x34, 0x3e, 0x44, 0x97, 0x83, 0x3e, 0x83, 0x27, 0x8a, 0x3d,
  0x45, 0x06, 0xb4, 0x3d, 0xca, 0x6b, 0x2f, 0x3e, 0xcc, 0x9b, 0x10, 0x3e,
  0x36, 0x1f, 0x0b, 0x3e, 0x8a, 0xcd, 0x19, 0x3e, 0x4f, 0xa8, 0x97, 0x3e,
  0xce, 0xe6, 0x0e, 0x3d, 0x9d, 0x83, 0xd1, 0x3d, 0x91, 0x21, 0x13, 0x3e,
  0xb7, 0x6d, 0x43, 0x3e, 0x89, 0x99, 0x3f, 0x3c, 0xfc, 0xfa, 0xcd, 0x3d,
  0xb8, 0x5d, 0x7e, 0x3d, 0x15, 0xa9, 0x7f, 0x3e, 0x51, 0x14, 0x44, 0x3e,
  0x9b, 0xbe, 0x61, 0x3e, 0x2c, 0x4c, 0x1b, 0x3e, 0x61, 0x0f, 0xff, 0x3c,
  0xee, 0x59, 0xd6, 0x3d, 0xe5, 0xab, 0x10, 0x3e, 0x6a, 0x62, 0xfe, 0x3c,
  0x5c, 0x35, 0xbc, 0x3d, 0x67, 0x5e, 0x15, 0x3e, 0xd9, 0x9f, 0xec, 0x3d,
  0x89, 0xe1, 0x48, 0x3e, 0x13, 0x25, 0x07, 0x3e, 0x69, 0x71, 0x81, 0x3e,
  0x57, 0xa5, 0xb2, 0x3d, 0x33, 0xb5, 0xe8, 0x3d, 0xa2, 0xbf, 0x82, 0x3e,
  0x61, 0x8f, 0x8d, 0x3e, 0x49, 0xb9, 0x12, 0x3e, 0xa7, 0x37, 0xac, 0x3e,
  0x9d, 0x54, 0x47, 0x3e, 0xd4, 0xc3, 0xb5, 0x3e, 0xcf, 0xbe, 0xbb, 0x3e,
  0x29, 0x82, 0x9c, 0x3e, 0x8c, 0x85, 0xb0, 0x3e, 0x81, 0xc6, 0x97, 0x3e,
  0x30, 0xf5, 0x9b, 0x3e, 0xf0, 0x2a, 0x20, 0x3e, 0xa9, 0x78, 0x0a, 0x3d,
  0x0a, 0x47, 0x17, 0x3e, 0x99, 0xe0, 0xc8, 0x3d, 0x99, 0xd5, 0x47, 0x3e,
  0x37, 0x35, 0xb2, 0x3d, 0x53, 0x58, 0x80, 0x3e, 0xbf, 0x6e, 0x34, 0x3e,
  0x39, 0x4c, 0x5c, 0x3e, 0xfe, 0x08, 0x9b, 0x3e, 0xf3, 0xa8, 0x00, 0x3e,
  0x3f, 0x9f, 0x79, 0x3d, 0x2e, 0x56, 0x3e, 0x3e, 0x15, 0xe5, 0x97, 0x3e,
  0x08, 0x15, 0x36, 0x3e, 0x63, 0x52, 0xca, 0x3d, 0xdc, 0xa8, 0x96, 0x3e,
  0x70, 0x20, 0xbb, 0x3e, 0xb1, 0x1b, 0x18, 0x3e, 0x94, 0x65, 0x93, 0x3e,
  0xd6, 0xe6, 0x1c, 0x3e, 0x7e, 0xe8, 0x45, 0x3e, 0xa1, 0xf0, 0x86, 0x3e,
  0xb8, 0x35, 0xba, 0x3e, 0xe2, 0x80, 0x7a, 0x3e, 0x7e, 0x31, 0x34, 0x3e,
  0x12, 0x6f, 0x08, 0x3d, 0x3c, 0xfd, 0xe8, 0x3d, 0xce, 0xa8, 0x0c, 0x3e,
  0xb0, 0xcd, 0x0b, 0x3e, 0x91, 0x9e, 0x26, 0x3e, 0xb8, 0x75, 0x0a, 0xbd,
  0xd2, 0xab, 0x93, 0xbb, 0x70, 0x33, 0xe7, 0xbd, 0xf6, 0x2d, 0xbe, 0x3d,
  0x05, 0x8a, 0x9f, 0xbd, 0x88, 0xf8, 0x10, 0x3c, 0x8a, 0x8a, 0x70, 0x3d,
  0x72, 0x19, 0x1e, 0xbc, 0x8a, 0xbe, 0x03, 0xbb, 0xed, 0x39, 0x5e, 0x3d,
  0x44, 0x0f, 0x90, 0xbd, 0xcf, 0x1f, 0x72, 0x3d, 0x97, 0x1e, 0x12, 0xbe,
  0x16, 0x1c, 0x95, 0xbd, 0x8d, 0x8b, 0x45, 0x3d, 0x0d, 0x9b, 0xd5, 0x3d,
  0xf1, 0x0d, 0x8b, 0xbc, 0x88, 0x64, 0x6e, 0x3c, 0x5e, 0x37, 0x44, 0x3e,
  0x3c, 0xb5, 0x72, 0x3e, 0x1d, 0xa7, 0x3f, 0x3e, 0xf4, 0x88, 0x60, 0x3e,
  0x0f, 0x9c, 0x50, 0x3d, 0xf7, 0xac, 0xc0, 0x3d, 0x2b, 0x5a, 0x3e, 0xbc,
  0x81, 0x8d, 0x66, 0xbd, 0xea, 0x56, 0xdc, 0xbd, 0x72, 0x08, 0x91, 0xbe,
  0xbe, 0x8f, 0x84, 0xbe, 0x3c, 0xec, 0x51, 0xbe, 0x86, 0x60, 0xa3, 0xbe,
  0x1e, 0x6f, 0xf6, 0xbe, 0x83, 0x73, 0x71, 0xbe, 0x1d, 0xac, 0x95, 0xbe,
  0xf3, 0xd4, 0x98, 0xbe, 0xa4, 0xd8, 0xaa, 0xbd, 0x7c, 0x7c, 0x01, 0xbe,
  0x8c, 0x81, 0x26, 0xbe, 0x6c, 0x0b, 0x40, 0x3c, 0xc7, 0xc9, 0x04, 0xbe,
  0xee, 0x68, 0x26, 0xbe, 0xd6, 0x67, 0x21, 0xbe, 0x30, 0xc9, 0x87, 0xbd,
  0x89, 0x2f, 0xb3, 0xbd, 0xd1, 0x1e, 0xf8, 0xbd, 0x7b, 0xf3, 0x8c, 0xbb,
  0x7b, 0xc2, 0xe2, 0xbd, 0x06, 0x94, 0x96, 0x3c, 0x21, 0x09, 0x26, 0x3d,
  0xf8, 0x00, 0x3f, 0x3e, 0xc6, 0x51, 0x62, 0x3e, 0x88, 0xe9, 0x3f, 0x3e,
  0x69, 0x39, 0xc8, 0xbc, 0x6c, 0x29, 0x2d, 0xbd, 0xea, 0x45, 0x71, 0xbd,
  0xc0, 0x7a, 0x97, 0xbd, 0x1f, 0x53, 0xff, 0x3d, 0xba, 0x63, 0xdc, 0xbc,
  0x7a, 0xa0, 0xf3, 0x3c, 0x57, 0x7a, 0xea, 0xbc, 0xd7, 0x44, 0x08, 0xbd,
  0xee, 0xcc, 0x93, 0x3d, 0xea, 0x5d, 0xd6, 0xbb, 0xaa, 0xe5, 0x84, 0xbd,
  0x25, 0x98, 0x5b, 0xbb, 0x97, 0xd4, 0xb3, 0x3d, 0x32, 0x41, 0x21, 0x3e,
  0x05, 0x4e, 0x4d, 0x3d, 0x2f, 0x7c, 0xb3, 0xbd, 0xcb, 0x8a, 0x9a, 0xbd,
  0x6d, 0xac, 0xac, 0xbe, 0x9b, 0x44, 0xaf, 0x3b, 0x58, 0x2a, 0x13, 0xbd,
  0xc2, 0xb8, 0x35, 0xbc, 0x1e, 0xf5, 0xc9, 0xbd, 0x9c, 0x73, 0x62, 0xbd,
  0x2a, 0xc5, 0xc3, 0xbc, 0xeb, 0x14, 0x18, 0xbe, 0x7b, 0x7c, 0xbc, 0xbd,
  0xe4, 0x1e, 0xeb, 0x3d, 0xf7, 0x9e, 0x16, 0x3d, 0xc5, 0xf4, 0x39, 0xbd,
  0xb6, 0xb6, 0x9b, 0xbd, 0xb3, 0x34, 0x83, 0xbd, 0xe6, 0xde, 0x22, 0xbe,
  0xeb, 0x3f, 0x2b, 0xbe, 0x32, 0x79, 0x8f, 0xbe, 0xb6, 0x20, 0x0d, 0xbe,
  0x27, 0x63, 0xd2, 0xbd, 0xac, 0x7f, 0xc6, 0xbd, 0x9f, 0x11, 0xfa, 0x3b,
  0x9d, 0x98, 0x0c, 0xbe, 0xbc, 0xce, 0x70, 0xbc, 0xd0, 0x3f, 0x23, 0x3c,
  0xe4, 0x51, 0x00, 0xbe, 0x91, 0x17, 0x14, 0xbe, 0xc9, 0x08, 0x9a, 0xbd,
  0xdb, 0xe2, 0x9e, 0xbd, 0x50, 0x83, 0x2d, 0xbc, 0x82, 0xba, 0x68, 0x3c,
  0x9d, 0x57, 0xc3, 0x3d, 0x9e, 0x16, 0x93, 0x3d, 0x53, 0x60, 0x14, 0xbe,
  0x9b, 0x9f, 0x3d, 0x3d, 0xda, 0x36, 0x89, 0xbd, 0x63, 0x53, 0x27, 0xbd,
  0xc1, 0xb1, 0x6e, 0xbe, 0xed, 0x21, 0xa7, 0xbe, 0xa7, 0x1a, 0xf8, 0x3c,
  0xca, 0xb0, 0xfb, 0xbb, 0xc4, 0xd0, 0xe6, 0x3a, 0xb0, 0xdc, 0x84, 0x3b,
  0x08, 0xd6, 0x44, 0xbd, 0xc0, 0x18, 0xb9, 0xbd, 0x98, 0xde, 0xa5, 0xbd,
  0x60, 0x1c, 0xc0, 0xbd, 0xf0, 0xde, 0xf6, 0x3d, 0xd5, 0x60, 0x94, 0x3c,
  0x76, 0x95, 0x82, 0xbe, 0xb0, 0xb7, 0x1e, 0x3d, 0x65, 0x71, 0x28, 0xbe,
  0xb3, 0x99, 0x34, 0x3d, 0xb7, 0xe8, 0xb1, 0x3d, 0xdd, 0x56, 0xf8, 0x3b,
  0x04, 0x7a, 0xa9, 0x3e, 0xd2, 0x6e, 0x23, 0x3e, 0x26, 0xd7, 0xa6, 0x3e,
  0xa6, 0xd7, 0x0c, 0x3e, 0x27, 0xc7, 0xa6, 0x3e, 0xb8, 0xb4, 0xc9, 0x3e,
  0x37, 0x00, 0x31, 0xbd, 0x5d, 0x32, 0x1f, 0x3d, 0x5a, 0xa1, 0x20, 0x3e,
  0xe9, 0x2f, 0xca, 0x3d, 0x83, 0x34, 0xd3, 0xbd, 0xee, 0x5a, 0x0f, 0x3d,
  0x29, 0x8a, 0xc6, 0x3d, 0xe2, 0x40, 0x20, 0xbc, 0x3c, 0xb1, 0x09, 0xbd,
  0xae, 0x7f, 0x38, 0x3e, 0x35, 0xe2, 0xcc, 0xbc, 0x72, 0xde, 0x98, 0xbb,
  0x13, 0x8a, 0x56, 0x3e, 0x20, 0xcb, 0x05, 0xbd, 0x05, 0x47, 0x82, 0xbd,
  0x6a, 0x83, 0x2e, 0x3e, 0x9d, 0x20, 0xa6, 0x3d, 0x0e, 0x78, 0xc2, 0x3e,
  0x8e, 0x72, 0xc8, 0x3e, 0x2b, 0xfa, 0x8e, 0x3e, 0x89, 0xc5, 0x8c, 0x3e,
  0xbb, 0xdc, 0x38, 0x3e, 0xa9, 0x42, 0xc4, 0x3d, 0x83, 0xc8, 0xbf, 0xbd,
  0xcd, 0x99, 0xdd, 0xbd, 0xf4, 0x09, 0xbb, 0xbe, 0x1b, 0x70, 0x96, 0xbe,
  0x3f, 0xe9, 0xaa, 0xbe, 0x28, 0x9c, 0xf2, 0xbe, 0x0f, 0x14, 0xc9, 0xbe,
  0x91, 0x34, 0xb1, 0xbe, 0x01, 0xe8, 0xb8, 0xbe, 0x51, 0xab, 0xe0, 0xbe,
  0xb1, 0xe8, 0x82, 0xbe, 0x2b, 0x2e, 0xf9, 0xbd, 0x82, 0xb5, 0x8c, 0xbe,
  0xca, 0x59, 0x9e, 0xbc, 0x8b, 0xc2, 0xc1, 0x3a, 0xe2, 0xfd, 0xc1, 0x3d,
  0xaa, 0xfa, 0x8a, 0x3d, 0xfd, 0x0b, 0x20, 0xbd, 0x8a, 0x9f, 0x86, 0xbc,
  0xaf, 0x8a, 0xcf, 0x3c, 0xbd, 0xb6, 0xa1, 0xbd, 0xd2, 0xc5, 0x9d, 0xbd,
  0x75, 0xc9, 0x9f, 0xbd, 0xcf, 0x0c, 0x80, 0xbd, 0xa6, 0x07, 0x14, 0xbc,
  0x16, 0x50, 0x32, 0x3c, 0x4d, 0x7e, 0x18, 0xbe, 0xd1, 0xb6, 0xad, 0xbc,
  0x53, 0xc2, 0x29, 0xbe, 0x3a, 0x52, 0x04, 0xbc, 0x75, 0x4d, 0xd2, 0xbb,
  0x6d, 0x39, 0x67, 0xbe, 0x29, 0x8f, 0xf8, 0xbd, 0x07, 0x39, 0xdf, 0x3c,
  0xd6, 0x2c, 0x56, 0xbd, 0x8e, 0x53, 0x44, 0xbd, 0x4f, 0xd6, 0x24, 0xbe,
  0xfc, 0xc4, 0xc6, 0x3b, 0xca, 0x66, 0xa7, 0x3d, 0x09, 0x68, 0xb2, 0x3d,
  0xb3, 0xec, 0xe1, 0x3d, 0x00, 0xac, 0x0e, 0x3e, 0x02, 0x4e, 0xc4, 0xbd,
  0x49, 0xfe, 0x13, 0xbe, 0x36, 0x28, 0xa5, 0xbc, 0x3c, 0x1c, 0x2a, 0x3c,
  0xdb, 0x6a, 0x4e, 0xbe, 0x21, 0x5f, 0x2c, 0xbe, 0x7e, 0xd4, 0xa8, 0xbb,
  0x72, 0xe4, 0x84, 0xbe, 0x13, 0x94, 0x84, 0xbd, 0x93, 0x5c, 0xe7, 0xbd,
  0x7a, 0x3c, 0x53, 0xbc, 0x26, 0x13, 0xb9, 0xbd, 0xb5, 0x1c, 0x3e, 0xbe,
  0x53, 0x65, 0x11, 0xbe, 0xa1, 0xe1, 0x4f, 0xbd, 0x95, 0x1a, 0xb0, 0x3d,
  0xae, 0x9f, 0x2c, 0xbe, 0x88, 0x68, 0x36, 0xbe, 0x7e, 0xbe, 0xe7, 0xbd,
  0x54, 0xdc, 0x45, 0xbe, 0x25, 0xc5, 0xf8, 0xbd, 0x78, 0x58, 0xdd, 0xbd,
  0xb4, 0x7a, 0x02, 0xbe, 0x98, 0x1d, 0x7a, 0xbd, 0x6d, 0x5a, 0x38, 0xbb,
  0x8e, 0xcc, 0xae, 0xbd, 0x58, 0xe3, 0x77, 0xbc, 0xc1, 0x43, 0x0a, 0x3d,
  0x64, 0xc9, 0x56, 0xbd, 0x8b, 0xe6, 0x49, 0xbe, 0x14, 0x82, 0xfb, 0xbd,
  0xe1, 0xbf, 0x9c, 0x3d, 0x09, 0x5e, 0x57, 0x3d, 0x00, 0x20, 0x2a, 0x3e,
  0xa4, 0x04, 0x54, 0x3d, 0x68, 0x07, 0x5e, 0xbd, 0x2f, 0xdf, 0xab, 0xbc,
  0xb5, 0x21, 0xc9, 0xbd, 0x82, 0x80, 0x72, 0xbd, 0x0f, 0x9c, 0x26, 0xbd,
  0x60, 0xc6, 0xf0, 0xbd, 0x25, 0x1e, 0x03, 0xbd, 0x09, 0x70, 0xed, 0x3d,
  0xaa, 0x97, 0x14, 0x3c, 0x46, 0x8b, 0x8f, 0xbd, 0xe7, 0x4c, 0xc8, 0xbd,
  0x0a, 0x31, 0x65, 0x3e, 0xc5, 0xa8, 0x75, 0x3d, 0xf6, 0x9a, 0xe0, 0x3d,
  0x98, 0x17, 0x52, 0x3e, 0xe1, 0x27, 0xaf, 0xbd, 0x23, 0x4d, 0x6e, 0x3d,
  0xd1, 0x35, 0x17, 0xbe, 0x38, 0xd0, 0xdd, 0xbd, 0x82, 0x08, 0xaf, 0xbb,
  0x5f, 0x09, 0x92, 0x3d, 0x8a, 0xce, 0x6d, 0x3e, 0x0b, 0x4b, 0x8e, 0x3d,
  0x1e, 0xc8, 0xab, 0x3e, 0x8a, 0x60, 0x48, 0x3e, 0x35, 0x83, 0x88, 0x3e,
  0x9a, 0x41, 0xcb, 0x3e, 0x8f, 0x49, 0xa6, 0x3e, 0x0e, 0xff, 0xff, 0xff,
  0x04, 0x00, 0x00, 0x00, 0x08, 0x00, 0x00, 0x00, 0xff, 0xff, 0xff, 0xff,
  0x00, 0x01, 0x00, 0x00, 0x22, 0xff, 0xff, 0xff, 0x04, 0x00, 0x00, 0x00,
  0x08, 0x00, 0x00, 0x00, 0x23, 0x9b, 0xd4, 0x3d, 0x37, 0x33, 0xd3, 0x3e,
  0x36, 0xff, 0xff, 0xff, 0x04, 0x00, 0x00, 0x00, 0x08, 0x00, 0x00, 0x00,
  0xa4, 0xa3, 0x6d, 0xba, 0xb6, 0xa1, 0x6d, 0x3a, 0x4a, 0xff, 0xff, 0xff,
  0x04, 0x00, 0x00, 0x00, 0x10, 0x00, 0x00, 0x00, 0xdc, 0x7c, 0xa3, 0x3e,
  0x48, 0x33, 0xea, 0xbd, 0x69, 0x0d, 0xfa, 0x3e, 0xb9, 0xe0, 0x50, 0x3f,
  0x66, 0xff, 0xff, 0xff, 0x04, 0x00, 0x00, 0x00, 0x04, 0x00, 0x00, 0x00,
  0x46, 0xea, 0x59, 0x3b, 0x40, 0xf9, 0xff, 0xff, 0x44, 0xf9, 0xff, 0xff,
  0x0f, 0x00, 0x00, 0x00, 0x4d, 0x4c, 0x49, 0x52, 0x20, 0x43, 0x6f, 0x6e,
  0x76, 0x65, 0x72, 0x74, 0x65, 0x64, 0x2e, 0x00, 0x01, 0x00, 0x00, 0x00,
  0x14, 0x00, 0x00, 0x00, 0x00, 0x00, 0x0e, 0x00, 0x18, 0x00, 0x14, 0x00,
  0x10, 0x00, 0x0c, 0x00, 0x08, 0x00, 0x04, 0x00, 0x0e, 0x00, 0x00, 0x00,
  0x14, 0x00, 0x00, 0x00, 0x1c, 0x00, 0x00, 0x00, 0x78, 0x01, 0x00, 0x00,
  0x7c, 0x01, 0x00, 0x00, 0x80, 0x01, 0x00, 0x00, 0x04, 0x00, 0x00, 0x00,
  0x6d, 0x61, 0x69, 0x6e, 0x00, 0x00, 0x00, 0x00, 0x05, 0x00, 0x00, 0x00,
  0x10, 0x01, 0x00, 0x00, 0xd8, 0x00, 0x00, 0x00, 0x88, 0x00, 0x00, 0x00,
  0x40, 0x00, 0x00, 0x00, 0x04, 0x00, 0x00, 0x00, 0x92, 0xff, 0xff, 0xff,
  0x1c, 0x00, 0x00, 0x00, 0x00, 0x00, 0x00, 0x09, 0x1c, 0x00, 0x00, 0x00,
  0x20, 0x00, 0x00, 0x00, 0x03, 0x00, 0x00, 0x00, 0x00, 0x00, 0x06, 0x00,
  0x08, 0x00, 0x04, 0x00, 0x06, 0x00, 0x00, 0x00, 0x00, 0x00, 0x80, 0x3f,
  0x01, 0x00, 0x00, 0x00, 0x0c, 0x00, 0x00, 0x00, 0x01, 0x00, 0x00, 0x00,
  0x0b, 0x00, 0x00, 0x00, 0xca, 0xff, 0xff, 0xff, 0x14, 0x00, 0x00, 0x00,
  0x00, 0x00, 0x00, 0x08, 0x10, 0x00, 0x00, 0x00, 0x14, 0x00, 0x00, 0x00,
  0x02, 0x00, 0x00, 0x00, 0x00, 0xfa, 0xff, 0xff, 0x01, 0x00, 0x00, 0x00,
  0x0b, 0x00, 0x00, 0x00, 0x03, 0x00, 0x00, 0x00, 0x0a, 0x00, 0x00, 0x00,
  0x07, 0x00, 0x00, 0x00, 0x03, 0x00, 0x00, 0x00, 0x00, 0x00, 0x0e, 0x00,
  0x1a, 0x00, 0x14, 0x00, 0x10, 0x00, 0x0c, 0x00, 0x0b, 0x00, 0x04, 0x00,
  0x0e, 0x00, 0x00, 0x00, 0x1c, 0x00, 0x00, 0x00, 0x00, 0x00, 0x00, 0x08,
  0x1c, 0x00, 0x00, 0x00, 0x20, 0x00, 0x00, 0x00, 0x02, 0x00, 0x00, 0x00,
  0x00, 0x00, 0x06, 0x00, 0x08, 0x00, 0x07, 0x00, 0x06, 0x00, 0x00, 0x00,
  0x00, 0x00, 0x00, 0x01, 0x01, 0x00, 0x00, 0x00, 0x0a, 0x00, 0x00, 0x00,
  0x03, 0x00, 0x00, 0x00, 0x09, 0x00, 0x00, 0x00, 0x06, 0x00, 0x00, 0x00,
  0x04, 0x00, 0x00, 0x00, 0x00, 0x00, 0x0a, 0x00, 0x10, 0x00, 0x0c, 0x00,
  0x08, 0x00, 0x04, 0x00, 0x0a, 0x00, 0x00, 0x00, 0x0c, 0x00, 0x00, 0x00,
  0x10, 0x00, 0x00, 0x00, 0x01, 0x00, 0x00, 0x00, 0x01, 0x00, 0x00, 0x00,
  0x09, 0x00, 0x00, 0x00, 0x02, 0x00, 0x00, 0x00, 0x08, 0x00, 0x00, 0x00,
  0x05, 0x00, 0x00, 0x00, 0x00, 0x00, 0x0e, 0x00, 0x14, 0x00, 0x00, 0x00,
  0x10, 0x00, 0x0c, 0x00, 0x0b, 0x00, 0x04, 0x00, 0x0e, 0x00, 0x00, 0x00,
  0x1c, 0x00, 0x00, 0x00, 0x00, 0x00, 0x00, 0x01, 0x28, 0x00, 0x00, 0x00,
  0x2c, 0x00, 0x00, 0x00, 0x0c, 0x00, 0x14, 0x00, 0x13, 0x00, 0x0c, 0x00,
  0x08, 0x00, 0x07, 0x00, 0x0c, 0x00, 0x00, 0x00, 0x00, 0x00, 0x00, 0x01,
  0x01, 0x00, 0x00, 0x00, 0x01, 0x00, 0x00, 0x00, 0x00, 0x00, 0x00, 0x01,
  0x01, 0x00, 0x00, 0x00, 0x08, 0x00, 0x00, 0x00, 0x03, 0x00, 0x00, 0x00,
  0x00, 0x00, 0x00, 0x00, 0x02, 0x00, 0x00, 0x00, 0x01, 0x00, 0x00, 0x00,
  0x01, 0x00, 0x00, 0x00, 0x0c, 0x00, 0x00, 0x00, 0x01, 0x00, 0x00, 0x00,
  0x00, 0x00, 0x00, 0x00, 0x0d, 0x00, 0x00, 0x00, 0xdc, 0x04, 0x00, 0x00,
  0x68, 0x04, 0x00, 0x00, 0x10, 0x04, 0x00, 0x00, 0xb4, 0x03, 0x00, 0x00,
  0x58, 0x03, 0x00, 0x00, 0x08, 0x03, 0x00, 0x00, 0xa0, 0x02, 0x00, 0x00,
  0x50, 0x02, 0x00, 0x00, 0x94, 0x01, 0x00, 0x00, 0x44, 0x01, 0x00, 0x00,
  0xbc, 0x00, 0x00, 0x00, 0x50, 0x00, 0x00, 0x00, 0x04, 0x00, 0x00, 0x00,
  0x6e, 0xfb, 0xff, 0xff, 0x00, 0x00, 0x00, 0x01, 0x10, 0x00, 0x00, 0x00,
  0x10, 0x00, 0x00, 0x00, 0x0d, 0x00, 0x00, 0x00, 0x28, 0x00, 0x00, 0x00,
  0x58, 0xfb, 0xff, 0xff, 0x19, 0x00, 0x00, 0x00, 0x53, 0x74, 0x61, 0x74,
  0x65, 0x66, 0x75, 0x6c, 0x50, 0x61, 0x72, 0x74, 0x69, 0x74, 0x69, 0x6f,
  0x6e, 0x65, 0x64, 0x43, 0x61, 0x6c, 0x6c, 0x3a, 0x30, 0x00, 0x00, 0x00,
  0x02, 0x00, 0x00, 0x00, 0x01, 0x00, 0x00, 0x00, 0x02, 0x00, 0x00, 0x00,
  0xb6, 0xfb, 0xff, 0xff, 0x00, 0x00, 0x00, 0x01, 0x10, 0x00, 0x00, 0x00,
  0x10, 0x00, 0x00, 0x00, 0x0c, 0x00, 0x00, 0x00, 0x48, 0x00, 0x00, 0x00,
  0xa0, 0xfb, 0xff, 0xff, 0x3a, 0x00, 0x00, 0x00, 0x73, 0x65, 0x71, 0x75,
  0x65, 0x6e, 0x74, 0x69, 0x61, 0x6c, 0x5f, 0x39, 0x2f, 0x64, 0x65, 0x6e,
  0x73, 0x65, 0x5f, 0x31, 0x39, 0x2f, 0x4d, 0x61, 0x74, 0x4d, 0x75, 0x6c,
  0x3b, 0x73, 0x65, 0x71, 0x75, 0x65, 0x6e, 0x74, 0x69, 0x61, 0x6c, 0x5f,
  0x39, 0x2f, 0x64, 0x65, 0x6e, 0x73, 0x65, 0x5f, 0x31, 0x39, 0x2f, 0x42,
  0x69, 0x61, 0x73, 0x41, 0x64, 0x64, 0x00, 0x00, 0x02, 0x00, 0x00, 0x00,
  0x01, 0x00, 0x00, 0x00, 0x02, 0x00, 0x00, 0x00, 0x1e, 0xfc, 0xff, 0xff,
  0x00, 0x00, 0x00, 0x01, 0x10, 0x00, 0x00, 0x00, 0x10, 0x00, 0x00, 0x00,
  0x0b, 0x00, 0x00, 0x00, 0x64, 0x00, 0x00, 0x00, 0x08, 0xfc, 0xff, 0xff,
  0x55, 0x00, 0x00, 0x00, 0x73, 0x65, 0x71, 0x75, 0x65, 0x6e, 0x74, 0x69,
  0x61, 0x6c, 0x5f, 0x39, 0x2f, 0x64, 0x65, 0x6e, 0x73, 0x65, 0x5f, 0x31,
  0x38, 0x2f, 0x4d, 0x61, 0x74, 0x4d, 0x75, 0x6c, 0x3b, 0x73, 0x65, 0x71,
  0x75, 0x65, 0x6e, 0x74, 0x69, 0x61, 0x6c, 0x5f, 0x39, 0x2f, 0x64, 0x65,
  0x6e, 0x73, 0x65, 0x5f, 0x31, 0x38, 0x2f, 0x52, 0x65, 0x6c, 0x75, 0x3b,
  0x73, 0x65, 0x71, 0x75, 0x65, 0x6e, 0x74, 0x69, 0x61, 0x6c, 0x5f, 0x39,
  0x2f, 0x64, 0x65, 0x6e, 0x73, 0x65, 0x5f, 0x31, 0x38, 0x2f, 0x42, 0x69,
  0x61, 0x73, 0x41, 0x64, 0x64, 0x00, 0x00, 0x00, 0x02, 0x00, 0x00, 0x00,
  0x01, 0x00, 0x00, 0x00, 0x02, 0x00, 0x00, 0x00, 0xa2, 0xfc, 0xff, 0xff,
  0x00, 0x00, 0x00, 0x01, 0x10, 0x00, 0x00, 0x00, 0x10, 0x00, 0x00, 0x00,
  0x0a, 0x00, 0x00, 0x00, 0x2c, 0x00, 0x00, 0x00, 0x8c, 0xfc, 0xff, 0xff,
  0x1e, 0x00, 0x00, 0x00, 0x73, 0x65, 0x71, 0x75, 0x65, 0x6e, 0x74, 0x69,
  0x61, 0x6c, 0x5f, 0x39, 0x2f, 0x66, 0x6c, 0x61, 0x74, 0x74, 0x65, 0x6e,
  0x5f, 0x38, 0x2f, 0x52, 0x65, 0x73, 0x68, 0x61, 0x70, 0x65, 0x00, 0x00,
  0x02, 0x00, 0x00, 0x00, 0x01, 0x00, 0x00, 0x00, 0x00, 0x01, 0x00, 0x00,
  0xee, 0xfc, 0xff, 0xff, 0x00, 0x00, 0x00, 0x01, 0x10, 0x00, 0x00, 0x00,
  0x10, 0x00, 0x00, 0x00, 0x09, 0x00, 0x00, 0x00, 0x90, 0x00, 0x00, 0x00,
  0xd8, 0xfc, 0xff, 0xff, 0x82, 0x00, 0x00, 0x00, 0x73, 0x65, 0x71, 0x75,
  0x65, 0x6e, 0x74, 0x69, 0x61, 0x6c, 0x5f, 0x39, 0x2f, 0x63, 0x6f, 0x6e,
  0x76, 0x32, 0x64, 0x5f, 0x39, 0x2f, 0x52, 0x65, 0x6c, 0x75, 0x3b, 0x73,
  0x65, 0x71, 0x75, 0x65, 0x6e, 0x74, 0x69, 0x61, 0x6c, 0x5f, 0x39, 0x2f,
  0x63, 0x6f, 0x6e, 0x76, 0x32, 0x64, 0x5f, 0x39, 0x2f, 0x42, 0x69, 0x61,
  0x73, 0x41, 0x64, 0x64, 0x3b, 0x73, 0x65, 0x71, 0x75, 0x65, 0x6e, 0x74,
  0x69, 0x61, 0x6c, 0x5f, 0x39, 0x2f, 0x63, 0x6f, 0x6e, 0x76, 0x32, 0x64,
  0x5f, 0x39, 0x2f, 0x43, 0x6f, 0x6e, 0x76, 0x32, 0x44, 0x3b, 0x73, 0x65,
  0x71, 0x75, 0x65, 0x6e, 0x74, 0x69, 0x61, 0x6c, 0x5f, 0x39, 0x2f, 0x63,
  0x6f, 0x6e, 0x76, 0x32, 0x64, 0x5f, 0x39, 0x2f, 0x42, 0x69, 0x61, 0x73,
  0x41, 0x64, 0x64, 0x2f, 0x52, 0x65, 0x61, 0x64, 0x56, 0x61, 0x72, 0x69,
  0x61, 0x62, 0x6c, 0x65, 0x4f, 0x70, 0x00, 0x00, 0x04, 0x00, 0x00, 0x00,
  0x01, 0x00, 0x00, 0x00, 0x02, 0x00, 0x00, 0x00, 0x80, 0x00, 0x00, 0x00,
  0x01, 0x00, 0x00, 0x00, 0xa6, 0xfd, 0xff, 0xff, 0x00, 0x00, 0x00, 0x01,
  0x10, 0x00, 0x00, 0x00, 0x10, 0x00, 0x00, 0x00, 0x08, 0x00, 0x00, 0x00,
  0x2c, 0x00, 0x00, 0x00, 0x90, 0xfd, 0xff, 0xff, 0x1c, 0x00, 0x00, 0x00,
  0x73, 0x65, 0x71, 0x75, 0x65, 0x6e, 0x74, 0x69, 0x61, 0x6c, 0x5f, 0x39,
  0x2f, 0x64, 0x65, 0x6e, 0x73, 0x65, 0x5f, 0x31, 0x39, 0x2f, 0x4d, 0x61,
  0x74, 0x4d, 0x75, 0x6c, 0x00, 0x00, 0x00, 0x00, 0x02, 0x00, 0x00, 0x00,
  0x02, 0x00, 0x00, 0x00, 0x02, 0x00, 0x00, 0x00, 0xf2, 0xfd, 0xff, 0xff,
  0x00, 0x00, 0x00, 0x01, 0x10, 0x00, 0x00, 0x00, 0x10, 0x00, 0x00, 0x00,
  0x07, 0x00, 0x00, 0x00, 0x2c, 0x00, 0x00, 0x00, 0xdc, 0xfd, 0xff, 0xff,
  0x1c, 0x00, 0x00, 0x00, 0x73, 0x65, 0x71, 0x75, 0x65, 0x6e, 0x74, 0x69,
  0x61, 0x6c, 0x5f, 0x39, 0x2f, 0x64, 0x65, 0x6e, 0x73, 0x65, 0x5f, 0x31,
  0x38, 0x2f, 0x4d, 0x61, 0x74, 0x4d, 0x75, 0x6c, 0x00, 0x00, 0x00, 0x00,
  0x02, 0x00, 0x00, 0x00, 0x02, 0x00, 0x00, 0x00, 0x00, 0x01, 0x00, 0x00,
  0x00, 0x00, 0x16, 0x00, 0x1c, 0x00, 0x18, 0x00, 0x17, 0x00, 0x10, 0x00,
  0x0c, 0x00, 0x08, 0x00, 0x00, 0x00, 0x00, 0x00, 0x00, 0x00, 0x07, 0x00,
  0x16, 0x00, 0x00, 0x00, 0x00, 0x00, 0x00, 0x01, 0x14, 0x00, 0x00, 0x00,
  0x14, 0x00, 0x00, 0x00, 0x06, 0x00, 0x00, 0x00, 0x00, 0x00, 0x00, 0x02,
  0x2c, 0x00, 0x00, 0x00, 0x44, 0xfe, 0xff, 0xff, 0x1c, 0x00, 0x00, 0x00,
  0x73, 0x65, 0x71, 0x75, 0x65, 0x6e, 0x74, 0x69, 0x61, 0x6c, 0x5f, 0x39,
  0x2f, 0x66, 0x6c, 0x61, 0x74, 0x74, 0x65, 0x6e, 0x5f, 0x38, 0x2f, 0x43,
  0x6f, 0x6e, 0x73, 0x74, 0x00, 0x00, 0x00, 0x00, 0x01, 0x00, 0x00, 0x00,
  0x02, 0x00, 0x00, 0x00, 0xa2, 0xfe, 0xff, 0xff, 0x00, 0x00, 0x00, 0x01,
  0x10, 0x00, 0x00, 0x00, 0x10, 0x00, 0x00, 0x00, 0x05, 0x00, 0x00, 0x00,
  0x3c, 0x00, 0x00, 0x00, 0x8c, 0xfe, 0xff, 0xff, 0x2c, 0x00, 0x00, 0x00,
  0x73, 0x65, 0x71, 0x75, 0x65, 0x6e, 0x74, 0x69, 0x61, 0x6c, 0x5f, 0x39,
  0x2f, 0x64, 0x65, 0x6e, 0x73, 0x65, 0x5f, 0x31, 0x38, 0x2f, 0x42, 0x69,
  0x61, 0x73, 0x41, 0x64, 0x64, 0x2f, 0x52, 0x65, 0x61, 0x64, 0x56, 0x61,
  0x72, 0x69, 0x61, 0x62, 0x6c, 0x65, 0x4f, 0x70, 0x00, 0x00, 0x00, 0x00,
  0x01, 0x00, 0x00, 0x00, 0x02, 0x00, 0x00, 0x00, 0xfa, 0xfe, 0xff, 0xff,
  0x00, 0x00, 0x00, 0x01, 0x10, 0x00, 0x00, 0x00, 0x10, 0x00, 0x00, 0x00,
  0x04, 0x00, 0x00, 0x00, 0x3c, 0x00, 0x00, 0x00, 0xe4, 0xfe, 0xff, 0xff,
  0x2c, 0x00, 0x00, 0x00, 0x73, 0x65, 0x71, 0x75, 0x65, 0x6e, 0x74, 0x69,
  0x61, 0x6c, 0x5f, 0x39, 0x2f, 0x64, 0x65, 0x6e, 0x73, 0x65, 0x5f, 0x31,
  0x39, 0x2f, 0x42, 0x69, 0x61, 0x73, 0x41, 0x64, 0x64, 0x2f, 0x52, 0x65,
  0x61, 0x64, 0x56, 0x61, 0x72, 0x69, 0x61, 0x62, 0x6c, 0x65, 0x4f, 0x70,
  0x00, 0x00, 0x00, 0x00, 0x01, 0x00, 0x00, 0x00, 0x02, 0x00, 0x00, 0x00,
  0x52, 0xff, 0xff, 0xff, 0x00, 0x00, 0x00, 0x01, 0x10, 0x00, 0x00, 0x00,
  0x10, 0x00, 0x00, 0x00, 0x03, 0x00, 0x00, 0x00, 0x2c, 0x00, 0x00, 0x00,
  0x3c, 0xff, 0xff, 0xff, 0x1c, 0x00, 0x00, 0x00, 0x73, 0x65, 0x71, 0x75,
  0x65, 0x6e, 0x74, 0x69, 0x61, 0x6c, 0x5f, 0x39, 0x2f, 0x63, 0x6f, 0x6e,
  0x76, 0x32, 0x64, 0x5f, 0x39, 0x2f, 0x43, 0x6f, 0x6e, 0x76, 0x32, 0x44,
  0x00, 0x00, 0x00, 0x00, 0x04, 0x00, 0x00, 0x00, 0x01, 0x00, 0x00, 0x00,
  0x02, 0x00, 0x00, 0x00, 0x02, 0x00, 0x00, 0x00, 0x01, 0x00, 0x00, 0x00,
  0xa6, 0xff, 0xff, 0xff, 0x00, 0x00, 0x00, 0x01, 0x10, 0x00, 0x00, 0x00,
  0x10, 0x00, 0x00, 0x00, 0x02, 0x00, 0x00, 0x00, 0x3c, 0x00, 0x00, 0x00,
  0x90, 0xff, 0xff, 0xff, 0x2c, 0x00, 0x00, 0x00, 0x73, 0x65, 0x71, 0x75,
  0x65, 0x6e, 0x74, 0x69, 0x61, 0x6c, 0x5f, 0x39, 0x2f, 0x63, 0x6f, 0x6e,
  0x76, 0x32, 0x64, 0x5f, 0x39, 0x2f, 0x42, 0x69, 0x61, 0x73, 0x41, 0x64,
  0x64, 0x2f, 0x52, 0x65, 0x61, 0x64, 0x56, 0x61, 0x72, 0x69, 0x61, 0x62,
  0x6c, 0x65, 0x4f, 0x70, 0x00, 0x00, 0x00, 0x00, 0x01, 0x00, 0x00, 0x00,
  0x01, 0x00, 0x00, 0x00, 0x00, 0x00, 0x16, 0x00, 0x18, 0x00, 0x14, 0x00,
  0x00, 0x00, 0x10, 0x00, 0x0c, 0x00, 0x08, 0x00, 0x00, 0x00, 0x00, 0x00,
  0x00, 0x00, 0x07, 0x00, 0x16, 0x00, 0x00, 0x00, 0x00, 0x00, 0x00, 0x01,
  0x14, 0x00, 0x00, 0x00, 0x14, 0x00, 0x00, 0x00, 0x01, 0x00, 0x00, 0x00,
  0x2c, 0x00, 0x00, 0x00, 0x04, 0x00, 0x04, 0x00, 0x04, 0x00, 0x00, 0x00,
  0x1a, 0x00, 0x00, 0x00, 0x73, 0x65, 0x72, 0x76, 0x69, 0x6e, 0x67, 0x5f,
  0x64, 0x65, 0x66, 0x61, 0x75, 0x6c, 0x74, 0x5f, 0x69, 0x6e, 0x70, 0x75,
  0x74, 0x5f, 0x31, 0x30, 0x3a, 0x30, 0x00, 0x00, 0x04, 0x00, 0x00, 0x00,
  0x01, 0x00, 0x00, 0x00, 0x03, 0x00, 0x00, 0x00, 0x81, 0x00, 0x00, 0x00,
  0x01, 0x00, 0x00, 0x00, 0x04, 0x00, 0x00, 0x00, 0x40, 0x00, 0x00, 0x00,
  0x24, 0x00, 0x00, 0x00, 0x14, 0x00, 0x00, 0x00, 0x04, 0x00, 0x00, 0x00,
  0xdc, 0xff, 0xff, 0xff, 0x19, 0x00, 0x00, 0x00, 0x00, 0x00, 0x00, 0x19,
  0xe8, 0xff, 0xff, 0xff, 0x09, 0x00, 0x00, 0x00, 0x00, 0x00, 0x00, 0x09,
  0xf4, 0xff, 0xff, 0xff, 0x16, 0x00, 0x00, 0x00, 0x00, 0x00, 0x00, 0x16,
  0x0c, 0x00, 0x0c, 0x00, 0x0b, 0x00, 0x00, 0x00, 0x00, 0x00, 0x04, 0x00,
  0x0c, 0x00, 0x00, 0x00, 0x03, 0x00, 0x00, 0x00, 0x00, 0x00, 0x00, 0x03
};
unsigned int g_model_len = 4536;
