unsigned char g_model[] = {
  0x1c, 0x00, 0x00, 0x00, 0x54, 0x46, 0x4c, 0x33, 0x14, 0x00, 0x20, 0x00,
  0x1c, 0x00, 0x18, 0x00, 0x14, 0x00, 0x10, 0x00, 0x0c, 0x00, 0x00, 0x00,
  0x08, 0x00, 0x04, 0x00, 0x14, 0x00, 0x00, 0x00, 0x1c, 0x00, 0x00, 0x00,
  0x90, 0x00, 0x00, 0x00, 0xe8, 0x00, 0x00, 0x00, 0xa8, 0x34, 0x00, 0x00,
  0xb8, 0x34, 0x00, 0x00, 0x1c, 0x3b, 0x00, 0x00, 0x03, 0x00, 0x00, 0x00,
  0x01, 0x00, 0x00, 0x00, 0x10, 0x00, 0x00, 0x00, 0x00, 0x00, 0x0a, 0x00,
  0x10, 0x00, 0x0c, 0x00, 0x08, 0x00, 0x04, 0x00, 0x0a, 0x00, 0x00, 0x00,
  0x0c, 0x00, 0x00, 0x00, 0x1c, 0x00, 0x00, 0x00, 0x38, 0x00, 0x00, 0x00,
  0x0f, 0x00, 0x00, 0x00, 0x73, 0x65, 0x72, 0x76, 0x69, 0x6e, 0x67, 0x5f,
  0x64, 0x65, 0x66, 0x61, 0x75, 0x6c, 0x74, 0x00, 0x01, 0x00, 0x00, 0x00,
  0x04, 0x00, 0x00, 0x00, 0x98, 0xff, 0xff, 0xff, 0x0c, 0x00, 0x00, 0x00,
  0x04, 0x00, 0x00, 0x00, 0x07, 0x00, 0x00, 0x00, 0x64, 0x65, 0x6e, 0x73,
  0x65, 0x5f, 0x33, 0x00, 0x01, 0x00, 0x00, 0x00, 0x04, 0x00, 0x00, 0x00,
  0xe2, 0xcc, 0xff, 0xff, 0x04, 0x00, 0x00, 0x00, 0x0b, 0x00, 0x00, 0x00,
  0x64, 0x65, 0x6e, 0x73, 0x65, 0x5f, 0x69, 0x6e, 0x70, 0x75, 0x74, 0x00,
  0x02, 0x00, 0x00, 0x00, 0x34, 0x00, 0x00, 0x00, 0x04, 0x00, 0x00, 0x00,
  0xdc, 0xff, 0xff, 0xff, 0x0f, 0x00, 0x00, 0x00, 0x04, 0x00, 0x00, 0x00,
  0x13, 0x00, 0x00, 0x00, 0x43, 0x4f, 0x4e, 0x56, 0x45, 0x52, 0x53, 0x49,
  0x4f, 0x4e, 0x5f, 0x4d, 0x45, 0x54, 0x41, 0x44, 0x41, 0x54, 0x41, 0x00,
  0x08, 0x00, 0x0c, 0x00, 0x08, 0x00, 0x04, 0x00, 0x08, 0x00, 0x00, 0x00,
  0x0e, 0x00, 0x00, 0x00, 0x04, 0x00, 0x00, 0x00, 0x13, 0x00, 0x00, 0x00,
  0x6d, 0x69, 0x6e, 0x5f, 0x72, 0x75, 0x6e, 0x74, 0x69, 0x6d, 0x65, 0x5f,
  0x76, 0x65, 0x72, 0x73, 0x69, 0x6f, 0x6e, 0x00, 0x10, 0x00, 0x00, 0x00,
  0xbc, 0x33, 0x00, 0x00, 0xb4, 0x33, 0x00, 0x00, 0xa4, 0x32, 0x00, 0x00,
  0x4c, 0x32, 0x00, 0x00, 0x38, 0x32, 0x00, 0x00, 0xa8, 0x31, 0x00, 0x00,
  0x18, 0x31, 0x00, 0x00, 0x08, 0x11, 0x00, 0x00, 0xf8, 0x00, 0x00, 0x00,
  0xa8, 0x00, 0x00, 0x00, 0xa0, 0x00, 0x00, 0x00, 0x98, 0x00, 0x00, 0x00,
  0x90, 0x00, 0x00, 0x00, 0x88, 0x00, 0x00, 0x00, 0x68, 0x00, 0x00, 0x00,
  0x04, 0x00, 0x00, 0x00, 0x9a, 0xcd, 0xff, 0xff, 0x04, 0x00, 0x00, 0x00,
  0x54, 0x00, 0x00, 0x00, 0x0c, 0x00, 0x00, 0x00, 0x08, 0x00, 0x0e, 0x00,
  0x08, 0x00, 0x04, 0x00, 0x08, 0x00, 0x00, 0x00, 0x10, 0x00, 0x00, 0x00,
  0x24, 0x00, 0x00, 0x00, 0x00, 0x00, 0x06, 0x00, 0x08, 0x00, 0x04, 0x00,
  0x06, 0x00, 0x00, 0x00, 0x04, 0x00, 0x00, 0x00, 0x00, 0x00, 0x00, 0x00,
  0x00, 0x00, 0x0a, 0x00, 0x10, 0x00, 0x0c, 0x00, 0x08, 0x00, 0x04, 0x00,
  0x0a, 0x00, 0x00, 0x00, 0x01, 0x00, 0x00, 0x00, 0x02, 0x00, 0x00, 0x00,
  0x04, 0x00, 0x00, 0x00, 0x06, 0x00, 0x00, 0x00, 0x32, 0x2e, 0x31, 0x35,
  0x2e, 0x30, 0x00, 0x00, 0xfa, 0xcd, 0xff, 0xff, 0x04, 0x00, 0x00, 0x00,
  0x10, 0x00, 0x00, 0x00, 0x31, 0x2e, 0x35, 0x2e, 0x30, 0x00, 0x00, 0x00,
  0x00, 0x00, 0x00, 0x00, 0x00, 0x00, 0x00, 0x00, 0xb8, 0xc6, 0xff, 0xff,
  0xbc, 0xc6, 0xff, 0xff, 0xc0, 0xc6, 0xff, 0xff, 0xc4, 0xc6, 0xff, 0xff,
  0x26, 0xce, 0xff, 0xff, 0x04, 0x00, 0x00, 0x00, 0x40, 0x00, 0x00, 0x00,
  0x2e, 0xc5, 0x0c, 0xbf, 0xdb, 0xee, 0xc1, 0x3e, 0xb3, 0xa1, 0x22, 0xbf,
  0x86, 0x7b, 0xbb, 0xbe, 0x07, 0x3f, 0xa5, 0xbe, 0x7e, 0xfb, 0x00, 0x3f,
  0x3b, 0x82, 0x73, 0xbe, 0x5d, 0xac, 0x09, 0x3f, 0xc0, 0xac, 0x40, 0xbe,
  0x28, 0xa8, 0x03, 0x3f, 0x14, 0x7b, 0xcf, 0xbd, 0x0f, 0xe9, 0x20, 0xbf,
  0xa0, 0x24, 0x13, 0xbf, 0xd2, 0x93, 0x12, 0xbe, 0x67, 0xb7, 0x03, 0xbe,
  0x94, 0x0b, 0x2b, 0x3f, 0x72, 0xce, 0xff, 0xff, 0x04, 0x00, 0x00, 0x00,
  0x00, 0x10, 0x00, 0x00, 0x4f, 0x9d, 0x55, 0xbe, 0x52, 0x23, 0x48, 0x3e,
  0x81, 0xc7, 0x7a, 0xbe, 0x65, 0xef, 0x3b, 0xbe, 0x7c, 0x17, 0xb0, 0xbd,
  0x60, 0x6e, 0x6a, 0xbe, 0x40, 0xb1, 0x0e, 0x3d, 0xaa, 0x0f, 0x22, 0xbe,
  0x2a, 0xed, 0x81, 0x3e, 0xcc, 0x55, 0xa2, 0x3d, 0x1a, 0x3b, 0x52, 0xbe,
  0x60, 0x84, 0x24, 0xbe, 0xb0, 0xe6, 0x26, 0xbf, 0x0c, 0x80, 0x99, 0x3d,
  0xee, 0x1a, 0x14, 0x3e, 0x31, 0xfb, 0x6a, 0xbd, 0x62, 0x24, 0x09, 0x3e,
  0x63, 0x68, 0x35, 0x3e, 0x74, 0x60, 0x28, 0xbf, 0xfc, 0xd6, 0x51, 0xbd,
  0xce, 0xd4, 0x9e, 0xbd, 0x54, 0x5d, 0x0e, 0xbd, 0x80, 0x48, 0xbe, 0x3d,
  0x10, 0x71, 0x89, 0x3e, 0xf0, 0x55, 0xa6, 0x3d, 0xb4, 0x15, 0x7b, 0x3d,
  0x66, 0x6e, 0x41, 0x3e, 0x62, 0xb6, 0xaf, 0x3e, 0x8a, 0xdf, 0x4b, 0x3e,
  0xec, 0x9e, 0x31, 0x3e, 0xea, 0x21, 0x42, 0xbe, 0x3d, 0x6e, 0x85, 0xbe,
  0x7b, 0x4c, 0x1e, 0xbe, 0xac, 0x11, 0x5a, 0xbd, 0x4d, 0x7e, 0x5e, 0xbe,
  0xd8, 0xc5, 0x7e, 0x3d, 0xff, 0x9c, 0x4b, 0x3e, 0x74, 0x34, 0x1c, 0xbe,
  0xd0, 0x42, 0xa6, 0xbd, 0x2e, 0xb3, 0xde, 0xbd, 0x2b, 0xfa, 0x49, 0xbe,
  0xa2, 0x6a, 0x72, 0xbe, 0x37, 0xd2, 0xe4, 0xbd, 0x6d, 0xa7, 0x88, 0xbd,
  0x3f, 0x3a, 0x49, 0x3e, 0x67, 0x92, 0xf0, 0xbd, 0x43, 0xc8, 0x31, 0x3e,
  0x67, 0x59, 0x89, 0xbe, 0x3a, 0x18, 0x39, 0x3d, 0x4e, 0x4b, 0x4e, 0x3e,
  0x0c, 0x90, 0xa5, 0x3d, 0xa0, 0x71, 0x4b, 0x3c, 0x10, 0x71, 0x50, 0x3d,
  0x02, 0xf3, 0xc4, 0xbd, 0xb4, 0xce, 0x09, 0x3e, 0x3c, 0xc8, 0xf0, 0xbd,
  0xf0, 0xec, 0x4c, 0x3d, 0xbe, 0xf5, 0x83, 0x3e, 0xef, 0xa8, 0xa8, 0x3d,
  0x88, 0xbd, 0x4f, 0x3c, 0x88, 0x29, 0x55, 0x3d, 0x86, 0xbd, 0x2f, 0x3e,
  0xac, 0x27, 0x0f, 0x3e, 0x6b, 0x0e, 0xb0, 0xbc, 0xed, 0x6d, 0x74, 0x3e,
  0x94, 0x05, 0xf4, 0xbd, 0xd5, 0xde, 0x78, 0xbe, 0xce, 0x10, 0xd7, 0x3d,
  0x10, 0xab, 0xbd, 0xbd, 0x3c, 0x59, 0x84, 0x3d, 0x50, 0x06, 0xda, 0xbc,
  0x39, 0xff, 0xab, 0x3c, 0xad, 0xea, 0x46, 0xbe, 0xda, 0xb9, 0x9c, 0xbc,
  0x15, 0xa1, 0x8b, 0xbe, 0x64, 0x8a, 0xe8, 0xbd, 0x0b, 0x75, 0xdd, 0x3e,
  0x1c, 0x85, 0xd0, 0xbd, 0x3b, 0x4f, 0x92, 0xbe, 0x0c, 0x75, 0x84, 0x3e,
  0x85, 0x34, 0x16, 0xbe, 0xb8, 0x24, 0xff, 0xba, 0xf9, 0x9f, 0x1e, 0x3f,
  0x1b, 0xe4, 0xc1, 0xbd, 0x62, 0xff, 0x81, 0x3e, 0x4a, 0xea, 0x82, 0x3e,
  0xf8, 0xfa, 0x76, 0x3e, 0xbe, 0xf0, 0x8c, 0xbd, 0x19, 0x46, 0x18, 0xbe,
  0x17, 0x65, 0xc8, 0xbd, 0xbe, 0x4d, 0x5d, 0xbe, 0x0f, 0x66, 0x99, 0xbe,
  0xb7, 0x12, 0x0b, 0xbd, 0x9b, 0x57, 0xa5, 0xbb, 0xd0, 0x8c, 0x44, 0xbe,
  0x6c, 0xe8, 0xec, 0x3a, 0xff, 0x21, 0x2d, 0xbe, 0xae, 0x51, 0x6d, 0xbe,
  0x4e, 0x5c, 0xe4, 0xbb, 0x10, 0x4e, 0x2f, 0xbd, 0xff, 0x5f, 0x56, 0xbd,
  0x39, 0xe3, 0x09, 0xbe, 0x94, 0x4f, 0x5b, 0x3e, 0xf4, 0x00, 0xbd, 0xbd,
  0x19, 0xe3, 0x2f, 0x3d, 0xf4, 0x80, 0x51, 0xbd, 0xcc, 0x54, 0x17, 0xbe,
  0x54, 0x5c, 0x27, 0x3e, 0x63, 0x82, 0x47, 0xbe, 0x8d, 0x09, 0x13, 0x3e,
  0x53, 0xdb, 0x22, 0x3e, 0x2e, 0x7a, 0x0e, 0xbe, 0x7f, 0xec, 0x0d, 0xbe,
  0xe8, 0x48, 0x53, 0xbd, 0x50, 0x80, 0xe9, 0x3d, 0x39, 0x93, 0x22, 0xbe,
  0x60, 0xe8, 0xf8, 0x3c, 0x7e, 0xde, 0x9a, 0x3d, 0xab, 0x4e, 0x5c, 0x3e,
  0x88, 0x10, 0x8d, 0xbe, 0x94, 0x60, 0xf7, 0x3d, 0xf3, 0x21, 0x74, 0xbd,
  0xc5, 0x65, 0x30, 0xbd, 0x25, 0x9e, 0x73, 0x3e, 0x3f, 0xf8, 0x40, 0xbe,
  0x14, 0x94, 0x8f, 0xbe, 0x6a, 0x9e, 0x13, 0x3e, 0x72, 0xbf, 0xae, 0xbc,
  0x2e, 0x09, 0x14, 0xbf, 0xe7, 0xa2, 0x53, 0xbe, 0x48, 0xcf, 0x1b, 0xbe,
  0x6b, 0x9f, 0x6d, 0x3e, 0xa0, 0x60, 0x6f, 0x3d, 0x40, 0x3a, 0x87, 0x3b,
  0x18, 0x09, 0x29, 0xbe, 0x9a, 0x66, 0x37, 0x3e, 0x20, 0x61, 0x43, 0x3d,
  0xd8, 0x73, 0x6b, 0xbd, 0x8c, 0x96, 0x09, 0x3e, 0x90, 0xdf, 0x51, 0x3e,
  0xaf, 0xcf, 0x0b, 0xbf, 0x86, 0xd8, 0x19, 0x3e, 0xbc, 0xd1, 0x68, 0xbd,
  0xf7, 0x4e, 0xb0, 0x3c, 0xe9, 0x7b, 0x10, 0xbe, 0xba, 0xa1, 0x74, 0x3e,
  0x91, 0x43, 0x39, 0xbf, 0xc0, 0xbe, 0x4f, 0xbc, 0xec, 0x23, 0x85, 0xbd,
  0xab, 0x6c, 0x7c, 0xbe, 0x84, 0x7d, 0x02, 0xbe, 0x0c, 0x3b, 0x87, 0x3e,
  0xa7, 0xe7, 0x5a, 0xbe, 0xf5, 0xe8, 0x13, 0xbd, 0xc3, 0x6d, 0x91, 0xbd,
  0x83, 0xb5, 0x37, 0x3d, 0x6b, 0x27, 0x71, 0x3e, 0xd1, 0x14, 0x2f, 0x3e,
  0x0c, 0xad, 0x87, 0x3e, 0x7c, 0xb8, 0x71, 0x3e, 0x6a, 0xf4, 0x68, 0x3e,
  0x00, 0xbf, 0x8c, 0x3d, 0xc5, 0xb5, 0x6c, 0xbd, 0x44, 0x54, 0x43, 0x3e,
  0xfe, 0x58, 0x9d, 0xbd, 0xfc, 0x74, 0x61, 0x3b, 0x22, 0x31, 0x3e, 0xbe,
  0x58, 0xe5, 0x1b, 0xbe, 0xa4, 0x6f, 0x59, 0xbe, 0x18, 0xdf, 0x1f, 0x3e,
  0x80, 0xce, 0xf0, 0x3d, 0x12, 0x80, 0xb6, 0x3d, 0x07, 0xef, 0x2a, 0x3e,
  0x52, 0xdd, 0xcc, 0x3d, 0x6d, 0xe5, 0xff, 0xbd, 0xea, 0xc6, 0x48, 0x3e,
  0x35, 0x41, 0x29, 0x3e, 0xa8, 0x84, 0xc5, 0xbc, 0xe0, 0x9b, 0xa9, 0x3c,
  0x6a, 0x3a, 0x84, 0x3e, 0xa4, 0x3b, 0x68, 0xbe, 0x1d, 0x69, 0xf9, 0x3c,
  0x76, 0xec, 0x01, 0xbe, 0xad, 0x94, 0x3e, 0x3e, 0x24, 0x93, 0xe1, 0xbd,
  0x9c, 0x74, 0x18, 0xbe, 0x81, 0x91, 0x27, 0x3d, 0x95, 0xb7, 0x4d, 0x3e,
  0xfb, 0xc8, 0x56, 0xbe, 0x69, 0x10, 0x4c, 0xbe, 0x68, 0x66, 0x69, 0xbe,
  0xc8, 0xe4, 0x80, 0x3b, 0xac, 0x8d, 0x39, 0x3e, 0x38, 0xee, 0xf0, 0xbc,
  0x70, 0x20, 0xa6, 0x3d, 0x32, 0x5c, 0x79, 0xbe, 0xa5, 0x60, 0x3c, 0xbe,
  0xc0, 0xa4, 0x36, 0x3d, 0x40, 0xf8, 0xb6, 0x3c, 0xf0, 0xcb, 0x69, 0x3e,
  0xa8, 0x1c, 0x32, 0x3e, 0xba, 0x58, 0x61, 0x3e, 0x26, 0x24, 0x67, 0xbe,
  0xd4, 0xbd, 0x55, 0xbe, 0x40, 0x0d, 0x0e, 0xbc, 0x4c, 0xa1, 0x90, 0x3d,
  0x18, 0xf2, 0xdc, 0xbc, 0xd3, 0x0c, 0x60, 0xbe, 0xee, 0x10, 0x1f, 0x3e,
  0xb8, 0x1d, 0xea, 0xbc, 0xe2, 0xa8, 0xfe, 0xbd, 0xb4, 0x90, 0x1f, 0x3e,
  0x06, 0xf8, 0x59, 0x3e, 0x33, 0x8b, 0x18, 0xbe, 0x40, 0xb9, 0x7e, 0x3d,
  0x16, 0xb4, 0x29, 0xbe, 0x18, 0xb2, 0x02, 0x3e, 0x9d, 0x54, 0x01, 0xbe,
  0xa2, 0x5c, 0x08, 0x3e, 0x10, 0xac, 0x46, 0xbe, 0xc0, 0xcf, 0x9d, 0xbc,
  0x16, 0x76, 0xc7, 0xbd, 0x55, 0xd1, 0x3f, 0xbe, 0xd2, 0x10, 0xc8, 0xbd,
  0xca, 0xc1, 0x7a, 0xbe, 0x90, 0xc2, 0x19, 0x3d, 0x48, 0x1d, 0x4e, 0x3e,
  0x9f, 0xe6, 0x37, 0xbe, 0xe8, 0x34, 0x54, 0xbe, 0x6e, 0x1c, 0x65, 0x3e,
  0x26, 0xc3, 0x29, 0x3e, 0x48, 0xe8, 0x85, 0x3e, 0x40, 0x9c, 0x8f, 0xbc,
  0xac, 0xff, 0x68, 0x3e, 0x56, 0xf7, 0x66, 0xbe, 0x84, 0xc0, 0x42, 0xbe,
  0x3a, 0x37, 0xbc, 0xbd, 0x40, 0xc4, 0x03, 0x3d, 0x3c, 0xdb, 0xd5, 0x3d,
  0x88, 0x10, 0xbd, 0xbd, 0x0a, 0x17, 0x8f, 0xbd, 0x2a, 0x3d, 0xbe, 0xbd,
  0x18, 0xf4, 0x6c, 0x3e, 0x94, 0x76, 0xb1, 0x3d, 0x30, 0xdd, 0xeb, 0x3c,
  0xf8, 0x6c, 0xcc, 0xbc, 0x5c, 0x51, 0x66, 0xbe, 0xb0, 0xf9, 0x98, 0x3d,
  0xd1, 0x0c, 0x8b, 0xbe, 0x46, 0x3d, 0x63, 0xbe, 0x26, 0x9d, 0x38, 0x3e,
  0x00, 0x3c, 0xa9, 0x3d, 0x98, 0x86, 0xb1, 0x3d, 0x30, 0x45, 0xcd, 0x3d,
  0x88, 0x9d, 0x83, 0x3e, 0xb0, 0xa6, 0x7e, 0x3d, 0xb3, 0xb2, 0x19, 0xbf,
  0xa5, 0xb2, 0x80, 0xbe, 0xd4, 0x34, 0x10, 0x3e, 0x07, 0xf6, 0x8b, 0x3e,
  0x20, 0x51, 0x2f, 0xbe, 0xf6, 0xde, 0x23, 0x3e, 0x0c, 0x93, 0x43, 0xbe,
  0xd8, 0xf1, 0x7c, 0xbd, 0xf8, 0xef, 0x07, 0xbd, 0xf6, 0x4b, 0x0b, 0x3e,
  0x47, 0xaf, 0x27, 0xbe, 0x0c, 0xf9, 0xf3, 0xbd, 0x0b, 0x0f, 0x98, 0xbe,
  0xea, 0xa3, 0x01, 0x3e, 0x94, 0x3c, 0x0a, 0xbe, 0x61, 0x08, 0xb8, 0xbc,
  0xa4, 0xaa, 0x53, 0x3e, 0x2a, 0x53, 0x40, 0x3d, 0x5a, 0x5a, 0x36, 0xbf,
  0x40, 0x82, 0x4f, 0x3c, 0x88, 0x21, 0x43, 0xbe, 0x28, 0x89, 0xf9, 0x3d,
  0x5c, 0x28, 0x70, 0x3e, 0xfc, 0x57, 0x38, 0xbd, 0x71, 0x9f, 0x32, 0xbe,
  0x21, 0x2a, 0x37, 0x3d, 0x0f, 0x21, 0x92, 0xbd, 0xdc, 0x8e, 0xc0, 0x3d,
  0x6e, 0xb1, 0x39, 0x3e, 0x97, 0x9f, 0x39, 0xbe, 0x6e, 0x5c, 0x36, 0x3e,
  0xe8, 0x2e, 0x6e, 0x3d, 0x67, 0xda, 0x0d, 0xbe, 0x54, 0x22, 0x8f, 0x3d,
  0x60, 0xc1, 0x33, 0x3d, 0x22, 0xeb, 0x55, 0x3e, 0x50, 0xd1, 0x80, 0x3e,
  0x03, 0x72, 0x78, 0x3e, 0xdd, 0x25, 0x43, 0xbe, 0x70, 0xe4, 0x08, 0xbe,
  0x59, 0x1e, 0xf4, 0x3d, 0xd2, 0xa8, 0x7d, 0xbd, 0xf1, 0x3d, 0x64, 0xbe,
  0xab, 0x3e, 0xae, 0x3d, 0xfe, 0x59, 0x5a, 0x3d, 0xf0, 0x2b, 0x8c, 0x3e,
  0x6e, 0x22, 0xcf, 0x3d, 0xae, 0xf2, 0x8a, 0xbe, 0x48, 0x2b, 0x5c, 0xbe,
  0x86, 0x2a, 0xaf, 0xbd, 0x98, 0xbc, 0xe6, 0x3d, 0x5f, 0xae, 0x3c, 0xbe,
  0x50, 0x1c, 0x7e, 0x3d, 0x5c, 0x4d, 0x7e, 0xbd, 0x17, 0x92, 0x52, 0x3e,
  0xe2, 0x0f, 0xe0, 0xbd, 0x84, 0x61, 0x75, 0x3e, 0xfa, 0xb2, 0x65, 0x3e,
  0x7e, 0xeb, 0xb5, 0xbd, 0xad, 0x37, 0xdd, 0xbd, 0x80, 0xb2, 0x24, 0xbb,
  0xb2, 0x7e, 0xbd, 0xbd, 0xb3, 0x20, 0x7b, 0xbe, 0xcf, 0x12, 0x05, 0xbd,
  0xff, 0x4a, 0xae, 0x3e, 0xac, 0xee, 0x21, 0x3e, 0x60, 0x71, 0xd7, 0x3d,
  0xd7, 0xd3, 0x0a, 0xbe, 0x65, 0x04, 0x22, 0xbe, 0x87, 0x4e, 0x0d, 0xbe,
  0x5c, 0x03, 0x5e, 0x3e, 0xec, 0xee, 0x63, 0x3e, 0xfc, 0xbe, 0xc6, 0x3d,
  0x3e, 0xee, 0xb4, 0x3d, 0x07, 0x34, 0xc2, 0xbe, 0x04, 0xf6, 0x59, 0x3e,
  0x87, 0x93, 0x02, 0x3f, 0x27, 0xb0, 0x18, 0xbe, 0x57, 0x56, 0x29, 0x3d,
  0x85, 0xbf, 0x4f, 0x3e, 0xbf, 0xee, 0xfa, 0xbd, 0xc3, 0x50, 0x49, 0xbe,
  0xdb, 0x39, 0x26, 0x3f, 0x78, 0xef, 0x14, 0x3d, 0xd5, 0xd3, 0x80, 0xbe,
  0x00, 0x4c, 0xf3, 0xb9, 0xb8, 0xac, 0x30, 0x3e, 0x62, 0x96, 0x00, 0xbe,
  0x6f, 0x83, 0x07, 0xbe, 0x02, 0xa9, 0x48, 0xbe, 0x3b, 0x0f, 0x00, 0xbd,
  0x55, 0x50, 0xee, 0xbd, 0xcd, 0x62, 0xd0, 0xbd, 0xd5, 0x50, 0x87, 0xbd,
  0x6d, 0x1b, 0x81, 0xbd, 0x72, 0xd2, 0x5d, 0x3b, 0x39, 0x0c, 0x32, 0x3e,
  0x48, 0x10, 0x08, 0xbd, 0x1f, 0x2a, 0x21, 0x3e, 0x24, 0x6f, 0xb1, 0x3d,
  0xf2, 0xb5, 0x01, 0x3e, 0xe7, 0xdc, 0x37, 0xbd, 0xce, 0x95, 0x95, 0xbd,
  0x20, 0x6b, 0x65, 0x3e, 0x5e, 0x13, 0x87, 0xbe, 0x2a, 0xe9, 0x1a, 0xbe,
  0xea, 0xe1, 0x4e, 0x3d, 0x7e, 0x4e, 0x12, 0x3e, 0x9b, 0xa9, 0x02, 0x3e,
  0x4a, 0x73, 0x5f, 0xbe, 0xc2, 0x6f, 0x89, 0x3e, 0x1a, 0x58, 0xd9, 0xbc,
  0x59, 0x87, 0x09, 0x3e, 0x50, 0xcf, 0x7b, 0x3e, 0x67, 0x3a, 0x85, 0xbe,
  0xb6, 0x13, 0xb1, 0xbe, 0x44, 0x8b, 0xc0, 0x3d, 0x2a, 0x93, 0x45, 0x3e,
  0xe3, 0x08, 0x57, 0xbd, 0x7c, 0xc5, 0x99, 0xbe, 0x04, 0x1b, 0x1f, 0xbe,
  0x99, 0xcf, 0x62, 0xbe, 0x94, 0xcd, 0x16, 0xbe, 0xe4, 0xe4, 0xa4, 0x3d,
  0x0c, 0xd6, 0x6a, 0xbe, 0x36, 0x1c, 0xe9, 0xbe, 0xa2, 0x7e, 0x16, 0x3e,
  0x4e, 0x1b, 0x85, 0xbe, 0x07, 0x57, 0x9b, 0xbe, 0xd8, 0xfa, 0x2b, 0x3d,
  0xda, 0x36, 0x07, 0xbe, 0xc9, 0xb5, 0xc0, 0x3c, 0x74, 0xe2, 0x6b, 0x3e,
  0x46, 0x2d, 0x2e, 0x3e, 0x24, 0xf5, 0x45, 0x3e, 0x62, 0xa3, 0x4f, 0x3e,
  0x72, 0x07, 0x8c, 0x3e, 0x3d, 0x68, 0x85, 0xbe, 0x7e, 0x8f, 0x53, 0xbe,
  0x90, 0x8e, 0x2c, 0x3e, 0x3f, 0xd6, 0xbc, 0xbe, 0x8a, 0x6f, 0xd1, 0xbd,
  0xc9, 0x0d, 0x33, 0x3e, 0xb9, 0xa5, 0xff, 0xbd, 0x48, 0x81, 0x3f, 0xbe,
  0x0d, 0xb5, 0x88, 0xbc, 0xdf, 0xde, 0x44, 0xbf, 0xc4, 0xb8, 0x7f, 0xbd,
  0x9e, 0x87, 0x19, 0x3e, 0x1c, 0xeb, 0x45, 0x3e, 0x60, 0xeb, 0xaf, 0x3c,
  0x54, 0x49, 0x28, 0x3e, 0x90, 0xb8, 0x13, 0x3e, 0x78, 0x86, 0x6d, 0x3e,
  0x60, 0x90, 0xf6, 0xbd, 0x4f, 0xec, 0x73, 0x3e, 0x48, 0xa2, 0x54, 0x3d,
  0x70, 0x81, 0x3b, 0x3d, 0xb6, 0x10, 0xfb, 0xbd, 0x81, 0x39, 0x7a, 0x3c,
  0x66, 0x1e, 0x85, 0xbd, 0xc0, 0xbb, 0x6a, 0x3e, 0x90, 0xf1, 0x6e, 0x3e,
  0xb8, 0xa7, 0x4c, 0x3d, 0x69, 0x8c, 0x32, 0xbc, 0x0a, 0x1d, 0xc4, 0xbd,
  0x92, 0x38, 0x37, 0x3d, 0xe9, 0xf8, 0x08, 0xbe, 0xe8, 0x99, 0xcc, 0x3b,
  0x28, 0x3e, 0x4a, 0x3e, 0x44, 0x4a, 0x46, 0x3d, 0xdc, 0xd5, 0x32, 0xbd,
  0xbd, 0x66, 0x58, 0xbd, 0xc9, 0x83, 0x6c, 0xbe, 0x4e, 0xe3, 0x76, 0x3e,
  0x45, 0x7a, 0xa1, 0xbd, 0xb2, 0x31, 0x86, 0xbd, 0xb0, 0x03, 0xb1, 0x3c,
  0x50, 0x5b, 0xe3, 0x3c, 0x58, 0x25, 0x35, 0x3d, 0x9c, 0xd3, 0x76, 0x3e,
  0x51, 0x08, 0x6c, 0x3d, 0x69, 0x10, 0x3b, 0x3e, 0x90, 0xd7, 0x08, 0x3e,
  0x14, 0x40, 0xf8, 0x3d, 0xaa, 0x09, 0x88, 0xbe, 0x3a, 0xd1, 0x17, 0xbb,
  0xca, 0x8c, 0x5b, 0xbe, 0x36, 0x2b, 0x33, 0x3e, 0x9a, 0x6f, 0x49, 0xbe,
  0x10, 0x17, 0x92, 0x3c, 0x5b, 0xd4, 0x8c, 0x3e, 0x04, 0xdf, 0x18, 0x3f,
  0x26, 0x86, 0x16, 0x3e, 0x31, 0x32, 0x66, 0xbe, 0x0b, 0x12, 0x03, 0xbe,
  0x46, 0x0a, 0x34, 0x3e, 0x2c, 0xb3, 0xc1, 0x3d, 0x90, 0xf3, 0xb0, 0x3d,
  0x41, 0xa1, 0x3a, 0x3d, 0x48, 0x59, 0xa3, 0xbd, 0x23, 0xbd, 0xb6, 0x3b,
  0x53, 0xec, 0x69, 0xbe, 0x1d, 0x67, 0x3d, 0xbe, 0xf1, 0xaa, 0x71, 0x3e,
  0xf4, 0x6d, 0xa0, 0xbd, 0xad, 0x73, 0x8b, 0xbe, 0x11, 0xeb, 0x87, 0x3e,
  0x28, 0x49, 0x78, 0x3e, 0xbd, 0x0d, 0x2c, 0xbe, 0xc5, 0xee, 0x32, 0x3f,
  0x58, 0x23, 0x60, 0xbe, 0x54, 0xe7, 0x60, 0x3e, 0xf4, 0xde, 0xeb, 0x3d,
  0x7e, 0xed, 0x80, 0xbd, 0x4c, 0xfe, 0x6f, 0xbe, 0x9b, 0xef, 0x61, 0xbe,
  0x14, 0x63, 0xf8, 0xba, 0xea, 0x24, 0x20, 0xbe, 0x9e, 0x67, 0x1b, 0x3e,
  0x1f, 0x7b, 0x7b, 0xbc, 0xe2, 0xb6, 0xce, 0x3d, 0x77, 0x70, 0x7d, 0xbe,
  0x4a, 0x29, 0x5f, 0xbc, 0x62, 0x48, 0x01, 0x3e, 0x66, 0xcf, 0x3d, 0xbe,
  0xee, 0xf1, 0x6d, 0xbe, 0x14, 0x1b, 0x32, 0x3e, 0x0f, 0x54, 0x89, 0x3e,
  0xfb, 0xa1, 0x9d, 0x3b, 0xad, 0xc8, 0x67, 0x3d, 0x6a, 0x28, 0xf5, 0xbd,
  0xdb, 0x01, 0x3d, 0x3e, 0xcc, 0x59, 0x61, 0x3e, 0x1f, 0xd6, 0xd8, 0x3b,
  0x72, 0xe5, 0xcb, 0x3d, 0x1b, 0x8e, 0x95, 0xbd, 0x05, 0x2d, 0x40, 0xbe,
  0x30, 0x7b, 0x6c, 0x3e, 0xad, 0x44, 0x7a, 0xbe, 0x6b, 0x11, 0x22, 0x3e,
  0x10, 0x60, 0xc5, 0x3c, 0x88, 0xbe, 0x49, 0x3d, 0xee, 0xb8, 0x3b, 0xbe,
  0x60, 0x3c, 0xe0, 0x3d, 0xe5, 0x91, 0x15, 0x3e, 0xdc, 0x51, 0x2c, 0x3e,
  0x44, 0xbf, 0x5a, 0xbe, 0xc4, 0xab, 0x8a, 0x3e, 0xe7, 0x36, 0x42, 0x3e,
  0x0b, 0x5a, 0xb1, 0x3d, 0x3e, 0x4a, 0x1d, 0x3e, 0xd0, 0x99, 0xed, 0xbc,
  0x0a, 0x82, 0xda, 0xbd, 0x42, 0x8c, 0xa7, 0xbd, 0xc4, 0x67, 0xb1, 0xbd,
  0xf2, 0xaf, 0xa1, 0xbe, 0xe6, 0xeb, 0x9f, 0xbd, 0x5e, 0x58, 0x87, 0x3e,
  0x97, 0x75, 0x42, 0x3e, 0x08, 0x73, 0x20, 0xbe, 0x0c, 0x27, 0x8b, 0xbe,
  0xfe, 0x17, 0x48, 0xbe, 0x27, 0xb4, 0x39, 0x3e, 0x1f, 0xd9, 0x6d, 0xbe,
  0x1b, 0x5e, 0x43, 0xbe, 0x56, 0x76, 0xb5, 0xbd, 0x33, 0xaa, 0x53, 0x3e,
  0xf1, 0x1a, 0xed, 0xbe, 0xc4, 0xdc, 0x7e, 0xbe, 0x6c, 0x8f, 0x8f, 0xbd,
  0xc8, 0x99, 0x2f, 0x3e, 0xf8, 0x12, 0x36, 0xbe, 0x87, 0xaa, 0x3e, 0xbe,
  0xa8, 0x7f, 0x2d, 0xbf, 0xf4, 0xe2, 0xce, 0x3d, 0xc0, 0x89, 0x81, 0xbc,
  0x1c, 0xfc, 0x03, 0xbd, 0x12, 0xd2, 0x08, 0x3e, 0xa6, 0xb1, 0x3d, 0x3e,
  0xba, 0x31, 0x82, 0x3e, 0xd1, 0xbd, 0x1c, 0xbe, 0x72, 0xfc, 0x8a, 0xbc,
  0xf9, 0xc5, 0x08, 0x3e, 0x97, 0x30, 0x80, 0xbd, 0x78, 0x92, 0x6e, 0x3e,
  0x14, 0xb1, 0x03, 0x3e, 0xb2, 0x0d, 0x5c, 0x3e, 0x84, 0xf0, 0x59, 0xbe,
  0x88, 0x1f, 0xef, 0xbc, 0x7e, 0x37, 0x81, 0xbe, 0x5c, 0x86, 0x22, 0xbe,
  0x05, 0x15, 0x91, 0x3c, 0x52, 0xec, 0x28, 0x3e, 0xe9, 0x97, 0xe9, 0x3d,
  0xc2, 0xab, 0x2d, 0x3e, 0x2c, 0x53, 0xff, 0xbd, 0xf3, 0x69, 0x57, 0x3c,
  0x4b, 0xcf, 0xfa, 0x3d, 0xdf, 0xac, 0x64, 0xbd, 0xf1, 0x74, 0x15, 0x3e,
  0x5f, 0x3f, 0x5f, 0x3d, 0x03, 0x2d, 0x23, 0xbd, 0x98, 0x53, 0x83, 0x3e,
  0xcb, 0xa0, 0x9c, 0x3d, 0x9c, 0x7f, 0x01, 0x3e, 0x88, 0xee, 0x20, 0x3d,
  0x70, 0x47, 0x35, 0x3d, 0x36, 0x22, 0x67, 0x3e, 0xb1, 0xa5, 0x89, 0x3e,
  0x48, 0xe9, 0x82, 0x3e, 0xb1, 0xd7, 0x3a, 0x3e, 0x82, 0x76, 0x3b, 0x3e,
  0x40, 0xb6, 0x33, 0x3e, 0xf4, 0x1c, 0x1d, 0xbe, 0xf2, 0x43, 0x3a, 0xbe,
  0x14, 0xb9, 0x45, 0x3e, 0x76, 0xf0, 0x35, 0x3e, 0x6e, 0x8e, 0x84, 0xbd,
  0x98, 0x45, 0x97, 0x3e, 0xbf, 0x35, 0x15, 0xbe, 0x90, 0x11, 0x6b, 0x3e,
  0xd4, 0x01, 0x1c, 0x3e, 0xf0, 0xb0, 0x51, 0xbe, 0x4d, 0x18, 0x37, 0xbe,
  0x28, 0x66, 0x3c, 0x3e, 0xa9, 0xe2, 0x27, 0xbe, 0xb0, 0x13, 0x56, 0x3d,
  0x0c, 0x48, 0x90, 0x3d, 0x50, 0x61, 0xae, 0x3d, 0x18, 0xf2, 0xe7, 0x3d,
  0x20, 0x83, 0xf0, 0x3c, 0xd0, 0xb2, 0xc7, 0x3c, 0xaf, 0x56, 0x14, 0xbe,
  0x20, 0xe7, 0x23, 0xbc, 0xc3, 0x49, 0x10, 0xbe, 0xc0, 0xc1, 0xd8, 0x3c,
  0x40, 0x8e, 0xde, 0x3c, 0x1d, 0xd9, 0x59, 0xbe, 0x8a, 0x1a, 0x6a, 0xbe,
  0x84, 0x95, 0x30, 0xbe, 0x7c, 0x2e, 0x1e, 0x3e, 0x90, 0x0b, 0xdd, 0xbc,
  0xb8, 0xdf, 0x12, 0xbe, 0x52, 0xd6, 0x27, 0x3e, 0x00, 0x4f, 0x94, 0xbd,
  0xc9, 0x6b, 0x60, 0xbe, 0xb6, 0xec, 0xcf, 0xbd, 0x70, 0x45, 0xe8, 0xbc,
  0x0c, 0x97, 0x57, 0x3e, 0xe7, 0xa3, 0x0b, 0xbe, 0x0e, 0x9b, 0x4e, 0xbe,
  0xe8, 0xcf, 0x4d, 0x3d, 0xdc, 0x33, 0x6e, 0x3e, 0xca, 0xc2, 0x51, 0xbe,
  0x78, 0xd3, 0x63, 0xbe, 0xda, 0xdc, 0x7c, 0xbe, 0x95, 0x1e, 0x0f, 0xbe,
  0xc0, 0xfb, 0x5a, 0xbd, 0xee, 0x38, 0x97, 0xbd, 0xc9, 0xae, 0x05, 0xbe,
  0x58, 0x90, 0x4b, 0xbe, 0x30, 0xec, 0x45, 0x3e, 0xdf, 0x8e, 0x15, 0xbe,
  0x00, 0xa6, 0x90, 0x3c, 0xb3, 0x94, 0x83, 0xbe, 0x94, 0xdf, 0x5a, 0x3e,
  0x80, 0x62, 0x89, 0xbc, 0xd0, 0xd8, 0x4b, 0x3e, 0xf8, 0x81, 0x23, 0x3e,
  0x00, 0x3e, 0x37, 0x3b, 0x34, 0x34, 0x97, 0x3d, 0xac, 0xd3, 0x59, 0x3e,
  0xbc, 0x67, 0x72, 0x3e, 0x58, 0x6e, 0x08, 0x3d, 0x33, 0x89, 0x72, 0xbe,
  0xe4, 0x4a, 0x6c, 0x3e, 0xca, 0x1d, 0x64, 0x3e, 0x1c, 0x3d, 0x4e, 0xbd,
  0xc3, 0xba, 0x51, 0xbe, 0xf1, 0x00, 0x6b, 0xbe, 0xdc, 0x0b, 0x36, 0xbd,
  0x94, 0x90, 0x33, 0xbd, 0xb0, 0xec, 0x17, 0xbd, 0xc0, 0x31, 0x82, 0xbc,
  0x6c, 0xde, 0x72, 0x3e, 0x00, 0x16, 0x01, 0x3e, 0xc4, 0x4a, 0x6a, 0x3e,
  0x20, 0x07, 0x36, 0xbe, 0xd5, 0xf6, 0x3b, 0xbe, 0x1a, 0x28, 0x8a, 0x3e,
  0x30, 0x2c, 0xee, 0x3c, 0xec, 0xbf, 0x61, 0x3e, 0xb0, 0xb7, 0x54, 0x3d,
  0xc0, 0xdf, 0xaf, 0xbc, 0x54, 0xcc, 0xca, 0x3d, 0x83, 0xd5, 0x1d, 0xbe,
  0xd0, 0xd1, 0x2b, 0xbd, 0x90, 0xf7, 0x1a, 0x3e, 0x08, 0x98, 0xa7, 0xbd,
  0x40, 0x48, 0x36, 0xbd, 0x3a, 0x67, 0x24, 0x3e, 0x16, 0xa5, 0x54, 0xbe,
  0x58, 0xda, 0x86, 0x3d, 0x30, 0xbc, 0x45, 0x3d, 0xd0, 0x11, 0xe6, 0x3c,
  0x66, 0x3a, 0x0d, 0x3e, 0x00, 0x70, 0x33, 0x3e, 0xb2, 0xc2, 0xbb, 0xbd,
  0x1e, 0x92, 0x39, 0x3e, 0x88, 0xc1, 0x5b, 0x3e, 0x04, 0xf4, 0xc9, 0x3d,
  0xe2, 0xef, 0x4e, 0xbe, 0xae, 0x69, 0x23, 0xbe, 0xc0, 0xfe, 0x9f, 0x3b,
  0x08, 0x3a, 0xef, 0x3d, 0xe0, 0x17, 0xdb, 0xbc, 0x2c, 0xd5, 0x6f, 0x3e,
  0x44, 0x73, 0x34, 0xbd, 0x08, 0x15, 0xfb, 0xbc, 0x4e, 0xac, 0x8d, 0xbd,
  0xf7, 0xcb, 0x51, 0xbe, 0xc8, 0xc4, 0xe5, 0xbd, 0x30, 0xe9, 0xfc, 0xbc,
  0x78, 0xd8, 0x56, 0x3e, 0xf2, 0x07, 0x4d, 0xbe, 0x06, 0x0b, 0x97, 0xbd,
  0xb8, 0x5f, 0x73, 0xbd, 0xbc, 0x51, 0x32, 0xbe, 0x63, 0xcb, 0x48, 0xbe,
  0xe0, 0xc6, 0x29, 0xbd, 0x80, 0x6b, 0x92, 0xbb, 0x9f, 0xf8, 0x66, 0xbe,
  0xa0, 0xb6, 0x23, 0xbc, 0xb8, 0xa3, 0x49, 0x3e, 0xc0, 0x42, 0x92, 0xbb,
  0xac, 0x03, 0x14, 0x3e, 0x40, 0xa8, 0x20, 0xbe, 0xe8, 0x07, 0x03, 0x3d,
  0xdc, 0x26, 0x32, 0xbe, 0xe0, 0xea, 0xd9, 0x3d, 0x07, 0x41, 0x1b, 0xbe,
  0x00, 0x45, 0xef, 0xbb, 0xa8, 0x64, 0xe9, 0x3d, 0xbe, 0x7f, 0x04, 0xbe,
  0x84, 0xa5, 0x97, 0xbd, 0x80, 0x8a, 0x35, 0x3b, 0x00, 0x6e, 0xf8, 0xbc,
  0x3c, 0x60, 0x22, 0xbe, 0xb0, 0xf4, 0xa6, 0x3c, 0x78, 0xef, 0x6d, 0xbd,
  0x0a, 0x04, 0x17, 0xbe, 0x00, 0x23, 0x0b, 0xbe, 0x18, 0x52, 0x51, 0xbd,
  0x80, 0x75, 0xc7, 0x3b, 0x01, 0x17, 0xb7, 0x3d, 0xe2, 0x78, 0x6a, 0xbe,
  0x3d, 0x6c, 0xba, 0x3d, 0xdd, 0xa5, 0xcb, 0xbc, 0xd7, 0x48, 0x10, 0xbe,
  0xa5, 0x2a, 0x47, 0xbd, 0x7d, 0xe8, 0x4e, 0xbe, 0x13, 0x89, 0xb8, 0x3e,
  0x58, 0x95, 0x5a, 0x3d, 0x23, 0x78, 0x86, 0x3e, 0x2b, 0x5b, 0xbf, 0xbe,
  0x78, 0x46, 0xc8, 0x3d, 0x89, 0x24, 0x59, 0xbe, 0x52, 0x61, 0x3d, 0x3e,
  0x5e, 0x57, 0x3a, 0xbe, 0x9c, 0xf4, 0x81, 0xbe, 0xc4, 0xf8, 0x33, 0x3e,
  0x9f, 0x34, 0x39, 0x3e, 0x47, 0xd8, 0xd0, 0x3d, 0x73, 0x59, 0x1d, 0x3e,
  0x29, 0x25, 0x68, 0xbe, 0xfa, 0x8a, 0x03, 0x3e, 0xd5, 0x8e, 0xd6, 0x3d,
  0xcb, 0x8f, 0xe8, 0x3e, 0x77, 0xe8, 0x44, 0x3e, 0x82, 0xf8, 0x58, 0x3e,
  0x04, 0x04, 0xb4, 0x3d, 0xf4, 0xcd, 0xc9, 0x3b, 0x2e, 0xa8, 0x8b, 0x3e,
  0xfe, 0x16, 0x9f, 0x3d, 0x24, 0x59, 0xbf, 0x3d, 0x7a, 0x32, 0x34, 0xbe,
  0x2e, 0x7e, 0x67, 0x3e, 0x5a, 0x75, 0xdc, 0x3d, 0x30, 0xd2, 0xd2, 0xbd,
  0x68, 0x29, 0x58, 0x3e, 0x3e, 0x53, 0xf0, 0xbb, 0x51, 0xc9, 0xbe, 0xbe,
  0x5c, 0x07, 0x1f, 0x3e, 0xaf, 0xc1, 0x80, 0x3e, 0x20, 0x14, 0x54, 0x3e,
  0x8a, 0x7a, 0x4a, 0x3e, 0xf6, 0xf9, 0x14, 0x3e, 0xcd, 0xe7, 0x89, 0xbe,
  0x0a, 0x90, 0x10, 0x3e, 0xbe, 0x82, 0x3c, 0xbe, 0xc9, 0x1c, 0x07, 0x3e,
  0xf8, 0x65, 0xa2, 0xbe, 0xdc, 0x6d, 0xac, 0x3e, 0x4b, 0x67, 0x4e, 0xbe,
  0x64, 0xf0, 0x66, 0xbe, 0xaf, 0xef, 0xfe, 0x3d, 0x52, 0x3c, 0x85, 0x3e,
  0x24, 0xfb, 0xd8, 0x3d, 0xc0, 0x34, 0x24, 0x3e, 0x80, 0xab, 0xed, 0xbc,
  0xb1, 0x49, 0x87, 0x3e, 0xf9, 0xa3, 0x83, 0x3e, 0x55, 0x69, 0x28, 0xbe,
  0x1a, 0xb8, 0x4e, 0x3e, 0x00, 0xaf, 0x69, 0x3e, 0xfa, 0x23, 0x37, 0x3e,
  0xb8, 0xf9, 0x1c, 0x3e, 0x32, 0xa3, 0xab, 0xbd, 0x6b, 0xa5, 0x5f, 0xbe,
  0xc8, 0x18, 0x5b, 0xbd, 0x09, 0x21, 0x85, 0xbd, 0x85, 0xc6, 0xba, 0x3e,
  0xb7, 0xec, 0x18, 0xbe, 0xf2, 0x67, 0x50, 0xbe, 0x32, 0x97, 0x40, 0xbe,
  0xc7, 0xf2, 0xaf, 0x3d, 0xe0, 0xaa, 0xfb, 0x3d, 0xbe, 0x75, 0x1c, 0x3e,
  0x2c, 0x29, 0x14, 0xbe, 0xae, 0xe5, 0xb6, 0x3d, 0x14, 0x4d, 0xa5, 0x3d,
  0x78, 0xe8, 0x33, 0x3e, 0x60, 0x77, 0x0e, 0x3e, 0x80, 0xd1, 0x1f, 0x3c,
  0xba, 0xc7, 0x24, 0xbe, 0xa8, 0x07, 0x7c, 0x3e, 0x11, 0x11, 0x93, 0x3d,
  0xbc, 0xf1, 0x53, 0x3e, 0x2d, 0x2c, 0x32, 0xbe, 0xf1, 0xeb, 0x82, 0xbe,
  0x82, 0xdb, 0x9c, 0xbe, 0x26, 0x99, 0xde, 0x3e, 0xe4, 0xc7, 0x5f, 0x3e,
  0xd2, 0xb7, 0xb0, 0x3d, 0xdc, 0x6e, 0x76, 0xbe, 0x7d, 0x55, 0x1b, 0x3e,
  0xa0, 0xaa, 0x48, 0xbd, 0x54, 0x8b, 0x41, 0xbe, 0x68, 0x72, 0x32, 0x3d,
  0x92, 0x76, 0x3c, 0x3e, 0x6c, 0xe2, 0x4d, 0xbe, 0x65, 0xd7, 0xe7, 0x3c,
  0xea, 0x81, 0x41, 0x3c, 0x8c, 0x45, 0x8b, 0x3e, 0x26, 0x52, 0x16, 0xbe,
  0xd3, 0xde, 0xb0, 0xbe, 0x85, 0x3b, 0x0d, 0x3e, 0xd7, 0xc0, 0xc0, 0xbc,
  0x08, 0x7a, 0x1c, 0x3e, 0x58, 0x3c, 0xff, 0x3c, 0x80, 0x43, 0x85, 0x3b,
  0xd8, 0xc7, 0x07, 0xbe, 0x7a, 0x9d, 0xce, 0x3e, 0x20, 0x63, 0xc3, 0x3d,
  0xac, 0x06, 0xab, 0x3c, 0x6b, 0xea, 0x65, 0x3e, 0x24, 0x85, 0x80, 0x3e,
  0x02, 0x34, 0x05, 0xbe, 0x94, 0x27, 0x71, 0xbe, 0x57, 0x61, 0x6c, 0xbe,
  0xee, 0x56, 0x11, 0x3e, 0x50, 0x33, 0xce, 0x3c, 0x32, 0xb2, 0x7c, 0x3e,
  0xf8, 0x94, 0xc2, 0xbd, 0xbd, 0x5a, 0x06, 0x3e, 0x74, 0x63, 0x8a, 0x3e,
  0x94, 0xf2, 0x2d, 0x3e, 0x70, 0x4d, 0xdd, 0x3d, 0xd0, 0x2e, 0x10, 0xbd,
  0xb8, 0x94, 0x41, 0x3d, 0xd2, 0x2b, 0x25, 0x3e, 0x3c, 0x0a, 0x35, 0x3e,
  0xb0, 0xff, 0x3e, 0x3d, 0x18, 0x3c, 0x4c, 0x3e, 0x66, 0x10, 0x30, 0xbe,
  0xf5, 0x9b, 0x88, 0xbe, 0xde, 0x7d, 0x5b, 0x3e, 0x30, 0xb8, 0x76, 0x3e,
  0xf8, 0x1a, 0xc6, 0xbd, 0x0c, 0x4c, 0x22, 0x3e, 0xdd, 0x9f, 0x0f, 0xbe,
  0x2a, 0x14, 0x87, 0xbe, 0x60, 0x26, 0xcb, 0x3c, 0x2e, 0x14, 0x2e, 0x3e,
  0x69, 0x40, 0x73, 0xbe, 0x5a, 0x06, 0x56, 0x3e, 0xba, 0x15, 0x59, 0x3e,
  0x3c, 0xbc, 0x34, 0xbe, 0x68, 0x62, 0x38, 0x3e, 0x64, 0xd4, 0x18, 0xbe,
  0x4c, 0xb9, 0x1e, 0x3e, 0x9c, 0xb2, 0xe8, 0x3d, 0x40, 0x26, 0xea, 0xbb,
  0x68, 0xc8, 0x78, 0x3e, 0xc0, 0x27, 0xcd, 0x3c, 0xfe, 0xbf, 0x58, 0xbe,
  0x30, 0x5a, 0x06, 0x3e, 0xe4, 0xbe, 0x18, 0x3e, 0x8a, 0x8c, 0x20, 0xbe,
  0xca, 0xdc, 0x40, 0xbe, 0x84, 0x00, 0xef, 0x3d, 0x9a, 0x9a, 0x01, 0x3e,
  0x2c, 0x0c, 0xe8, 0x3d, 0x2c, 0xa4, 0x7c, 0xbd, 0x84, 0xea, 0xb6, 0x3d,
  0xcc, 0x48, 0x45, 0xbe, 0x40, 0x5c, 0x31, 0x3e, 0x4a, 0x2c, 0x85, 0xbe,
  0x54, 0x5b, 0xc2, 0xbd, 0x82, 0xa4, 0x19, 0xbe, 0x1e, 0x90, 0x26, 0x3e,
  0xbc, 0x23, 0x63, 0xbe, 0x30, 0x5e, 0xcc, 0xbc, 0xae, 0x27, 0x62, 0xbe,
  0x10, 0xc7, 0xce, 0xbd, 0x2c, 0xd0, 0x47, 0x3e, 0x82, 0x95, 0x95, 0xbd,
  0x00, 0x47, 0x6c, 0xbb, 0x0c, 0xff, 0xcc, 0xbd, 0xd6, 0x36, 0x61, 0xbe,
  0x40, 0x66, 0x9c, 0x3c, 0x3c, 0xb1, 0xa7, 0x3d, 0x0c, 0x0d, 0x02, 0xbd,
  0x31, 0x34, 0x36, 0xbe, 0xac, 0x7a, 0xed, 0xbd, 0xb0, 0x27, 0x00, 0xbd,
  0x44, 0xb8, 0x7d, 0x3e, 0xa0, 0x2e, 0xbd, 0x3d, 0xe4, 0xf1, 0x73, 0xbe,
  0x4a, 0x8f, 0xdd, 0xbe, 0x00, 0x4e, 0x7a, 0xbb, 0xdc, 0x91, 0x1e, 0x3e,
  0x9e, 0xa8, 0x63, 0xbe, 0x57, 0x5a, 0x41, 0xbe, 0xcd, 0x12, 0x01, 0xbe,
  0x77, 0x84, 0x30, 0xbe, 0x2c, 0x86, 0xaf, 0xbd, 0xbe, 0x0b, 0xe7, 0xbd,
  0xb6, 0x7f, 0x2d, 0x3e, 0xb5, 0x7e, 0x4a, 0xbe, 0xb9, 0xad, 0x65, 0xbe,
  0xe9, 0xf3, 0xdf, 0xbe, 0x20, 0x85, 0xcd, 0xbc, 0x2e, 0xfb, 0x70, 0x3e,
  0xa9, 0xe0, 0xcd, 0xbd, 0x8e, 0x35, 0x37, 0x3e, 0xa0, 0x8e, 0x7b, 0x3d,
  0xa8, 0x56, 0x37, 0xbf, 0xde, 0x11, 0x00, 0xbe, 0xd4, 0x7b, 0x46, 0xbe,
  0x8e, 0x9a, 0x0b, 0x3e, 0x8e, 0xd4, 0xe6, 0xbd, 0xd8, 0x59, 0x00, 0xbe,
  0xf8, 0x66, 0x7c, 0xbe, 0x88, 0x1c, 0x98, 0xbe, 0xaf, 0x7d, 0xf3, 0x3d,
  0xcb, 0x79, 0x84, 0x3e, 0x83, 0x9b, 0x31, 0xbe, 0x49, 0x15, 0xa7, 0x3d,
  0x7c, 0x1c, 0x15, 0x3e, 0xdf, 0xd5, 0xfe, 0x3d, 0xf0, 0xe2, 0x24, 0xbe,
  0xb2, 0x64, 0xcb, 0xbd, 0xb7, 0x0c, 0x73, 0xbe, 0x68, 0x51, 0x19, 0x3e,
  0x77, 0x13, 0xf0, 0x3d, 0x0f, 0x11, 0xa4, 0xbd, 0x8c, 0x4f, 0x9b, 0xbe,
  0xc0, 0x7d, 0x4a, 0x3e, 0x47, 0xf9, 0x33, 0x3e, 0x10, 0x94, 0x5e, 0x3e,
  0x61, 0x90, 0x8a, 0xbe, 0xaf, 0x88, 0xed, 0x3d, 0x3d, 0xde, 0x3b, 0x3e,
  0xfe, 0xc9, 0xa6, 0x3d, 0x6d, 0x2f, 0x87, 0x3e, 0x0a, 0x66, 0x35, 0x3e,
  0x9c, 0x65, 0x57, 0xbe, 0xc8, 0xb2, 0x5a, 0x3e, 0x44, 0x60, 0x92, 0x3d,
  0xa8, 0xc6, 0x7f, 0x3d, 0x14, 0x3b, 0x7c, 0xbd, 0xeb, 0xb6, 0x6e, 0xbe,
  0x25, 0x8d, 0x0d, 0x3e, 0x62, 0xcc, 0x96, 0xbd, 0x08, 0xf0, 0x90, 0xbd,
  0xf5, 0x65, 0x3f, 0x3e, 0x6c, 0x48, 0xa4, 0x3e, 0xa4, 0xb8, 0xec, 0xbc,
  0xae, 0x6e, 0x0c, 0x3e, 0x50, 0xe7, 0xa3, 0x3d, 0xe8, 0x55, 0x7e, 0x3e,
  0x52, 0x06, 0xc2, 0x3d, 0x56, 0x7f, 0x24, 0x3e, 0xc8, 0xae, 0x39, 0xbd,
  0x80, 0x86, 0x06, 0x3e, 0x61, 0x64, 0x08, 0x3e, 0x86, 0xba, 0x34, 0x3e,
  0x02, 0x96, 0x3d, 0x3e, 0x9c, 0x20, 0x86, 0xbe, 0xfe, 0xb9, 0x2c, 0xbe,
  0xfc, 0x00, 0x59, 0x3e, 0xb0, 0x91, 0xa8, 0x3d, 0xf0, 0xc6, 0x40, 0x3e,
  0x77, 0x4a, 0x1e, 0xbe, 0x93, 0x3b, 0xe0, 0x3e, 0xae, 0xa4, 0xae, 0xbd,
  0xf8, 0xfa, 0xb7, 0xbd, 0x12, 0x7d, 0x19, 0xbe, 0x00, 0x52, 0x9b, 0xba,
  0x33, 0x87, 0x65, 0x3d, 0x33, 0xe6, 0xcd, 0x3d, 0x16, 0x15, 0x0f, 0xbe,
  0xc8, 0xda, 0x3f, 0x3e, 0xe2, 0xdb, 0x51, 0x3e, 0x0e, 0x74, 0xfb, 0xbd,
  0xd0, 0x60, 0x86, 0xbe, 0x70, 0x78, 0x17, 0x3d, 0x92, 0xbe, 0xb5, 0x3e,
  0x9e, 0x7a, 0x9f, 0xbd, 0xf9, 0x6a, 0x33, 0xbf, 0x23, 0x1f, 0x08, 0x3e,
  0x95, 0x71, 0x5f, 0xbe, 0x75, 0x22, 0x4b, 0xbe, 0x00, 0x2b, 0x45, 0x3e,
  0x00, 0xc7, 0x11, 0xbf, 0xb8, 0x39, 0x45, 0xbe, 0xff, 0x1a, 0x7e, 0xbe,
  0x74, 0x22, 0xd9, 0x3d, 0xe7, 0x75, 0x3f, 0x3e, 0x0a, 0xe7, 0x00, 0x3e,
  0xa5, 0xe9, 0x50, 0x3e, 0xd4, 0x12, 0x81, 0xbe, 0xb1, 0xf1, 0x40, 0xbe,
  0x03, 0x49, 0x48, 0x3e, 0xb7, 0x63, 0xf7, 0x3d, 0x26, 0xdd, 0x71, 0x3e,
  0x0c, 0xe9, 0x06, 0x3e, 0xa2, 0xb8, 0x19, 0xbc, 0xf2, 0x63, 0x9e, 0xbd,
  0x8d, 0x31, 0xdb, 0x3d, 0xc4, 0x63, 0x85, 0x3e, 0xc0, 0xc9, 0x92, 0xbc,
  0x5e, 0x8b, 0xd9, 0xbd, 0x05, 0x95, 0xa9, 0xbd, 0xa6, 0x5e, 0x3b, 0xbe,
  0xc9, 0xfb, 0x2b, 0xbe, 0xd2, 0x26, 0xb8, 0x3c, 0x6f, 0x1b, 0x53, 0x3e,
  0x84, 0x1a, 0x0a, 0x3e, 0x75, 0x31, 0x17, 0x3e, 0x94, 0x05, 0x11, 0xbf,
  0xdf, 0xf6, 0x29, 0xbe, 0xb9, 0x3e, 0x84, 0xbe, 0x75, 0x1d, 0x51, 0x3e,
  0x32, 0x1b, 0xdd, 0xbd, 0x1d, 0x26, 0x38, 0xbf, 0x7e, 0xde, 0xff, 0xff,
  0x04, 0x00, 0x00, 0x00, 0x00, 0x20, 0x00, 0x00, 0x7d, 0xa0, 0x93, 0xbe,
  0x23, 0xc7, 0x6e, 0xbe, 0xe8, 0x6b, 0x22, 0x3e, 0x40, 0x64, 0x40, 0xbe,
  0x9a, 0x88, 0x57, 0xbe, 0x00, 0x30, 0xd3, 0x39, 0x8c, 0x9e, 0x11, 0x3e,
  0x94, 0xcc, 0x41, 0x3e, 0x08, 0x78, 0x46, 0x3e, 0x31, 0xb7, 0x83, 0x3d,
  0xd0, 0x52, 0x06, 0x3d, 0xf0, 0x9a, 0x38, 0xbd, 0xb7, 0x05, 0xcf, 0x3d,
  0x4d, 0x1d, 0x86, 0xbe, 0x90, 0x28, 0x43, 0xbe, 0xab, 0x91, 0xc8, 0xbe,
  0x00, 0xf9, 0x5a, 0x3c, 0x16, 0x11, 0x04, 0xbe, 0xc0, 0x8a, 0xdf, 0x3d,
  0x9c, 0x84, 0x23, 0x3e, 0x23, 0x04, 0x7e, 0x3e, 0x8b, 0xd5, 0x15, 0x3e,
  0x10, 0x79, 0xd3, 0xbd, 0xbd, 0x7f, 0x5a, 0x3e, 0x19, 0xa6, 0xb6, 0x3c,
  0x79, 0x12, 0xca, 0x3d, 0x31, 0x55, 0x2b, 0xbe, 0x20, 0x39, 0x9c, 0xbd,
  0x5d, 0x74, 0xca, 0x3a, 0x96, 0xc7, 0xac, 0xbc, 0x60, 0xab, 0x91, 0xbc,
  0xa8, 0xd8, 0xb5, 0xbd, 0x80, 0xef, 0x55, 0x3d, 0x50, 0x13, 0x7f, 0xbe,
  0x58, 0x3f, 0x59, 0xbe, 0x38, 0x42, 0xc9, 0xbd, 0x7c, 0xac, 0x21, 0xbe,
  0xa0, 0xf3, 0xc7, 0xbd, 0xa8, 0x0f, 0x38, 0xbe, 0x10, 0x78, 0xd5, 0x3d,
  0xd0, 0x85, 0x2a, 0xbe, 0x80, 0x28, 0x62, 0xbc, 0xac, 0x94, 0x4f, 0x3e,
  0xd0, 0xa1, 0xb9, 0x3d, 0x00, 0x50, 0xdf, 0xbd, 0xe8, 0x54, 0xa0, 0x3d,
  0x80, 0xdc, 0xf2, 0x3b, 0xe0, 0xcf, 0x74, 0xbd, 0x90, 0xeb, 0x47, 0x3d,
  0x70, 0xf1, 0xc3, 0xbd, 0xf8, 0xfe, 0xd7, 0x3d, 0x08, 0xa9, 0x31, 0xbe,
  0x04, 0xab, 0x2f, 0x3e, 0x80, 0xcc, 0x87, 0xbc, 0xa8, 0xfc, 0x92, 0x3d,
  0x84, 0xaa, 0x50, 0xbe, 0xd8, 0xfa, 0xcf, 0xbd, 0x00, 0x7a, 0xa5, 0xbc,
  0x00, 0x24, 0x69, 0xbe, 0x10, 0xcd, 0x3c, 0xbd, 0x28, 0xaa, 0x88, 0x3d,
  0x88, 0x43, 0xe7, 0x3d, 0x7c, 0xbc, 0x2f, 0x3e, 0x70, 0x45, 0xa0, 0x3d,
  0x94, 0x76, 0x57, 0xbe, 0xc8, 0x56, 0x9b, 0x3d, 0x18, 0xfc, 0x45, 0x3e,
  0xe0, 0x72, 0x24, 0xbd, 0xf0, 0x35, 0x15, 0x3e, 0xc4, 0xf3, 0x43, 0x3e,
  0xf0, 0x5d, 0x7d, 0x3d, 0x38, 0x7e, 0x58, 0xbe, 0x10, 0xbe, 0x04, 0xbd,
  0xf0, 0x6b, 0x08, 0xbe, 0xd4, 0xb1, 0x4b, 0xbe, 0x60, 0xa4, 0x6d, 0x3e,
  0xe0, 0xd0, 0x38, 0x3d, 0x08, 0x67, 0x82, 0x3d, 0x38, 0x55, 0xf5, 0x3d,
  0xb4, 0xff, 0x16, 0x3e, 0xa0, 0x0e, 0x68, 0x3d, 0xe0, 0x11, 0x53, 0xbd,
  0xf0, 0xf9, 0x5f, 0xbe, 0x2c, 0x74, 0x3f, 0xbe, 0xd0, 0xdc, 0x30, 0xbe,
  0xac, 0xbb, 0x61, 0xbe, 0x58, 0x91, 0xaf, 0x3d, 0x88, 0xab, 0x62, 0xbe,
  0x24, 0xc3, 0x35, 0x3e, 0x5c, 0xd3, 0x2d, 0x3e, 0xb0, 0x49, 0x52, 0x3e,
  0x64, 0x42, 0x62, 0x3e, 0xe0, 0x2b, 0x20, 0x3e, 0xe8, 0x6c, 0xa8, 0xbd,
  0xe0, 0xd3, 0x1e, 0xbe, 0x4c, 0xf1, 0x4c, 0xbe, 0x8a, 0xdb, 0x7b, 0xbc,
  0x71, 0x20, 0x31, 0xbe, 0xc0, 0x4b, 0x5d, 0x3d, 0x70, 0xde, 0x2b, 0x3d,
  0x7e, 0xe3, 0x20, 0x3e, 0x60, 0xad, 0x0c, 0x3d, 0x60, 0x2b, 0x1e, 0xbe,
  0x28, 0x6f, 0x59, 0x3e, 0xd4, 0xc5, 0x70, 0x3e, 0x4c, 0x76, 0x6f, 0xbe,
  0x38, 0x6f, 0x81, 0xbd, 0xe8, 0x45, 0x62, 0x3e, 0x84, 0x2a, 0x60, 0x3e,
  0x32, 0x66, 0x87, 0x3d, 0xc0, 0x2a, 0x11, 0x3c, 0x77, 0x11, 0xca, 0x3c,
  0xd0, 0xcf, 0x0b, 0x3e, 0xa7, 0x08, 0x2d, 0xbe, 0x22, 0x6a, 0xf5, 0x3d,
  0xe7, 0xb5, 0x3b, 0x3e, 0x3d, 0x69, 0x26, 0xbe, 0xb8, 0x32, 0x21, 0xbe,
  0xa0, 0xc1, 0xc7, 0x3c, 0x0a, 0x32, 0x9e, 0xbd, 0x47, 0x68, 0x2f, 0x3e,
  0x1c, 0xe0, 0x51, 0x3e, 0xbc, 0xa2, 0x0e, 0x3e, 0x48, 0xab, 0x61, 0xbe,
  0xbf, 0x7d, 0xfa, 0x3d, 0x4d, 0xe6, 0x90, 0xbc, 0x24, 0x5f, 0x05, 0x3e,
  0x9c, 0x49, 0x1f, 0x3e, 0x00, 0xc0, 0x53, 0xbe, 0x14, 0xe3, 0x50, 0x3e,
  0x40, 0x95, 0x90, 0x3c, 0x90, 0x3b, 0x83, 0xbd, 0x10, 0x5d, 0x81, 0xbd,
  0x40, 0x70, 0x9c, 0xbc, 0x58, 0x4d, 0x88, 0xbd, 0x30, 0xcb, 0x42, 0xbe,
  0x98, 0x6f, 0x17, 0xbe, 0x38, 0x68, 0x63, 0xbe, 0x50, 0x2d, 0x56, 0x3d,
  0x94, 0xfb, 0x03, 0x3e, 0x70, 0xaf, 0x0e, 0x3d, 0xa0, 0xdb, 0xb7, 0x3c,
  0x38, 0xe5, 0x81, 0xbd, 0x60, 0x62, 0x16, 0x3d, 0xe0, 0x86, 0xc3, 0x3d,
  0x64, 0x53, 0x19, 0xbe, 0xd8, 0x59, 0x7c, 0xbe, 0x74, 0xd9, 0x05, 0xbe,
  0x78, 0x64, 0x43, 0x3e, 0x80, 0x25, 0x4b, 0x3c, 0x68, 0x77, 0x05, 0xbe,
  0x9c, 0x6e, 0x1d, 0xbe, 0x20, 0x19, 0xb4, 0x3d, 0xa8, 0xe5, 0xaa, 0x3d,
  0x00, 0x9c, 0x08, 0x3d, 0x6c, 0x40, 0x2d, 0x3e, 0x14, 0x18, 0x66, 0xbe,
  0xf0, 0xf0, 0x72, 0xbd, 0x78, 0xff, 0x93, 0xbd, 0x04, 0x22, 0x60, 0xbe,
  0x4c, 0x46, 0x7b, 0xbe, 0x9c, 0xc8, 0x35, 0x3e, 0xe8, 0x82, 0x75, 0xbe,
  0x9c, 0x77, 0x17, 0xbe, 0x00, 0x5d, 0x64, 0xbb, 0x44, 0xcc, 0x39, 0x3e,
  0x98, 0x7a, 0xf2, 0x3d, 0x10, 0x2d, 0x28, 0x3e, 0x20, 0x87, 0xcf, 0x3d,
  0xe0, 0x1d, 0xb2, 0x3c, 0xbc, 0x55, 0x3a, 0xbe, 0xe0, 0xd7, 0x34, 0x3e,
  0x40, 0x94, 0x00, 0xbe, 0x80, 0xa5, 0x7a, 0x3d, 0xa0, 0x8c, 0x5b, 0x3d,
  0xec, 0x05, 0x51, 0x3e, 0x28, 0xb6, 0xfe, 0xbd, 0xa4, 0x3c, 0x2f, 0xbe,
  0x64, 0xa1, 0x3a, 0xbe, 0xec, 0x2f, 0x48, 0xbe, 0xd8, 0xad, 0x56, 0x3e,
  0xc8, 0x48, 0x3b, 0xbe, 0x34, 0xd9, 0x39, 0xbe, 0x28, 0xe5, 0xc4, 0xbd,
  0xd0, 0xfe, 0x4b, 0xbd, 0x00, 0xdc, 0xa0, 0xbb, 0x00, 0xbd, 0x48, 0x3c,
  0x10, 0xcf, 0x58, 0x3e, 0x48, 0xb7, 0xa5, 0x3d, 0x50, 0x6d, 0xb1, 0xbd,
  0xa4, 0xf4, 0x10, 0xbe, 0x10, 0x9a, 0x84, 0x3d, 0x20, 0x4c, 0x77, 0x3e,
  0xc0, 0x14, 0x36, 0xbd, 0xf0, 0x3f, 0x97, 0x3d, 0xb4, 0x29, 0x2e, 0x3e,
  0x4c, 0x60, 0x6f, 0xbe, 0x58, 0xee, 0x22, 0xbe, 0x00, 0x2c, 0x89, 0x3a,
  0xb8, 0x6e, 0x07, 0xbe, 0x20, 0xd1, 0x14, 0x3e, 0xa0, 0x7a, 0x87, 0xbd,
  0x88, 0x30, 0xc1, 0x3d, 0xac, 0xb0, 0x72, 0xbe, 0x68, 0x15, 0x51, 0x3e,
  0x40, 0xf8, 0x14, 0x3d, 0x60, 0xd9, 0xc4, 0xbc, 0x40, 0xee, 0x08, 0xbc,
  0x80, 0xae, 0xe9, 0x3d, 0x40, 0x9e, 0xcd, 0xbc, 0x90, 0x87, 0xf7, 0xbd,
  0x00, 0x8e, 0x43, 0xbb, 0x74, 0x92, 0x32, 0xbe, 0xc0, 0x08, 0x5d, 0xbe,
  0xa0, 0xe0, 0xc0, 0x3d, 0x50, 0x0a, 0x6b, 0x3d, 0xb8, 0xb5, 0x07, 0xbe,
  0xcc, 0x50, 0x45, 0x3e, 0x70, 0x6a, 0xfd, 0xbd, 0x30, 0x8b, 0x80, 0x3d,
  0xc8, 0x6d, 0x78, 0xbe, 0xfc, 0x43, 0x45, 0xbe, 0xc8, 0xa3, 0x55, 0xbe,
  0x90, 0xcc, 0xfe, 0x3d, 0xb6, 0x7e, 0x27, 0xbe, 0x8c, 0xd0, 0x45, 0xbd,
  0x54, 0x31, 0x63, 0x3e, 0x3c, 0x00, 0x40, 0xbe, 0x4a, 0x39, 0x34, 0x3d,
  0xf8, 0xf5, 0x6a, 0xbe, 0x90, 0xda, 0x50, 0x3e, 0xec, 0xcd, 0x12, 0x3e,
  0x8c, 0x4b, 0x03, 0x3e, 0xa2, 0xba, 0xeb, 0xbd, 0x40, 0xaf, 0x3b, 0xbc,
  0x20, 0x3f, 0x33, 0xbe, 0xa0, 0x14, 0x78, 0xbe, 0xfa, 0x8e, 0x36, 0x3e,
  0x40, 0xe4, 0x00, 0x3c, 0xb1, 0xcf, 0xef, 0xbc, 0xa8, 0x50, 0x9e, 0xbd,
  0x62, 0x26, 0x7a, 0x3e, 0x72, 0xa8, 0xac, 0x3d, 0x41, 0xe2, 0x39, 0xbb,
  0xa2, 0x54, 0x2e, 0x3d, 0x84, 0x8f, 0x4a, 0xbe, 0x90, 0x7b, 0xbc, 0x3d,
  0x8d, 0x20, 0x61, 0x3d, 0x19, 0xb1, 0xac, 0x3d, 0xb5, 0xe9, 0x53, 0x3e,
  0xeb, 0xd3, 0x7e, 0xbe, 0x50, 0x01, 0x7b, 0x3e, 0x25, 0x4e, 0xf4, 0x3d,
  0xc6, 0x90, 0xcb, 0xbd, 0x10, 0x81, 0x1a, 0x3d, 0xa0, 0x77, 0x72, 0xbd,
  0x60, 0x86, 0xa1, 0x3c, 0x48, 0x92, 0xc8, 0xbd, 0x40, 0xeb, 0xdc, 0xbd,
  0x70, 0xbf, 0x8c, 0x3d, 0xd8, 0x40, 0x69, 0xbe, 0xf0, 0x35, 0x73, 0x3d,
  0x80, 0x6a, 0x3d, 0xbd, 0xb4, 0x7e, 0x6f, 0xbe, 0x40, 0xd6, 0x5b, 0xbc,
  0x8c, 0x6f, 0x7d, 0xbe, 0x78, 0x18, 0x3f, 0xbe, 0x58, 0x12, 0xc6, 0x3d,
  0x40, 0x7f, 0x34, 0xbd, 0x38, 0xc5, 0xa8, 0xbd, 0x00, 0x79, 0x60, 0x3c,
  0x40, 0x75, 0x30, 0x3e, 0x5c, 0x91, 0x4c, 0xbe, 0xc8, 0x29, 0xf7, 0x3d,
  0x40, 0xad, 0xf4, 0xbc, 0xc8, 0xc9, 0x9a, 0xbd, 0x40, 0xd1, 0x8a, 0xbd,
  0x64, 0x82, 0x1c, 0xbe, 0xf0, 0xef, 0xd3, 0x3d, 0x50, 0x13, 0x43, 0xbd,
  0xc4, 0x01, 0x1c, 0xbe, 0x20, 0x28, 0x7d, 0xbd, 0xe4, 0x8e, 0x16, 0xbe,
  0xe0, 0xcf, 0xac, 0xbd, 0x98, 0xb4, 0xe0, 0x3d, 0x00, 0x17, 0x96, 0xbc,
  0xd8, 0xb0, 0xdc, 0xbd, 0xe8, 0x68, 0x58, 0x3e, 0x7c, 0x77, 0x7a, 0xbe,
  0x80, 0xf6, 0x21, 0x3d, 0xbc, 0x2f, 0x13, 0x3e, 0x48, 0xe9, 0x70, 0xbe,
  0xd8, 0x16, 0x05, 0x3e, 0x48, 0x39, 0xc4, 0xbd, 0x70, 0xcf, 0x0c, 0x3d,
  0x80, 0x65, 0x31, 0xbc, 0x10, 0x72, 0x88, 0x3d, 0x9d, 0x9a, 0xca, 0xbd,
  0x7c, 0x76, 0x6e, 0xbe, 0xa8, 0xa2, 0x8b, 0xbd, 0x78, 0x19, 0x38, 0xbe,
  0x86, 0xb9, 0xc5, 0xbd, 0x40, 0x7f, 0xaf, 0xbd, 0x18, 0xbf, 0xb1, 0x3d,
  0xd0, 0x4e, 0x45, 0x3e, 0x50, 0x51, 0x59, 0xbe, 0xc5, 0xac, 0xfc, 0x3a,
  0x8b, 0x52, 0x65, 0x3d, 0x5c, 0x4b, 0xea, 0xbd, 0xac, 0x22, 0x01, 0x3e,
  0xc4, 0x52, 0x46, 0xbe, 0xe6, 0x87, 0x83, 0xbd, 0x06, 0x22, 0x3b, 0x3e,
  0xd3, 0xb3, 0xeb, 0x3d, 0x7c, 0x34, 0x11, 0x3e, 0xa4, 0x20, 0x4f, 0xbe,
  0x08, 0x21, 0xbe, 0xbd, 0x00, 0x0a, 0x30, 0xbe, 0xa8, 0x39, 0xb8, 0x3d,
  0x58, 0x9d, 0x75, 0x3e, 0x3b, 0xa1, 0x82, 0xbd, 0x4a, 0xce, 0x9f, 0xbe,
  0xc0, 0xb2, 0xc2, 0xbd, 0xb4, 0xff, 0x1e, 0x3e, 0xfd, 0x6e, 0x83, 0xbe,
  0x80, 0x60, 0x9a, 0xbd, 0xac, 0x41, 0x09, 0xbe, 0xb0, 0xf5, 0x57, 0x3d,
  0xa4, 0x8a, 0x40, 0x3e, 0x01, 0x5d, 0xc8, 0x3c, 0x70, 0x9b, 0x7f, 0xbd,
  0xb0, 0x82, 0x11, 0xbd, 0x45, 0x3d, 0x62, 0x3e, 0xe5, 0xa8, 0x77, 0xbe,
  0x20, 0xce, 0xdf, 0x3c, 0xa8, 0xd7, 0x73, 0xbe, 0x64, 0x1f, 0x3f, 0x3e,
  0xb5, 0x13, 0x1a, 0x3e, 0xfd, 0x1a, 0x90, 0x3e, 0x5e, 0x43, 0x86, 0xbe,
  0x46, 0x79, 0x2d, 0xbe, 0xd3, 0xca, 0x8f, 0x3e, 0x58, 0x17, 0x9f, 0xbd,
  0xfb, 0x22, 0x62, 0xbd, 0x4e, 0xc3, 0x66, 0x3e, 0x2c, 0x91, 0x78, 0xbe,
  0xa4, 0x94, 0x01, 0x3e, 0x7c, 0x70, 0x4f, 0xbe, 0xd1, 0xcc, 0x4a, 0xbe,
  0x88, 0x17, 0xfa, 0xbd, 0x68, 0x5f, 0xe8, 0xbd, 0x28, 0xbe, 0xbb, 0xbd,
  0x7c, 0x06, 0x0a, 0xbe, 0xd7, 0xf4, 0x9a, 0x3d, 0xa8, 0xcb, 0x9b, 0x3d,
  0x18, 0x10, 0x13, 0xbe, 0xb9, 0xd9, 0x5b, 0xbe, 0x38, 0x4e, 0xa7, 0xbd,
  0xb4, 0x9c, 0x59, 0x3e, 0xa0, 0xd6, 0xd2, 0xbc, 0x18, 0xaf, 0xb8, 0x3d,
  0x80, 0x1f, 0x60, 0x3e, 0x98, 0x18, 0x42, 0xbe, 0x00, 0xda, 0x70, 0xbb,
  0x51, 0x35, 0xa1, 0xbd, 0x1e, 0x76, 0xd0, 0xbd, 0x24, 0x87, 0x31, 0x3e,
  0x13, 0x95, 0x92, 0xbb, 0xac, 0x91, 0x46, 0x3e, 0x66, 0x24, 0x22, 0xbe,
  0xa3, 0xb2, 0x4e, 0x3e, 0x9e, 0x0c, 0x95, 0xbd, 0x8e, 0x98, 0x2a, 0x3e,
  0x9e, 0xbc, 0xce, 0x3d, 0x30, 0x7f, 0xf4, 0x3d, 0x75, 0xc8, 0xd7, 0x3d,
  0x11, 0x08, 0xdf, 0x3d, 0x1c, 0x28, 0x5c, 0xbe, 0xdd, 0x79, 0x07, 0xbe,
  0x18, 0x05, 0x6c, 0x3e, 0x07, 0xb0, 0x40, 0x3e, 0xcb, 0xcd, 0xaf, 0xbd,
  0xa8, 0xde, 0x82, 0xbd, 0x00, 0x91, 0x96, 0xbd, 0xae, 0x3e, 0x4b, 0x3e,
  0x88, 0x13, 0x66, 0xbe, 0x80, 0x97, 0x1a, 0xbe, 0xa0, 0x79, 0x32, 0xbd,
  0x07, 0x8b, 0xa6, 0xbc, 0x80, 0xf2, 0xd1, 0xbc, 0xe0, 0x77, 0x7c, 0xbd,
  0x6c, 0x57, 0x31, 0x3e, 0xec, 0x0d, 0x7a, 0x3e, 0xd3, 0x9a, 0x5d, 0x3e,
  0xd8, 0x88, 0xbb, 0x3d, 0xf0, 0x08, 0x03, 0xbe, 0xba, 0x49, 0xd4, 0xbd,
  0x71, 0xf4, 0x0e, 0x3e, 0x80, 0xa4, 0xf9, 0xbb, 0x0c, 0x51, 0x55, 0x3e,
  0x10, 0xf7, 0x0e, 0xbd, 0x59, 0xc2, 0x5e, 0xbe, 0x33, 0xda, 0x89, 0xbe,
  0xe5, 0xff, 0x76, 0xbd, 0x09, 0x0a, 0x92, 0xbe, 0x60, 0x8c, 0x83, 0xbe,
  0x28, 0x39, 0x69, 0x3e, 0xcb, 0x4a, 0x1b, 0x3d, 0xfd, 0x40, 0x0a, 0x3e,
  0xc1, 0x68, 0x74, 0x3d, 0xb9, 0x04, 0x01, 0x3e, 0x80, 0x1e, 0x1c, 0x3e,
  0x11, 0x61, 0x47, 0x3e, 0x7d, 0xe3, 0x23, 0x3e, 0xa8, 0x94, 0x74, 0xbe,
  0x80, 0xeb, 0x4c, 0xbd, 0xe4, 0xec, 0x17, 0x3e, 0xa4, 0x26, 0x07, 0x3e,
  0xc0, 0x3b, 0xe7, 0x3d, 0xd4, 0x77, 0x6d, 0xbe, 0x08, 0xa3, 0xb2, 0xbd,
  0xa0, 0xa6, 0x11, 0xbd, 0x34, 0x80, 0x1e, 0x3e, 0x54, 0xe1, 0x09, 0x3e,
  0xbc, 0xce, 0x45, 0xbe, 0xc8, 0xd9, 0x42, 0xbe, 0xc8, 0x14, 0xa6, 0x3d,
  0x74, 0xc2, 0x0b, 0x3e, 0x00, 0x68, 0x83, 0xbc, 0x60, 0x5d, 0x26, 0xbe,
  0x9c, 0x31, 0x5b, 0xbe, 0x10, 0x49, 0x00, 0x3d, 0x40, 0xf9, 0x8f, 0x3c,
  0xc0, 0x64, 0x59, 0x3c, 0xc0, 0x72, 0xec, 0xbc, 0x10, 0xb0, 0x0a, 0xbe,
  0x00, 0x36, 0xa8, 0x3c, 0x38, 0x26, 0xcf, 0x3d, 0x84, 0x9e, 0x59, 0xbe,
  0x68, 0xe1, 0x55, 0xbe, 0x80, 0xac, 0xf1, 0xbb, 0xd0, 0x40, 0x3a, 0x3e,
  0x14, 0x1b, 0x6a, 0x3e, 0xa4, 0x3e, 0x32, 0xbe, 0x50, 0x2a, 0xa2, 0x3d,
  0x00, 0xad, 0xa0, 0x3c, 0x38, 0xe8, 0x30, 0xbe, 0x94, 0xcc, 0x0c, 0xbe,
  0x9b, 0x65, 0x6c, 0xbd, 0xb2, 0x96, 0x9b, 0xbd, 0xc0, 0xd7, 0xd2, 0x3c,
  0x50, 0x31, 0xba, 0xbd, 0xe0, 0x40, 0x89, 0xbe, 0x10, 0x19, 0xcb, 0x3d,
  0x30, 0x10, 0x2d, 0x3d, 0x80, 0xe6, 0x24, 0xbc, 0xac, 0xda, 0x5b, 0x3e,
  0x00, 0x97, 0xb3, 0x3d, 0x08, 0xc5, 0xa6, 0x3d, 0xdc, 0x4b, 0x18, 0x3e,
  0xfc, 0x51, 0x7d, 0xbe, 0x77, 0x4f, 0xf3, 0x3d, 0x40, 0x55, 0x53, 0xbc,
  0xd1, 0x08, 0x1a, 0xbe, 0xec, 0xe9, 0x52, 0xbe, 0x6d, 0x8b, 0xed, 0x3d,
  0xcd, 0xf5, 0x20, 0x3e, 0x84, 0xdf, 0x9e, 0x3c, 0x0a, 0x4a, 0x0d, 0xbe,
  0x9e, 0x28, 0x06, 0xbe, 0x88, 0x0d, 0x62, 0xbe, 0xb7, 0x02, 0x9f, 0xbe,
  0x69, 0x87, 0x0e, 0xbe, 0x05, 0x06, 0x71, 0x3c, 0x1e, 0x95, 0x43, 0x3e,
  0xd0, 0x66, 0xb8, 0xbd, 0x95, 0x4e, 0x48, 0xbe, 0x4e, 0xa7, 0x94, 0xbe,
  0x40, 0xd0, 0x65, 0x3d, 0x58, 0x1f, 0x91, 0xbd, 0x10, 0x89, 0xe1, 0xbc,
  0xeb, 0xe6, 0x50, 0xbe, 0x40, 0xcd, 0x04, 0xbc, 0xdc, 0x18, 0x70, 0x3e,
  0xcb, 0x8e, 0x99, 0x3d, 0x54, 0x68, 0x1e, 0xbe, 0x00, 0x3f, 0xfc, 0x3d,
  0xcc, 0xd8, 0x02, 0x3e, 0xa8, 0x3c, 0x2d, 0x3e, 0x2c, 0xad, 0x3b, 0xbd,
  0xe0, 0xe4, 0x21, 0x3d, 0x7c, 0x30, 0x7d, 0xbe, 0x76, 0x33, 0x74, 0xbe,
  0x18, 0x58, 0x5f, 0xbd, 0xfc, 0xe0, 0x29, 0xbe, 0xa5, 0x97, 0xba, 0xbe,
  0x48, 0x7a, 0x94, 0x3d, 0x21, 0x41, 0x16, 0x3b, 0xce, 0x0b, 0x1c, 0x3e,
  0x08, 0x6e, 0x63, 0x3e, 0x10, 0xc0, 0x1a, 0x3d, 0xa8, 0x4e, 0x09, 0x3e,
  0x50, 0x28, 0x43, 0x3e, 0x4f, 0x87, 0xa5, 0x3c, 0x32, 0x1e, 0x37, 0xbe,
  0x0d, 0xe1, 0x21, 0x3e, 0xb8, 0xda, 0x80, 0xbd, 0xd0, 0x1d, 0xa4, 0x3d,
  0x21, 0x90, 0x8b, 0xbd, 0x4a, 0x8a, 0x50, 0xbe, 0x04, 0xab, 0x17, 0x3e,
  0x00, 0x06, 0xe9, 0x3d, 0x48, 0x6c, 0x7d, 0xbe, 0x59, 0x52, 0xfe, 0xbc,
  0x40, 0x84, 0x37, 0xbe, 0x48, 0x16, 0xa3, 0xbd, 0x5a, 0x45, 0x1c, 0xbe,
  0xa8, 0x21, 0x01, 0x3e, 0x64, 0x3a, 0x2c, 0x3e, 0xf0, 0x01, 0xa3, 0x3d,
  0x80, 0x7e, 0x81, 0xbd, 0x08, 0xa7, 0x51, 0xbe, 0x08, 0x88, 0xa0, 0x3d,
  0x98, 0xe0, 0x60, 0x3e, 0x41, 0x13, 0x65, 0xbe, 0xe0, 0xcf, 0xd1, 0xbd,
  0x80, 0xc4, 0x2a, 0x3c, 0x90, 0x9d, 0x28, 0xbe, 0x10, 0xfc, 0xf7, 0x3d,
  0x72, 0x80, 0x2c, 0x3e, 0x6a, 0x4d, 0xe1, 0x3d, 0x48, 0x14, 0xeb, 0x3d,
  0x6b, 0x08, 0xa3, 0xbc, 0x87, 0xe6, 0xb0, 0xbd, 0xa4, 0xba, 0x33, 0x3e,
  0xb9, 0x75, 0x09, 0xbd, 0x75, 0x07, 0x7d, 0xbe, 0xd9, 0x2a, 0xb5, 0x3c,
  0xc0, 0x3f, 0x6e, 0xbc, 0xf0, 0x97, 0x15, 0xbe, 0x50, 0x86, 0x31, 0x3d,
  0xaf, 0x6e, 0xf6, 0x3d, 0xcc, 0x3f, 0x0b, 0x3e, 0xf0, 0xa3, 0xc2, 0x3d,
  0xa2, 0x4f, 0x15, 0xbe, 0x81, 0xfb, 0x50, 0x3e, 0xa0, 0x9a, 0xeb, 0xbc,
  0x60, 0x4c, 0xf4, 0xbc, 0x2a, 0x52, 0x36, 0x3e, 0x74, 0x69, 0x79, 0xbe,
  0x08, 0x09, 0x2c, 0x3e, 0xc0, 0x27, 0xf3, 0xbc, 0x00, 0xf5, 0xaf, 0xbd,
  0x3f, 0x55, 0x2d, 0x3e, 0x08, 0xb4, 0xb5, 0x3d, 0x40, 0x36, 0x7b, 0xbd,
  0x65, 0xad, 0x27, 0xbd, 0xc5, 0x5b, 0x4c, 0x3e, 0x98, 0x98, 0x1e, 0xbe,
  0xba, 0x55, 0x5d, 0xbe, 0x24, 0x58, 0x3a, 0x3e, 0xbd, 0x8f, 0x61, 0xbe,
  0xeb, 0x17, 0xcc, 0xbd, 0x8a, 0xca, 0x47, 0x3e, 0x99, 0xb7, 0x17, 0x3d,
  0x41, 0xc5, 0xfb, 0x3d, 0x20, 0x34, 0x49, 0x3d, 0x6a, 0x59, 0xb4, 0x3d,
  0xc8, 0xd9, 0xa1, 0xba, 0x8e, 0xe2, 0x39, 0xbd, 0xd9, 0x7d, 0xba, 0x3d,
  0xe8, 0x29, 0xba, 0xbd, 0xb6, 0xd3, 0xed, 0xbd, 0x61, 0x78, 0x73, 0x3e,
  0x78, 0x32, 0xd9, 0xbd, 0xf0, 0xe2, 0x7a, 0xbe, 0xe4, 0x0e, 0x6b, 0xbe,
  0x91, 0x11, 0x89, 0xbd, 0xf8, 0x6f, 0x21, 0xbe, 0x20, 0x12, 0x1d, 0x3d,
  0x49, 0x1f, 0x1d, 0xbe, 0x70, 0x5e, 0x0e, 0xbe, 0x38, 0x21, 0x0b, 0x3e,
  0x68, 0x21, 0xcf, 0xbd, 0xc8, 0x76, 0xad, 0xbd, 0xc2, 0x75, 0x5c, 0xbe,
  0x78, 0xf1, 0xe6, 0x3d, 0x00, 0x94, 0x55, 0x3d, 0x17, 0xb7, 0xdd, 0x3d,
  0x60, 0x37, 0x81, 0x3d, 0xa8, 0xbe, 0x74, 0x3e, 0x8a, 0x59, 0x86, 0xbe,
  0x44, 0xe0, 0x5d, 0x3e, 0x05, 0xe0, 0x5b, 0x3e, 0xcc, 0xf0, 0x0f, 0x3e,
  0x83, 0xda, 0x55, 0x3d, 0x25, 0x37, 0xb2, 0x3d, 0x74, 0x11, 0x94, 0x3c,
  0xe8, 0x3e, 0x32, 0xbe, 0x2c, 0x6b, 0x86, 0xbd, 0xe6, 0x4f, 0x85, 0x3e,
  0xff, 0x5a, 0x2e, 0x3d, 0x08, 0x24, 0xd1, 0xbe, 0xa0, 0xe3, 0xf4, 0x3d,
  0xfe, 0x97, 0x9e, 0xbe, 0xa8, 0x0b, 0x9b, 0xbc, 0x48, 0xa0, 0x3a, 0xbe,
  0x68, 0x4b, 0x00, 0x3e, 0x50, 0x2a, 0x2f, 0x3d, 0xe0, 0x26, 0x62, 0xbe,
  0x80, 0x26, 0xce, 0x3b, 0xc8, 0x6b, 0xe6, 0xbd, 0x50, 0x9c, 0x22, 0xbe,
  0x30, 0xf2, 0x6e, 0xbd, 0x00, 0xcf, 0xd5, 0x3d, 0x40, 0x78, 0x16, 0x3c,
  0x70, 0x8d, 0x15, 0xbd, 0x78, 0x0a, 0xbb, 0x3d, 0x58, 0x60, 0xf3, 0x3d,
  0x6c, 0xcf, 0x5b, 0xbe, 0x23, 0x86, 0x77, 0xbe, 0xa3, 0xf2, 0x11, 0xbe,
  0x5c, 0x8f, 0x32, 0x3e, 0x34, 0xac, 0x52, 0xbe, 0xa0, 0x1e, 0xb0, 0xbc,
  0x29, 0xaa, 0x64, 0x3e, 0x31, 0x5e, 0xde, 0xbd, 0xea, 0xa2, 0x8b, 0x3d,
  0xd0, 0x88, 0x0f, 0x3e, 0xaa, 0xc7, 0x0b, 0xbe, 0xe8, 0x8b, 0x27, 0xbe,
  0x3c, 0x75, 0x57, 0xbe, 0x37, 0x8f, 0x4e, 0xbe, 0x05, 0x30, 0x6c, 0x3e,
  0xf0, 0xc8, 0x07, 0x3d, 0xe8, 0x93, 0xdc, 0xbd, 0xc0, 0x05, 0x47, 0x3e,
  0x5b, 0x1c, 0x43, 0xbe, 0x34, 0x16, 0x6a, 0x3e, 0xb4, 0x44, 0x68, 0x3e,
  0x10, 0x3a, 0x65, 0x3e, 0xd0, 0xe2, 0x7c, 0x3d, 0x34, 0x64, 0x59, 0x3e,
  0x58, 0x3e, 0xa2, 0xbd, 0xe0, 0xe4, 0x7c, 0x3d, 0x70, 0xee, 0x15, 0x3d,
  0x7c, 0x0d, 0x50, 0x3e, 0x08, 0x7d, 0x7d, 0xbe, 0x04, 0xc4, 0x7c, 0xbe,
  0xdc, 0x69, 0x63, 0xbe, 0xfc, 0x8c, 0x13, 0xbe, 0x30, 0xf1, 0x82, 0xbd,
  0x90, 0x15, 0x8b, 0xbd, 0x00, 0x56, 0xca, 0xbb, 0x00, 0xdd, 0x13, 0xbd,
  0x3c, 0x27, 0x22, 0x3e, 0x50, 0x15, 0x29, 0xbe, 0xc0, 0x44, 0x9c, 0x3c,
  0x80, 0xe2, 0xde, 0x3d, 0xf8, 0xe4, 0x01, 0x3e, 0x98, 0x1b, 0x51, 0xbe,
  0x64, 0x0d, 0x58, 0xbe, 0x00, 0xb2, 0x31, 0x3b, 0x18, 0xda, 0x36, 0xbe,
  0x80, 0xe9, 0xcb, 0x3b, 0x10, 0x75, 0x74, 0xbe, 0x50, 0xae, 0x63, 0x3d,
  0x38, 0xcd, 0xa6, 0x3d, 0x40, 0x27, 0xd4, 0xbd, 0x08, 0x51, 0x90, 0xbd,
  0x68, 0xed, 0xe5, 0xbd, 0xd0, 0xf2, 0x23, 0xbe, 0x70, 0xc1, 0x4f, 0x3d,
  0x6c, 0x3f, 0x73, 0xbe, 0x6c, 0x72, 0x4f, 0x3e, 0x3c, 0xc6, 0x7d, 0xbe,
  0xc8, 0x2a, 0xb6, 0xbd, 0x14, 0xa3, 0x39, 0x3e, 0x00, 0x3e, 0x67, 0xbe,
  0x90, 0xd4, 0x00, 0xbd, 0xb8, 0xd9, 0x52, 0x3e, 0xb8, 0xe1, 0x30, 0xbe,
  0xe0, 0x96, 0xb8, 0x3d, 0x30, 0xcf, 0x31, 0xbd, 0xa0, 0xa2, 0x3e, 0xbe,
  0x10, 0x8d, 0xeb, 0xbd, 0x40, 0xb5, 0x6c, 0xbc, 0x00, 0x03, 0x7e, 0x3c,
  0x58, 0x2f, 0x0f, 0xbe, 0xac, 0xef, 0x6a, 0x3e, 0xcc, 0xc5, 0x5a, 0xbe,
  0x50, 0x5b, 0x8d, 0x3d, 0x60, 0xa8, 0xdc, 0xbc, 0x00, 0x87, 0xa8, 0x3c,
  0x08, 0x2d, 0xda, 0x3d, 0x00, 0x47, 0x63, 0x3c, 0x44, 0x0a, 0x4f, 0xbe,
  0x60, 0x9a, 0xe4, 0xbd, 0x48, 0xd4, 0xa3, 0x3d, 0xb0, 0x58, 0x3f, 0x3d,
  0x80, 0x9a, 0xff, 0x3b, 0x0c, 0xe0, 0x24, 0x3e, 0x18, 0xa0, 0x05, 0xbe,
  0xcc, 0xc3, 0x00, 0x3e, 0xa4, 0x39, 0x31, 0x3e, 0x1c, 0x7b, 0x44, 0xbe,
  0x80, 0x59, 0xaa, 0xbd, 0xc4, 0x5f, 0x06, 0x3e, 0x40, 0xfa, 0x68, 0x3e,
  0xe4, 0x78, 0x5e, 0x3e, 0x7c, 0x0a, 0x64, 0xbe, 0xbc, 0xa8, 0x05, 0xbe,
  0x60, 0xa1, 0x39, 0x3d, 0x28, 0x45, 0x78, 0xbe, 0xb4, 0x11, 0x23, 0xbe,
  0x28, 0x0f, 0x38, 0xbe, 0xb4, 0x6d, 0x7e, 0x3e, 0xcc, 0x76, 0x00, 0xbe,
  0xc0, 0x9d, 0x19, 0xbe, 0xa4, 0x77, 0x0a, 0x3e, 0x04, 0xb5, 0x6c, 0x3e,
  0x18, 0xc3, 0xba, 0xbd, 0xfc, 0xfe, 0x06, 0x3e, 0x08, 0xca, 0xc0, 0x3d,
  0x10, 0xfa, 0xde, 0xbd, 0x80, 0x92, 0xbd, 0x3b, 0xc4, 0x56, 0x1c, 0xbe,
  0x44, 0x1f, 0x4a, 0xbe, 0x18, 0x13, 0x52, 0xbe, 0x90, 0x1f, 0x36, 0x3d,
  0x70, 0x56, 0x36, 0xbe, 0xb8, 0x19, 0xce, 0xbd, 0xc0, 0x5a, 0x14, 0xbd,
  0x70, 0xc7, 0x7a, 0x3d, 0x80, 0x33, 0x3f, 0x3e, 0xa0, 0x4e, 0x1d, 0x3e,
  0x94, 0xfe, 0x7d, 0xbe, 0x00, 0x1f, 0x44, 0x3e, 0xe4, 0xc0, 0x31, 0xbe,
  0xd0, 0x4e, 0x49, 0xbd, 0x60, 0x40, 0x56, 0x3e, 0x88, 0x36, 0x1a, 0x3e,
  0x40, 0x67, 0x7e, 0x3d, 0xe0, 0xf5, 0x4a, 0xbe, 0xc8, 0xc3, 0x5d, 0xbe,
  0x6c, 0x3a, 0x47, 0x3e, 0x30, 0xed, 0x38, 0xbe, 0x80, 0x8d, 0x11, 0xbc,
  0x44, 0x72, 0x19, 0xbe, 0x0c, 0x67, 0x21, 0x3e, 0xd8, 0x6a, 0x19, 0xbe,
  0x54, 0x7d, 0x69, 0xbe, 0xc0, 0xe8, 0x76, 0x3d, 0x40, 0x90, 0x3a, 0x3d,
  0x40, 0xb8, 0x4c, 0xbe, 0x64, 0xaa, 0x63, 0x3e, 0x30, 0x87, 0x4b, 0xbe,
  0xa8, 0x2c, 0x68, 0x3e, 0x44, 0xba, 0x30, 0x3e, 0xbc, 0x1e, 0x6d, 0xbe,
  0x10, 0x76, 0x61, 0xbe, 0xc8, 0x72, 0x42, 0xbe, 0xc0, 0x51, 0xd6, 0x3d,
  0x38, 0x9a, 0x23, 0x3e, 0x00, 0x0d, 0xfa, 0xbb, 0xe8, 0x03, 0xa2, 0x3d,
  0x50, 0x12, 0x68, 0x3d, 0xec, 0x6c, 0x53, 0x3e, 0xe3, 0xc1, 0x26, 0xbd,
  0x3c, 0xe6, 0x66, 0x3d, 0xf0, 0x1c, 0x4f, 0x3d, 0xc0, 0x47, 0x78, 0xbc,
  0x98, 0xa5, 0xa4, 0xbc, 0xa8, 0x48, 0xf2, 0xbd, 0x98, 0xa8, 0x3f, 0x3e,
  0x90, 0x21, 0xfa, 0xbd, 0xb0, 0xe2, 0x41, 0x3e, 0xbb, 0xef, 0x4f, 0xbe,
  0x30, 0xe8, 0x96, 0x3d, 0xb0, 0xc1, 0x04, 0x3d, 0x25, 0xd7, 0x41, 0xbe,
  0x1d, 0x21, 0x69, 0xbe, 0x3c, 0xed, 0x11, 0x3e, 0x40, 0xe5, 0xc0, 0x3d,
  0x90, 0xcc, 0x92, 0x3d, 0x41, 0x34, 0xba, 0x3d, 0x5f, 0x9e, 0xfd, 0x3d,
  0xdb, 0xfc, 0xdc, 0xbd, 0xe4, 0x92, 0x1b, 0x3e, 0x62, 0x61, 0x5e, 0x3d,
  0x48, 0x10, 0x25, 0xbe, 0x1f, 0xf2, 0x4c, 0xbe, 0x50, 0x31, 0x04, 0xbe,
  0x08, 0xc9, 0x07, 0xbd, 0x28, 0x95, 0xf5, 0xbd, 0x78, 0x08, 0x4a, 0xbe,
  0xf8, 0x2b, 0x92, 0xbd, 0x22, 0x50, 0xd5, 0x3d, 0x58, 0xb8, 0xa5, 0xbd,
  0x70, 0x20, 0x34, 0x3d, 0x2a, 0x2c, 0x64, 0x3e, 0xfb, 0x24, 0xeb, 0x3b,
  0x10, 0x58, 0x13, 0x3d, 0xd0, 0x50, 0x46, 0x3d, 0x5f, 0x20, 0xe3, 0x3d,
  0xd0, 0x6b, 0x45, 0xbe, 0x00, 0x1d, 0xe7, 0xbc, 0x8c, 0xef, 0x20, 0x3e,
  0x6c, 0x27, 0x02, 0xbe, 0xa4, 0x12, 0x8a, 0x3c, 0xb0, 0x75, 0xb9, 0xbd,
  0xb4, 0x74, 0x3c, 0x3e, 0xa6, 0x64, 0xc4, 0x3c, 0x81, 0xae, 0x21, 0x3d,
  0x30, 0x6d, 0x06, 0x3e, 0x37, 0xc1, 0x34, 0xbe, 0x78, 0x4b, 0x1f, 0x3e,
  0x9a, 0xae, 0x80, 0xbe, 0x6f, 0x83, 0x4e, 0x3e, 0x6c, 0x66, 0x27, 0xbc,
  0x2a, 0x20, 0xa6, 0xbd, 0x2b, 0x62, 0x1b, 0xbe, 0x70, 0x74, 0x20, 0x3e,
  0xaa, 0xf2, 0x3b, 0xbc, 0x96, 0x85, 0x87, 0xbe, 0x35, 0x8a, 0x48, 0x3e,
  0x07, 0x68, 0x39, 0xbe, 0x84, 0x4f, 0x11, 0x3e, 0xad, 0x93, 0x6a, 0x3e,
  0xb9, 0x6a, 0x27, 0xbd, 0x8c, 0xe8, 0x5d, 0xbe, 0x1c, 0x9a, 0x7d, 0xbe,
  0x69, 0x5f, 0xae, 0x3b, 0x45, 0xd9, 0xfd, 0x3d, 0x08, 0x87, 0x97, 0x3d,
  0x00, 0xe4, 0x95, 0x3a, 0xa4, 0x76, 0x0c, 0xbe, 0xf8, 0x91, 0xbd, 0x3d,
  0x80, 0x87, 0xe1, 0xbb, 0x40, 0x91, 0x9e, 0xbd, 0x50, 0x68, 0x67, 0x3d,
  0x66, 0xde, 0x7b, 0xbe, 0x8c, 0x40, 0x6d, 0x3e, 0x60, 0x01, 0x1f, 0x3e,
  0x83, 0xe5, 0xb6, 0x3d, 0x2e, 0xe4, 0xb9, 0x3d, 0x98, 0x5c, 0xd1, 0xbd,
  0xb6, 0x8d, 0xc4, 0xba, 0x1c, 0x50, 0x43, 0xbe, 0xf0, 0xce, 0xe3, 0x3d,
  0x4b, 0x43, 0x05, 0xbe, 0xd0, 0x18, 0x8e, 0x3d, 0xd2, 0x26, 0x81, 0x3e,
  0xdc, 0x37, 0x86, 0xbc, 0x0c, 0xc0, 0x24, 0xbe, 0x32, 0x92, 0x7d, 0xbe,
  0xa0, 0xf5, 0x80, 0x3e, 0x07, 0x5a, 0x15, 0xbe, 0x7c, 0x14, 0x33, 0x3e,
  0xb0, 0xd0, 0xd5, 0x3d, 0x76, 0x4a, 0x03, 0xbd, 0x35, 0x34, 0x51, 0x3e,
  0xc0, 0x8f, 0xe8, 0xbd, 0x98, 0xfc, 0xb0, 0x3d, 0xce, 0x2c, 0x9d, 0x3c,
  0x59, 0xe0, 0x07, 0xbe, 0x40, 0x59, 0x2c, 0x3d, 0x40, 0xb7, 0x0e, 0xbc,
  0x3d, 0x16, 0x46, 0xbe, 0x60, 0xbf, 0x73, 0xbe, 0x40, 0xc4, 0x32, 0xbe,
  0x78, 0xdd, 0x0e, 0x3e, 0xc0, 0xdb, 0x15, 0xbe, 0x09, 0x62, 0xd8, 0xbd,
  0x54, 0x3c, 0x65, 0x3e, 0x70, 0xe3, 0x83, 0xbd, 0x3b, 0x00, 0x49, 0xbe,
  0x3c, 0x48, 0xbf, 0xbd, 0xb8, 0x45, 0x5f, 0x3e, 0x67, 0x0a, 0x0a, 0xbe,
  0x54, 0x2a, 0x4c, 0x3e, 0x97, 0x91, 0xa9, 0x3d, 0xff, 0xf3, 0x81, 0x3e,
  0xc4, 0xb3, 0x32, 0x3d, 0xfc, 0x68, 0x53, 0x3c, 0x7f, 0x17, 0x00, 0x3e,
  0xe0, 0x1f, 0x8b, 0xbc, 0x6a, 0xb3, 0xa9, 0xbc, 0x17, 0x68, 0x90, 0xbd,
  0xe4, 0x20, 0x49, 0x3e, 0xf7, 0x20, 0x2f, 0xbe, 0x78, 0x76, 0xb1, 0x3d,
  0x59, 0xa8, 0x51, 0xbd, 0x6a, 0x79, 0x8d, 0x3a, 0x9c, 0xc5, 0x1b, 0x3e,
  0xb4, 0x25, 0x1a, 0x3e, 0xc5, 0xbe, 0x75, 0xbd, 0x7d, 0xd7, 0x10, 0x3e,
  0x70, 0x71, 0x13, 0x3e, 0xc0, 0x06, 0x03, 0xbd, 0x68, 0x3e, 0x19, 0x3e,
  0x04, 0xa2, 0x6a, 0x3e, 0x7c, 0x87, 0x52, 0xbe, 0xf8, 0x24, 0x7e, 0x3e,
  0xa4, 0x25, 0x18, 0xbe, 0x98, 0x19, 0x05, 0xbe, 0xc4, 0xe6, 0x3d, 0xbe,
  0x40, 0x90, 0x01, 0x3c, 0x77, 0x17, 0x5a, 0x3e, 0x90, 0x3b, 0xfb, 0xbd,
  0x20, 0xe4, 0x02, 0xbd, 0x84, 0xae, 0xcb, 0x3d, 0x00, 0xf9, 0x2b, 0x3e,
  0x25, 0xd3, 0x00, 0x3e, 0x5f, 0x37, 0xfb, 0xbd, 0x7b, 0xde, 0x58, 0xbd,
  0xd6, 0x05, 0x59, 0xbe, 0x34, 0x94, 0xdc, 0x3d, 0x68, 0x65, 0x94, 0xbd,
  0x48, 0x3e, 0x07, 0xbc, 0x52, 0x95, 0xbd, 0xbd, 0xbb, 0x8c, 0x3e, 0x3e,
  0x9f, 0x27, 0xa8, 0x3d, 0x60, 0x5a, 0x39, 0x3e, 0x95, 0xf2, 0xe8, 0xbd,
  0x78, 0x0a, 0xbf, 0xbd, 0xec, 0xbf, 0x72, 0x3e, 0x8c, 0xd4, 0x5a, 0x3e,
  0xaf, 0x88, 0x05, 0xbe, 0x85, 0xd5, 0x69, 0x3e, 0xd8, 0xdb, 0x2d, 0x3e,
  0x60, 0x1d, 0x78, 0xbd, 0x2e, 0x85, 0x07, 0x3e, 0x60, 0x35, 0xc1, 0x3d,
  0xa4, 0x5f, 0x38, 0x3e, 0x74, 0xfd, 0x1e, 0x3e, 0xe8, 0xd9, 0x3e, 0x3e,
  0x9c, 0x0d, 0xfd, 0x3d, 0x88, 0xf3, 0x28, 0xbe, 0x00, 0x86, 0x6b, 0xbd,
  0x7c, 0x97, 0xf1, 0xbc, 0x5f, 0x1e, 0xc5, 0x3d, 0x38, 0xde, 0x0e, 0x3e,
  0xd5, 0xef, 0x00, 0x3e, 0x20, 0x0b, 0x38, 0xbe, 0xd2, 0x55, 0xcd, 0x39,
  0xe3, 0xbf, 0x24, 0x3e, 0xcb, 0x82, 0x90, 0xbc, 0xb0, 0x4e, 0x4b, 0x3e,
  0x03, 0x98, 0x64, 0xbe, 0x8c, 0x94, 0x40, 0xbe, 0xd3, 0x2b, 0x2f, 0xbc,
  0xdf, 0x2a, 0xb6, 0xbc, 0xe2, 0xa5, 0x48, 0x3d, 0x70, 0xae, 0xed, 0x3d,
  0x70, 0x0b, 0x04, 0x3e, 0x94, 0xbe, 0xb6, 0x3c, 0x97, 0x84, 0x5d, 0x3e,
  0xf8, 0x3d, 0x08, 0xbe, 0xb0, 0x1b, 0xea, 0xbd, 0x45, 0x22, 0x22, 0xbe,
  0x5a, 0x75, 0x49, 0x3d, 0xf8, 0x4f, 0x1c, 0xbe, 0x90, 0x69, 0xac, 0xbd,
  0xd0, 0x06, 0x91, 0xbe, 0x68, 0xc0, 0xa1, 0x3d, 0x50, 0x64, 0x26, 0x3e,
  0x70, 0x91, 0x58, 0xbd, 0x1c, 0x71, 0x6a, 0xbe, 0xc6, 0x57, 0x0d, 0xbe,
  0xe8, 0x2f, 0x55, 0x3e, 0x50, 0xbd, 0x83, 0x3d, 0x14, 0xc4, 0x11, 0x3e,
  0x21, 0x01, 0xab, 0x3c, 0xd0, 0x68, 0xe8, 0xbd, 0x48, 0x8a, 0x80, 0x3d,
  0x3c, 0x29, 0x24, 0xbe, 0x46, 0x15, 0x7f, 0xbe, 0x72, 0x74, 0xf6, 0x3b,
  0x0c, 0xd4, 0x85, 0xbe, 0x3d, 0xd8, 0x52, 0x3e, 0x92, 0xfa, 0x7c, 0x3e,
  0x20, 0xb9, 0xc6, 0x3c, 0x14, 0x8c, 0xca, 0x3d, 0x79, 0x2c, 0x80, 0x3e,
  0x9e, 0x37, 0xad, 0xbe, 0x4a, 0xa9, 0xf7, 0xbd, 0xf0, 0x20, 0x46, 0x3d,
  0x95, 0xfe, 0x75, 0xbe, 0x62, 0x10, 0x28, 0x3d, 0x80, 0x54, 0x4e, 0xbc,
  0x84, 0x12, 0x62, 0x3e, 0x16, 0x24, 0x2c, 0x3e, 0xe6, 0x5f, 0x44, 0x3e,
  0xc0, 0x18, 0x4a, 0xbc, 0x40, 0x3e, 0x2b, 0x3e, 0xd0, 0x38, 0x9a, 0x3d,
  0x60, 0x6f, 0x91, 0xbd, 0x34, 0x5c, 0x06, 0x3e, 0x80, 0xdd, 0xc4, 0xbc,
  0x80, 0x5d, 0x80, 0x3b, 0x58, 0x52, 0x82, 0xbe, 0x1c, 0xc7, 0x58, 0xbe,
  0x14, 0x19, 0x05, 0xbe, 0x27, 0xb2, 0xbc, 0x3c, 0xd9, 0xce, 0x75, 0x3d,
  0x24, 0x52, 0x3f, 0xbe, 0x25, 0x83, 0x23, 0x3e, 0x74, 0xb8, 0x08, 0x3e,
  0xdc, 0xf8, 0xdc, 0x3d, 0x83, 0xe0, 0x5d, 0x3d, 0xbc, 0xf5, 0x24, 0xbd,
  0xb1, 0xd1, 0xd4, 0xbc, 0x2f, 0x89, 0xae, 0xbc, 0x30, 0xf3, 0xec, 0x3d,
  0xa4, 0xdc, 0x6a, 0xbe, 0x23, 0xcc, 0x50, 0xbe, 0x4f, 0xb7, 0x38, 0x3e,
  0x4d, 0x21, 0x0c, 0x3d, 0x88, 0x18, 0xa7, 0x3d, 0xe4, 0xd7, 0x06, 0x3d,
  0xe8, 0xb1, 0xd1, 0x3c, 0xe0, 0xa1, 0xb8, 0xbc, 0x10, 0x1b, 0x2c, 0x3e,
  0xe0, 0x41, 0xdb, 0x3c, 0x9f, 0x72, 0x73, 0xbe, 0x00, 0x78, 0x65, 0x3a,
  0x90, 0xe2, 0x1d, 0xbd, 0x58, 0xc7, 0x46, 0xbd, 0x78, 0x73, 0x09, 0xbe,
  0x48, 0x5a, 0x39, 0xbe, 0x08, 0x38, 0x7d, 0xbe, 0x00, 0x77, 0x31, 0x3b,
  0x78, 0x6e, 0x63, 0xbe, 0x58, 0xb6, 0x8b, 0xbd, 0x7c, 0xd5, 0x33, 0x3e,
  0xb6, 0x66, 0x06, 0xbe, 0x75, 0xa7, 0x43, 0x3e, 0x58, 0x91, 0xb6, 0xbd,
  0xd3, 0x17, 0x73, 0xbd, 0x58, 0x37, 0x32, 0xbe, 0x53, 0x84, 0x40, 0x3e,
  0x9b, 0x76, 0x06, 0x3e, 0x0c, 0xdf, 0x35, 0xbd, 0x99, 0xe9, 0xf6, 0x3d,
  0x40, 0x16, 0xe2, 0xb7, 0x04, 0x73, 0x22, 0xbe, 0xa8, 0x3a, 0x0b, 0x3e,
  0xc8, 0x54, 0x05, 0x3e, 0x82, 0x8c, 0xbf, 0xbd, 0x2b, 0x6d, 0x37, 0x3d,
  0xe0, 0x6d, 0xe5, 0x3c, 0xd9, 0xca, 0x0b, 0x3e, 0xf1, 0xd5, 0x69, 0xbe,
  0xcc, 0x0f, 0x09, 0xbe, 0x74, 0x24, 0x5b, 0xbe, 0x60, 0x12, 0x20, 0xbd,
  0x1c, 0x31, 0x3d, 0x3e, 0xbc, 0x8d, 0x55, 0xbe, 0x0c, 0x20, 0x57, 0xbe,
  0xe0, 0x3d, 0xa4, 0x3c, 0x4c, 0xe4, 0x45, 0xbe, 0xcc, 0xfe, 0x7a, 0x3e,
  0x10, 0xf0, 0x2f, 0xbd, 0x00, 0xec, 0xbc, 0xbd, 0xe0, 0xdb, 0x8a, 0x3c,
  0x08, 0x74, 0xcb, 0x3d, 0x5c, 0xa3, 0x1b, 0xbe, 0xc0, 0x42, 0x14, 0x3c,
  0xb4, 0x87, 0x29, 0xbe, 0x68, 0x7b, 0x55, 0xbe, 0xf8, 0x8d, 0x19, 0xbe,
  0x00, 0x8c, 0x08, 0x3d, 0xa0, 0xe1, 0x8a, 0xbd, 0xc4, 0x4e, 0x2a, 0xbe,
  0x70, 0xc1, 0xb1, 0x3d, 0xc0, 0x5c, 0x2d, 0xbe, 0x00, 0x4d, 0xed, 0x3b,
  0xb0, 0xf2, 0x23, 0xbe, 0x80, 0xc5, 0x88, 0xbc, 0xb0, 0x44, 0x05, 0x3d,
  0x28, 0x96, 0xd6, 0xbd, 0x08, 0xdb, 0x1f, 0xbe, 0x44, 0xb9, 0x26, 0xbe,
  0xf0, 0xd6, 0x08, 0x3e, 0x30, 0x95, 0x94, 0x3d, 0x40, 0xc7, 0xcc, 0x3c,
  0x30, 0x2e, 0xe0, 0xbd, 0x56, 0x61, 0xa0, 0xbe, 0x3e, 0xc6, 0x06, 0xbe,
  0xb0, 0xf5, 0x11, 0x3e, 0xd0, 0x87, 0xfe, 0xbd, 0x44, 0x62, 0x2a, 0x3e,
  0x48, 0x70, 0x5d, 0xbe, 0x30, 0xc6, 0x32, 0xbd, 0xb8, 0x43, 0x9a, 0xbd,
  0xf8, 0xeb, 0x60, 0x3e, 0x94, 0x40, 0x32, 0x3e, 0xa0, 0x2a, 0x53, 0x3d,
  0x08, 0xc9, 0x6a, 0x3e, 0x37, 0x2e, 0x17, 0xbe, 0x25, 0x65, 0x96, 0x3d,
  0xb8, 0xa3, 0x47, 0xbe, 0xd3, 0xe3, 0x71, 0xbd, 0x98, 0xae, 0xf0, 0xbd,
  0x5a, 0x43, 0xa3, 0x3c, 0x20, 0xdd, 0xdc, 0xbd, 0x5a, 0x8c, 0x57, 0xbd,
  0xf7, 0x16, 0x1d, 0x3e, 0x9c, 0x6c, 0xba, 0x3d, 0xec, 0xad, 0x34, 0xbe,
  0x9e, 0x1a, 0xdd, 0x3d, 0xf5, 0x34, 0xf5, 0xbd, 0xc7, 0xf3, 0x91, 0x3d,
  0xf4, 0xff, 0xb2, 0xbc, 0xc0, 0x63, 0x6a, 0x3e, 0xa1, 0x95, 0x4b, 0xbd,
  0xd6, 0xee, 0x21, 0x3e, 0x78, 0xdf, 0x0c, 0xbe, 0xa8, 0x29, 0x0b, 0xbe,
  0xc0, 0xc2, 0x42, 0xbe, 0x58, 0xda, 0x10, 0xbe, 0xbc, 0xf7, 0x75, 0x3e,
  0x70, 0xf7, 0x1a, 0x3d, 0x78, 0x01, 0xd4, 0x3d, 0x3c, 0x41, 0x15, 0xbe,
  0xc4, 0xab, 0x4c, 0x3e, 0xd0, 0xb7, 0x18, 0x3d, 0x30, 0x76, 0x26, 0x3e,
  0x1c, 0x0c, 0x0c, 0xbe, 0xd0, 0x98, 0x79, 0x3d, 0xa0, 0x97, 0xfd, 0xbc,
  0xe0, 0x6b, 0x48, 0xbe, 0x50, 0xb6, 0x03, 0xbe, 0x54, 0xbc, 0x46, 0x3e,
  0xf0, 0x30, 0x71, 0xbe, 0x60, 0xf8, 0xf7, 0xbd, 0x10, 0x9e, 0xe1, 0x3d,
  0x70, 0x3e, 0x1c, 0xbe, 0xb4, 0x78, 0x7a, 0xbe, 0x9c, 0x73, 0x27, 0x3e,
  0xd0, 0x0e, 0xe7, 0xbd, 0xac, 0xf1, 0x00, 0xbe, 0x88, 0xd4, 0x14, 0x3e,
  0x18, 0xf2, 0xf9, 0xbd, 0xf0, 0x70, 0xb7, 0x3d, 0x1c, 0x2c, 0x4a, 0x3e,
  0x00, 0x40, 0x7e, 0x3d, 0x10, 0x9a, 0x3c, 0xbe, 0x48, 0xba, 0xab, 0x3d,
  0x90, 0x8a, 0x44, 0x3e, 0xf0, 0x70, 0x35, 0xbe, 0xc6, 0x67, 0x29, 0x3e,
  0xbf, 0xd6, 0x9a, 0xbd, 0xb0, 0xd7, 0x04, 0x3e, 0x0c, 0xef, 0x4b, 0x3e,
  0x96, 0xed, 0x03, 0x3d, 0x90, 0x1c, 0x3c, 0x3e, 0xe0, 0x03, 0xcd, 0xbd,
  0xe4, 0xaa, 0x40, 0x3e, 0x64, 0x34, 0x3a, 0x3e, 0x50, 0x74, 0x95, 0x3e,
  0x0c, 0xd5, 0x63, 0xbe, 0x9c, 0xd7, 0x38, 0xbe, 0x5c, 0x05, 0x9f, 0xbd,
  0x25, 0x10, 0x46, 0xbd, 0xc8, 0x2b, 0xc0, 0x3d, 0x77, 0xd7, 0x77, 0x3e,
  0x4c, 0x67, 0x24, 0xbe, 0x8b, 0xe5, 0x57, 0x3c, 0x73, 0xb2, 0x83, 0x3d,
  0xe0, 0x77, 0xee, 0x3d, 0x94, 0x58, 0xbf, 0x3d, 0x84, 0xa7, 0xba, 0xbd,
  0xd8, 0xec, 0x5a, 0xbe, 0x2a, 0xce, 0x00, 0x3e, 0xd5, 0xf5, 0x59, 0x3e,
  0xe5, 0x7c, 0x18, 0x3e, 0x5d, 0x49, 0x2b, 0xbe, 0xe0, 0x8f, 0xea, 0x3d,
  0xbf, 0x95, 0x8b, 0x3e, 0x5b, 0x34, 0x21, 0xbc, 0xe4, 0xf4, 0x01, 0xbe,
  0x50, 0x6a, 0x91, 0xbd, 0x92, 0xbf, 0x46, 0x3e, 0xfa, 0x52, 0xb2, 0x3d,
  0x00, 0x14, 0xd6, 0xbb, 0x00, 0xe8, 0x5c, 0x3c, 0x6b, 0x79, 0x0f, 0xbe,
  0xd0, 0x4c, 0x75, 0x3d, 0x20, 0x23, 0x71, 0x3d, 0x0c, 0x18, 0x70, 0xbe,
  0xe0, 0x5f, 0xde, 0xbd, 0x95, 0x92, 0x2e, 0x3e, 0x30, 0x6c, 0x21, 0x3d,
  0x60, 0xa6, 0xd8, 0x3d, 0x9a, 0x17, 0x2a, 0x3e, 0x71, 0xe1, 0xc0, 0xbd,
  0xa8, 0x39, 0x83, 0x3d, 0x16, 0x41, 0x59, 0x3e, 0xa4, 0xe0, 0x33, 0xbe,
  0xd3, 0x71, 0x6b, 0xbe, 0x4c, 0x30, 0x06, 0xbd, 0x8f, 0x59, 0x3e, 0xbc,
  0xea, 0x66, 0xf1, 0xbd, 0x3c, 0xe9, 0x43, 0xbe, 0xf0, 0x9a, 0xb6, 0xbd,
  0x20, 0xfc, 0x66, 0x3e, 0xc1, 0x74, 0x76, 0xbe, 0x6c, 0x77, 0xbc, 0xbd,
  0x31, 0xe6, 0x99, 0xbd, 0xb4, 0x03, 0x48, 0xbe, 0xd6, 0xa9, 0x71, 0x3e,
  0xc2, 0x8a, 0x53, 0xbe, 0x50, 0x12, 0x48, 0x3e, 0x70, 0xef, 0x5a, 0x3d,
  0xbc, 0xa1, 0x67, 0x3e, 0x39, 0xc8, 0x2d, 0x3e, 0x0c, 0xa2, 0x7a, 0x3e,
  0x60, 0x57, 0x40, 0x3d, 0x7f, 0x12, 0x85, 0xbd, 0xe0, 0x7d, 0xe1, 0x3d,
  0x50, 0x0e, 0x0c, 0xbe, 0xb8, 0xbb, 0xe1, 0x3d, 0x88, 0x29, 0x9a, 0x3d,
  0xc4, 0xa7, 0xec, 0xbd, 0x60, 0xd8, 0xd3, 0xbd, 0x18, 0x09, 0x52, 0xbe,
  0xf8, 0xcc, 0x28, 0x3e, 0x4d, 0x39, 0xef, 0xbd, 0xb4, 0x9a, 0x49, 0xbe,
  0x04, 0x0d, 0xaa, 0x3d, 0x14, 0x6c, 0x6b, 0xbe, 0x2e, 0xdc, 0x5d, 0x3c,
  0x84, 0xea, 0x07, 0x3d, 0x1c, 0x72, 0xd3, 0xbd, 0x71, 0x56, 0x23, 0xbe,
  0xe4, 0xd3, 0x75, 0xbe, 0xc0, 0x53, 0xfa, 0x3c, 0x59, 0x5d, 0x25, 0x3e,
  0x43, 0xe8, 0x3c, 0x3e, 0xa7, 0xdf, 0x28, 0xbe, 0x10, 0xd4, 0x29, 0x3e,
  0x00, 0x37, 0x47, 0xbe, 0xcd, 0xf3, 0x91, 0x3d, 0x75, 0x5f, 0xe7, 0xbc,
  0x30, 0x22, 0x49, 0x3d, 0x18, 0x74, 0x61, 0x3e, 0xe8, 0x0f, 0x75, 0xbe,
  0x3c, 0x27, 0x61, 0xbe, 0xa0, 0x57, 0x96, 0x3d, 0xa0, 0x92, 0x97, 0xbd,
  0x10, 0x60, 0x09, 0x3d, 0xc8, 0x3a, 0xa7, 0xbd, 0x40, 0xad, 0x27, 0x3c,
  0xd0, 0x77, 0x3a, 0x3e, 0x9c, 0xf3, 0x75, 0x3e, 0x00, 0xec, 0x9e, 0xbb,
  0xf8, 0xc5, 0xce, 0xbd, 0x28, 0x54, 0xf8, 0x3d, 0xe8, 0xd8, 0xcc, 0xbd,
  0x00, 0x00, 0x92, 0xb8, 0xe0, 0x26, 0x7a, 0x3d, 0xa0, 0x8a, 0x1c, 0x3e,
  0x80, 0x44, 0x5e, 0x3e, 0x80, 0xe4, 0xde, 0xbd, 0x68, 0xad, 0x6b, 0x3e,
  0xa4, 0x7c, 0x66, 0xbe, 0x30, 0x57, 0x12, 0xbe, 0xe0, 0x47, 0xe6, 0xbd,
  0x60, 0x1e, 0xb6, 0xbc, 0xe8, 0x43, 0xe6, 0x3d, 0xdc, 0x68, 0x35, 0xbe,
  0xb8, 0xe3, 0x18, 0xbe, 0x08, 0xad, 0x7b, 0xbe, 0x48, 0xd5, 0xc7, 0xbd,
  0x50, 0x2c, 0x97, 0x3d, 0xb8, 0x1b, 0xe5, 0x3d, 0xe4, 0xbc, 0x75, 0xbe,
  0xd0, 0xcf, 0x89, 0x3d, 0xd4, 0x47, 0x33, 0x3e, 0xb6, 0x5a, 0x8a, 0xbd,
  0x90, 0xde, 0x4d, 0xbe, 0xa8, 0xa3, 0x46, 0x3e, 0x78, 0x75, 0x24, 0xbe,
  0x54, 0x4c, 0x1f, 0x3e, 0xa4, 0xc5, 0x14, 0xbe, 0x70, 0x55, 0xf5, 0x3d,
  0xe0, 0xc4, 0xf5, 0x3c, 0xdc, 0x4a, 0x09, 0x3e, 0x08, 0xb9, 0x47, 0x3e,
  0x30, 0x3c, 0x61, 0xbe, 0x13, 0x57, 0x70, 0xbe, 0x77, 0xa7, 0x3e, 0x3e,
  0xa0, 0x8a, 0x6c, 0x3d, 0x8c, 0x4e, 0x34, 0xbe, 0x48, 0x7e, 0xd6, 0xbd,
  0x1c, 0x60, 0x87, 0x3d, 0x71, 0x1e, 0x97, 0x3c, 0x98, 0xaf, 0x27, 0xbd,
  0x40, 0xd0, 0x67, 0xbe, 0xc6, 0x6a, 0x04, 0x3e, 0x0c, 0x08, 0x34, 0x3e,
  0x9d, 0x77, 0x1d, 0x3e, 0x31, 0x53, 0x97, 0x3d, 0x61, 0x0e, 0x63, 0xbe,
  0x2e, 0x40, 0x8a, 0xbd, 0x00, 0x80, 0x9b, 0x38, 0xc8, 0x72, 0xd5, 0x3d,
  0xe8, 0x19, 0x3c, 0xbe, 0x6c, 0x35, 0x32, 0xbe, 0x40, 0xca, 0x97, 0xbc,
  0xa1, 0x83, 0x58, 0xbd, 0x9d, 0x82, 0x2b, 0xbe, 0x80, 0xf3, 0x4f, 0x3e,
  0x40, 0xab, 0xa2, 0x3d, 0xc6, 0x45, 0x33, 0x3e, 0x70, 0x3e, 0xe6, 0x3d,
  0x00, 0xdc, 0xa1, 0xbb, 0x00, 0x38, 0x2e, 0xbd, 0xd8, 0xfd, 0x0e, 0xbe,
  0x78, 0xab, 0x90, 0x3e, 0x00, 0xbc, 0xbe, 0xbb, 0x2c, 0xfb, 0x10, 0x3e,
  0x97, 0xeb, 0xa0, 0xbd, 0x6f, 0xe9, 0x64, 0xbe, 0x98, 0xda, 0x24, 0x3e,
  0x62, 0xb0, 0x91, 0x3d, 0x80, 0x49, 0x57, 0xbe, 0xc8, 0x41, 0x72, 0x3d,
  0x41, 0xd7, 0xca, 0xbd, 0x8d, 0x8c, 0x07, 0x3e, 0x2c, 0x06, 0x06, 0x3e,
  0x10, 0x98, 0x1d, 0xbe, 0x40, 0x32, 0x68, 0xbc, 0x6f, 0x1f, 0x4c, 0xbc,
  0x96, 0xf3, 0xc2, 0xbd, 0xe6, 0x65, 0x61, 0x3e, 0xfc, 0xeb, 0x9b, 0x3d,
  0xf0, 0xbd, 0xf1, 0xbd, 0x00, 0xd6, 0x11, 0x3e, 0x1a, 0x0f, 0xb5, 0xbd,
  0x50, 0x76, 0x75, 0xbd, 0x80, 0xac, 0xce, 0xbc, 0x58, 0x81, 0xaf, 0x3d,
  0x9a, 0x5e, 0x24, 0x3d, 0xfc, 0xd9, 0x74, 0x3e, 0xb4, 0xb3, 0x6c, 0xbe,
  0xe0, 0xa4, 0x23, 0x3e, 0x40, 0x87, 0x23, 0x3e, 0x58, 0x61, 0xfa, 0x3d,
  0x40, 0x65, 0x8a, 0x3c, 0x68, 0xf2, 0x93, 0x3d, 0x4e, 0xa2, 0x06, 0x3e,
  0x60, 0xa7, 0x80, 0xbc, 0x38, 0x6f, 0xc7, 0xbd, 0xa9, 0xbb, 0x4f, 0x3e,
  0x8a, 0xab, 0x11, 0x3c, 0xe0, 0x7f, 0xf6, 0x3c, 0x47, 0xb7, 0xa1, 0xbd,
  0x18, 0x15, 0xab, 0x3d, 0x6c, 0x08, 0x36, 0xbe, 0xcc, 0x3e, 0x0e, 0xbd,
  0x47, 0x4d, 0x76, 0xbe, 0x05, 0x8f, 0x9f, 0x3d, 0x11, 0xf4, 0x31, 0xbe,
  0x5c, 0xc8, 0x32, 0xbe, 0x2f, 0xc0, 0x69, 0x3e, 0x00, 0x0b, 0x53, 0xbd,
  0x55, 0x4c, 0x54, 0x3d, 0x1c, 0xef, 0x82, 0x3e, 0x08, 0x04, 0x9e, 0xbd,
  0x42, 0xa5, 0xc0, 0xbd, 0xe6, 0x48, 0x58, 0xbe, 0x18, 0xc6, 0x9f, 0xbd,
  0x50, 0x72, 0xae, 0xbd, 0x3e, 0x79, 0x77, 0x3e, 0xa9, 0x4b, 0x47, 0x3d,
  0x40, 0x5a, 0x7a, 0x3d, 0x00, 0x18, 0x7b, 0xbe, 0x63, 0x65, 0x79, 0x3e,
  0x50, 0xc4, 0x62, 0xbe, 0xe0, 0x05, 0xd3, 0x3d, 0x10, 0xba, 0xd9, 0x3d,
  0xc0, 0x28, 0x46, 0x3c, 0x24, 0xf6, 0x07, 0x3e, 0xec, 0x97, 0x34, 0x3e,
  0x70, 0xd8, 0x05, 0xbd, 0xf1, 0x14, 0x48, 0x3e, 0x50, 0x1f, 0xc9, 0xbd,
  0xec, 0xde, 0x07, 0x3e, 0x25, 0x74, 0x72, 0x3e, 0xd8, 0xed, 0x0c, 0x3e,
  0xa6, 0x50, 0x2d, 0xbe, 0x7b, 0xb6, 0xce, 0x3d, 0xac, 0x6c, 0xae, 0x3d,
  0x05, 0x9e, 0x0a, 0xbe, 0x7e, 0x38, 0x76, 0x3e, 0x3c, 0xbe, 0x5e, 0xbe,
  0x1d, 0x21, 0xb5, 0x3c, 0xf6, 0x5a, 0x93, 0xbd, 0x8a, 0x52, 0xf0, 0xbc,
  0x3a, 0x31, 0x22, 0x3e, 0x54, 0x9a, 0x60, 0xbe, 0xcf, 0xc5, 0x49, 0x3e,
  0x26, 0x16, 0x72, 0x3e, 0xb0, 0x03, 0xe6, 0xbd, 0x78, 0x48, 0x2f, 0x3e,
  0x40, 0x13, 0xfd, 0x3d, 0xca, 0x04, 0x48, 0x3d, 0xa0, 0xf3, 0xc0, 0xbc,
  0x00, 0xfa, 0x1f, 0x3b, 0xdf, 0xc3, 0x0d, 0x3e, 0xc8, 0x6a, 0x6a, 0x3e,
  0x50, 0xd2, 0x43, 0xbd, 0x30, 0xf9, 0xfd, 0xbd, 0xd0, 0x05, 0x5e, 0x3e,
  0xbb, 0x67, 0x26, 0x3d, 0xf0, 0x04, 0x00, 0x3e, 0x0c, 0x7b, 0x1e, 0x3e,
  0x8f, 0xd7, 0x44, 0xbe, 0xec, 0x9e, 0xe3, 0x3d, 0x80, 0xee, 0xe2, 0x3b,
  0xb3, 0x25, 0x27, 0xbe, 0x3c, 0xa9, 0x6a, 0xbe, 0x6b, 0x54, 0x2d, 0x3e,
  0x73, 0xb3, 0x86, 0x3e, 0x83, 0xdf, 0xa1, 0x3d, 0xdc, 0xb4, 0xd7, 0xbd,
  0xee, 0xb6, 0xdd, 0xbd, 0x20, 0x63, 0xaa, 0x3d, 0xab, 0xd6, 0x6f, 0x3e,
  0xe2, 0x0e, 0x19, 0x3c, 0x2f, 0x48, 0x1b, 0x3d, 0xc8, 0xa8, 0x32, 0xbc,
  0x10, 0xe7, 0xe4, 0xbd, 0x4e, 0x42, 0x0b, 0x3e, 0xbc, 0xb0, 0xe1, 0x3a,
  0x40, 0x5e, 0x30, 0xbe, 0x58, 0xd4, 0x0f, 0x3e, 0x1b, 0xcf, 0x20, 0x3d,
  0x9b, 0xf0, 0xd3, 0x3d, 0x78, 0xc3, 0x79, 0x3e, 0xf0, 0xb8, 0x51, 0x3e,
  0x87, 0x55, 0x04, 0xbd, 0xc0, 0xeb, 0x2b, 0x3e, 0xfc, 0x40, 0x2d, 0xbe,
  0xe0, 0x24, 0xa7, 0x3d, 0x80, 0xd0, 0xc5, 0xbc, 0x25, 0xcc, 0x40, 0xbe,
  0x0c, 0xad, 0x49, 0xbe, 0x9c, 0x9f, 0x2c, 0x3e, 0x52, 0xb8, 0x97, 0xbb,
  0x45, 0xaf, 0x74, 0xbe, 0x14, 0xc3, 0x55, 0x3e, 0xc3, 0x17, 0x87, 0x3d,
  0x54, 0x7d, 0x07, 0x3e, 0xe5, 0x9a, 0xcb, 0x3b, 0xfd, 0x74, 0x88, 0xbd,
  0x22, 0x45, 0xdf, 0x3d, 0x7c, 0x23, 0xa5, 0xbd, 0xe0, 0x9c, 0x3c, 0x3e,
  0x40, 0xe0, 0xea, 0xbd, 0xe8, 0x8e, 0x85, 0x3d, 0x1d, 0xcd, 0x00, 0x3e,
  0xce, 0xff, 0x3d, 0xbd, 0x59, 0x69, 0x35, 0xbd, 0x08, 0x68, 0x1a, 0x3e,
  0x86, 0x8a, 0xaf, 0x3c, 0x61, 0xd5, 0x69, 0x3e, 0x90, 0x96, 0x10, 0xbd,
  0xe4, 0x06, 0x73, 0x3e, 0x33, 0x2f, 0xb4, 0xbc, 0x94, 0x36, 0xbd, 0xbd,
  0x00, 0x92, 0xca, 0x3a, 0x40, 0x76, 0x56, 0xbe, 0x51, 0xb3, 0x05, 0x3e,
  0xb8, 0x27, 0x03, 0x3e, 0x40, 0x1a, 0x26, 0xbe, 0xbc, 0x4e, 0x1a, 0x3e,
  0xd0, 0x47, 0x37, 0x3e, 0x6f, 0x20, 0x2f, 0x3e, 0x60, 0x86, 0xae, 0x3d,
  0x40, 0x75, 0xbe, 0x3d, 0xec, 0x64, 0x05, 0x3e, 0x74, 0xe2, 0x20, 0x3e,
  0xd0, 0x96, 0x43, 0xbd, 0x01, 0x0c, 0x39, 0xbe, 0xbc, 0x97, 0x6f, 0xbe,
  0xce, 0xa9, 0x18, 0x3d, 0xc9, 0xd8, 0xd3, 0xba, 0xa6, 0x9a, 0xc5, 0x3c,
  0x7e, 0x4d, 0x63, 0x3d, 0x8a, 0xfa, 0x57, 0xbe, 0x68, 0xa6, 0x6c, 0xbe,
  0xfc, 0x9b, 0xd1, 0x3d, 0xf8, 0x4d, 0xa1, 0x38, 0x77, 0x72, 0x96, 0xbd,
  0xd0, 0xb8, 0xed, 0xbb, 0xf4, 0xb0, 0x66, 0xbe, 0xd6, 0x78, 0xde, 0xbd,
  0x75, 0xf8, 0x2c, 0xbe, 0xb0, 0x76, 0x99, 0x3d, 0xd8, 0x64, 0xb1, 0x3d,
  0x46, 0x43, 0x00, 0x3e, 0x25, 0xbe, 0xbe, 0xbd, 0xd8, 0x79, 0x2b, 0xbe,
  0xd0, 0x9c, 0xa8, 0xbd, 0xff, 0x9e, 0x08, 0x3e, 0x7c, 0x86, 0x39, 0xbe,
  0x58, 0xa2, 0x6d, 0x3e, 0x68, 0xdc, 0xd8, 0xbd, 0xbc, 0x55, 0x48, 0xbe,
  0x06, 0xdc, 0x13, 0xbd, 0xc0, 0x03, 0x7d, 0x3e, 0x98, 0xc4, 0x28, 0x3e,
  0xde, 0x80, 0x54, 0x3e, 0x0c, 0x1f, 0x17, 0xbd, 0x04, 0xea, 0x17, 0x3e,
  0x89, 0x20, 0x2d, 0x3e, 0xd8, 0xd6, 0x50, 0x3e, 0x4d, 0x9b, 0x18, 0x3e,
  0xf0, 0x60, 0x00, 0x3e, 0xb3, 0xd5, 0x62, 0xbe, 0x88, 0xd9, 0x48, 0xbe,
  0xd5, 0x34, 0x27, 0x3d, 0x80, 0x1d, 0xcd, 0x3d, 0x71, 0xbe, 0x15, 0xbe,
  0x2a, 0xc6, 0xd7, 0xbd, 0x20, 0xbd, 0x5a, 0x3e, 0x73, 0x14, 0xe2, 0x3d,
  0x00, 0x9f, 0x40, 0xbe, 0xad, 0x0b, 0x8a, 0x3d, 0xea, 0x67, 0x3c, 0xbe,
  0xd8, 0xb4, 0x54, 0x3e, 0x3c, 0x7c, 0x5c, 0xbe, 0x1e, 0x57, 0x21, 0x3e,
  0xd5, 0xb1, 0x08, 0x3e, 0xe0, 0xdb, 0xca, 0xbd, 0xf8, 0xc6, 0xdd, 0x3d,
  0xba, 0x9a, 0xda, 0x3d, 0xa0, 0xbd, 0x2c, 0x3d, 0xe4, 0x67, 0x1a, 0x3e,
  0x00, 0x10, 0x0b, 0xba, 0x0c, 0x38, 0x27, 0xbe, 0x4f, 0xf3, 0xe2, 0xbd,
  0x00, 0x8a, 0x34, 0xbc, 0x44, 0xe7, 0x72, 0xbe, 0x4e, 0x54, 0xa6, 0xbc,
  0x25, 0x08, 0x95, 0xbd, 0x9c, 0x08, 0x73, 0xbe, 0xfd, 0x72, 0xa4, 0x3e,
  0x20, 0x82, 0xbb, 0xbc, 0x90, 0xaa, 0x50, 0xbe, 0xda, 0xd4, 0xc8, 0x3c,
  0xbb, 0xe3, 0xa9, 0x3c, 0x92, 0xd5, 0x51, 0xbd, 0x56, 0x67, 0x6b, 0x3d,
  0x3c, 0xa5, 0x3a, 0x3e, 0x83, 0x35, 0x84, 0xbc, 0x59, 0xb6, 0xde, 0x3d,
  0xe7, 0xd9, 0x33, 0xbe, 0x19, 0x57, 0x94, 0x3e, 0x98, 0x70, 0x17, 0xbe,
  0x06, 0xc1, 0x59, 0x3e, 0x4f, 0x72, 0x0e, 0x3e, 0x44, 0xc5, 0x08, 0x3e,
  0x20, 0x03, 0x52, 0xbd, 0x88, 0x1e, 0x79, 0xbe, 0x98, 0xed, 0xe8, 0x3d,
  0x18, 0x6c, 0x8f, 0xbd, 0x50, 0xa9, 0x50, 0xbe, 0x28, 0x94, 0xd9, 0xbd,
  0xb0, 0x09, 0x45, 0xbd, 0x70, 0x21, 0x25, 0xbe, 0x20, 0x99, 0x87, 0xbc,
  0x00, 0x40, 0x5d, 0x3d, 0xc8, 0x09, 0x34, 0x3e, 0xa4, 0x0d, 0x52, 0x3e,
  0xc0, 0xa7, 0xaf, 0xbd, 0xa0, 0xa5, 0x60, 0xbd, 0xc0, 0xec, 0x78, 0xbe,
  0x64, 0x36, 0x37, 0x3e, 0x14, 0x59, 0x46, 0x3e, 0x80, 0xf8, 0x82, 0x3d,
  0x1c, 0xa7, 0x37, 0xbe, 0x80, 0xc7, 0x03, 0xbe, 0xec, 0xa4, 0x18, 0x3e,
  0x64, 0x2d, 0x6e, 0xbe, 0xd0, 0xfb, 0x66, 0x3e, 0xd8, 0x62, 0x45, 0xbe,
  0x84, 0x88, 0x5e, 0xbe, 0x00, 0x43, 0xc6, 0xbd, 0x38, 0xd5, 0x58, 0x3e,
  0xc0, 0x95, 0x46, 0x3d, 0x10, 0xb9, 0x79, 0x3e, 0xc0, 0x36, 0x07, 0x3d,
  0x3c, 0xd9, 0x18, 0xbe, 0x7c, 0x3a, 0x7c, 0xbe, 0x70, 0x2e, 0x7e, 0x3d,
  0x44, 0xd2, 0x6c, 0xbe, 0x20, 0x8b, 0x06, 0x3d, 0x00, 0x90, 0x2d, 0x39,
  0x40, 0xed, 0x05, 0x3d, 0x80, 0x36, 0x10, 0xbe, 0xbc, 0x9f, 0x7b, 0x3e,
  0x40, 0x68, 0xa0, 0xbc, 0x48, 0x97, 0xcd, 0x3d, 0xac, 0x70, 0x75, 0x3e,
  0x1c, 0x55, 0x4e, 0xbe, 0x80, 0xbb, 0x18, 0x3c, 0xa0, 0xc2, 0x51, 0xbd,
  0x94, 0x3a, 0x13, 0x3e, 0x5c, 0xf6, 0x06, 0xbe, 0x90, 0xb2, 0xc4, 0x3d,
  0x40, 0x01, 0x55, 0x3d, 0xf8, 0x62, 0x67, 0xbe, 0xfc, 0x50, 0x0e, 0xbe,
  0xd4, 0x70, 0x49, 0xbe, 0x60, 0x10, 0x9e, 0xbc, 0x20, 0x0c, 0xb4, 0x3d,
  0xa8, 0xcf, 0x5b, 0xbe, 0x00, 0xc1, 0xdf, 0xbd, 0x48, 0x6d, 0x55, 0x3e,
  0xb0, 0x6c, 0xd1, 0x3d, 0xb8, 0xb1, 0xf9, 0xbd, 0x28, 0x99, 0x79, 0x3e,
  0x40, 0xde, 0x28, 0xbd, 0xa0, 0xee, 0x01, 0xbe, 0xa0, 0xda, 0x39, 0x3d,
  0x14, 0x79, 0x3c, 0xbe, 0x40, 0xf7, 0x02, 0x3e, 0xe8, 0xe0, 0x88, 0xbe,
  0xe5, 0xb4, 0x0f, 0x3d, 0x00, 0x30, 0x12, 0x39, 0x78, 0x93, 0x52, 0xbe,
  0x41, 0x0f, 0x81, 0xbe, 0xf8, 0xa8, 0xc4, 0x3d, 0xc0, 0xf2, 0x66, 0x3e,
  0x24, 0x9b, 0x5c, 0x3e, 0x98, 0x36, 0xbb, 0xbd, 0xcb, 0x57, 0x0c, 0x3e,
  0x48, 0xce, 0xff, 0xbd, 0x58, 0x51, 0x8c, 0xbd, 0x2f, 0x84, 0x33, 0xbd,
  0x26, 0xf3, 0xb9, 0x3c, 0xbc, 0x87, 0x70, 0x3e, 0xb8, 0xdc, 0x7f, 0x3e,
  0x28, 0x3d, 0xc6, 0xbd, 0x21, 0xa2, 0x9c, 0x3d, 0xdf, 0x6c, 0xbd, 0xbd,
  0xa0, 0x82, 0xff, 0xbc, 0xce, 0x41, 0x38, 0xbd, 0x2b, 0x0d, 0xc0, 0xbd,
  0xb4, 0xd6, 0x31, 0x3e, 0x3b, 0x5f, 0x18, 0xbe, 0xde, 0x8d, 0x19, 0xbd,
  0xfc, 0x3c, 0x80, 0xbe, 0x5f, 0xe2, 0x72, 0xbd, 0x48, 0xdf, 0x15, 0x3e,
  0xaf, 0x12, 0xc7, 0xbd, 0x8f, 0xa9, 0x80, 0xbe, 0x60, 0xb6, 0xc0, 0x3c,
  0x20, 0x6c, 0xfe, 0xbc, 0x78, 0xae, 0xc2, 0xbd, 0x18, 0x74, 0xa5, 0x3d,
  0x10, 0xac, 0xf6, 0xbd, 0xf0, 0x16, 0x8e, 0x3d, 0xb8, 0x93, 0x0a, 0x3e,
  0x20, 0x7e, 0x5d, 0xbd, 0xd4, 0x56, 0x19, 0x3e, 0x1c, 0x42, 0x08, 0xbe,
  0x40, 0x53, 0x04, 0x3c, 0x14, 0xff, 0x48, 0xbe, 0xb8, 0xe1, 0xe8, 0x3d,
  0x64, 0x75, 0x7e, 0xbe, 0x00, 0x44, 0x7e, 0x3c, 0x88, 0xf6, 0x75, 0xbe,
  0xe0, 0x9a, 0x7f, 0x3d, 0x1c, 0xbd, 0x06, 0x3e, 0xc0, 0x1c, 0x5b, 0xbc,
  0xe0, 0x27, 0x8d, 0xbd, 0x80, 0xc4, 0x0b, 0xbe, 0xc0, 0x39, 0x32, 0xbe,
  0xb4, 0xb1, 0x7b, 0xbe, 0x80, 0x59, 0x00, 0x3d, 0x20, 0x44, 0xa9, 0xbc,
  0x10, 0x31, 0x1d, 0xbe, 0x3c, 0xfb, 0x4f, 0xbe, 0x80, 0xdc, 0xa3, 0xbd,
  0x34, 0x9c, 0x1d, 0xbe, 0x10, 0x8a, 0xec, 0xbd, 0x58, 0xe1, 0x62, 0xbe,
  0xc0, 0xd6, 0x65, 0xbd, 0xbc, 0xcb, 0x6a, 0xbe, 0xd0, 0xa1, 0x6b, 0x3d,
  0x88, 0x34, 0x3e, 0x3d, 0x6f, 0xe9, 0x63, 0x3e, 0x54, 0x55, 0x53, 0x3e,
  0x50, 0x58, 0x8a, 0xbd, 0x72, 0x69, 0xa1, 0x3d, 0x60, 0x88, 0xd3, 0xbc,
  0xd0, 0xed, 0xd9, 0xbd, 0x0c, 0xf4, 0x0b, 0xbe, 0xf8, 0x9a, 0xa4, 0x3d,
  0xb1, 0xbc, 0x76, 0xbe, 0x50, 0xa5, 0xe4, 0x3d, 0x68, 0x3d, 0x9c, 0xbd,
  0xbd, 0x85, 0x16, 0xbe, 0xfa, 0x53, 0xe5, 0x3d, 0xec, 0xf0, 0x06, 0x3e,
  0xe7, 0x08, 0x75, 0xbb, 0x70, 0x94, 0xf2, 0x3d, 0x4a, 0x01, 0x14, 0xbe,
  0x04, 0x61, 0xdf, 0x3c, 0x5f, 0xbd, 0xaa, 0x3d, 0xee, 0x91, 0x1a, 0xbe,
  0x80, 0xe8, 0x8b, 0x3d, 0x30, 0xef, 0x4a, 0xbd, 0xd4, 0xc9, 0xe9, 0xbd,
  0x19, 0x54, 0xa9, 0xbd, 0x45, 0x42, 0xf9, 0x3d, 0xf0, 0x4b, 0x0c, 0xbe,
  0xc8, 0x8f, 0x55, 0x3e, 0x71, 0xa5, 0xcc, 0x3b, 0x52, 0xde, 0x4a, 0x3d,
  0x20, 0x55, 0xc4, 0xbd, 0xf8, 0xb7, 0x5d, 0xbe, 0x49, 0x97, 0x09, 0x3e,
  0xed, 0x3a, 0x08, 0x3e, 0x88, 0x56, 0x1f, 0xbe, 0xb8, 0x90, 0xfa, 0xbd,
  0xe8, 0xf9, 0x6c, 0x3d, 0x40, 0x6c, 0xe8, 0xbc, 0xcc, 0xde, 0x25, 0xbe,
  0xb8, 0x2c, 0xad, 0xbd, 0xd0, 0x54, 0x23, 0xbe, 0x6b, 0xc1, 0xc7, 0xbd,
  0x48, 0x5b, 0xe1, 0x3d, 0x04, 0x6b, 0x13, 0xbe, 0xac, 0xb8, 0x84, 0xbe,
  0x65, 0x8f, 0xac, 0xbd, 0x60, 0x7e, 0x81, 0xbc, 0x02, 0xb8, 0x00, 0x3e,
  0x50, 0x6a, 0xea, 0x3d, 0x0e, 0x7f, 0x5e, 0xbd, 0xd4, 0x7c, 0x56, 0x3e,
  0x9e, 0x8b, 0xf5, 0x3d, 0x48, 0x1c, 0x3b, 0x3e, 0x92, 0xca, 0x87, 0x3d,
  0x20, 0x22, 0xf3, 0x3c, 0x4f, 0xbf, 0x77, 0xbe, 0xa2, 0x6d, 0x71, 0x3e,
  0x0a, 0x39, 0x7e, 0x3c, 0xf3, 0x66, 0x9d, 0x3d, 0x88, 0x3b, 0x08, 0xbe,
  0x02, 0x53, 0x5d, 0xbe, 0x5f, 0xe3, 0x11, 0x3e, 0x50, 0xb5, 0x66, 0x3e,
  0xc0, 0x49, 0xa2, 0x3c, 0x70, 0x6d, 0x83, 0xbe, 0x5e, 0x5a, 0x40, 0xbe,
  0x90, 0xc6, 0x14, 0x3d, 0xa0, 0x32, 0xd2, 0x3d, 0xd3, 0x0b, 0x93, 0xbd,
  0x28, 0xca, 0xab, 0xbd, 0x28, 0x5e, 0xa3, 0x3d, 0x74, 0x03, 0x7b, 0xbe,
  0xe4, 0x14, 0x19, 0x3e, 0x45, 0xb8, 0xc8, 0xbd, 0x20, 0x53, 0x53, 0x3e,
  0x00, 0xb4, 0x90, 0xba, 0x1a, 0x1b, 0xcc, 0x3d, 0x1e, 0x09, 0x1b, 0x3d,
  0x60, 0xf9, 0xa8, 0xbc, 0x2c, 0x48, 0x37, 0x3b, 0x98, 0x2e, 0xaa, 0x3d,
  0xa3, 0x86, 0x6d, 0xbe, 0xea, 0xd9, 0x5c, 0x3e, 0xe0, 0xff, 0xa1, 0xbe,
  0x0d, 0x7d, 0x28, 0x3e, 0x87, 0xf3, 0x76, 0xbd, 0x00, 0x35, 0xe3, 0x3d,
  0x49, 0x04, 0xc9, 0xbc, 0x43, 0x23, 0x55, 0x3d, 0x19, 0xbd, 0xfa, 0x3c,
  0x9d, 0x81, 0xed, 0x3d, 0x48, 0xfe, 0x2f, 0xbe, 0xa1, 0xac, 0xe7, 0x3d,
  0xcb, 0x61, 0x8e, 0xbe, 0xe4, 0x7d, 0x29, 0x3e, 0x00, 0xbc, 0x88, 0x3b,
  0x40, 0xdf, 0x20, 0xbc, 0x98, 0x55, 0x8e, 0xbd, 0xc0, 0xd7, 0xac, 0xbd,
  0x50, 0x79, 0x55, 0xbe, 0x20, 0xe9, 0x9a, 0xbd, 0xa0, 0x76, 0xca, 0x3d,
  0x94, 0x83, 0x4e, 0xbe, 0x10, 0xfc, 0x06, 0x3e, 0xd4, 0x9f, 0x10, 0xbe,
  0x90, 0x7e, 0xb6, 0xbd, 0xb0, 0x7c, 0x6c, 0x3d, 0x68, 0x2c, 0xcf, 0x3d,
  0x10, 0x65, 0x32, 0x3d, 0x88, 0xd5, 0xff, 0x3d, 0x80, 0xf8, 0x14, 0xbe,
  0x80, 0xb8, 0xf7, 0xbd, 0x94, 0x60, 0x31, 0xbe, 0x70, 0x2d, 0x31, 0xbd,
  0xc8, 0x25, 0x76, 0xbe, 0x60, 0x72, 0xe4, 0xbd, 0xc0, 0x47, 0x8b, 0xbc,
  0x80, 0x7c, 0xed, 0xbc, 0x90, 0xd4, 0xe0, 0xbd, 0xbc, 0xf0, 0x65, 0xbe,
  0x70, 0x0d, 0xe1, 0xbd, 0x18, 0x9b, 0xd2, 0x3d, 0x64, 0x6e, 0x0c, 0xbe,
  0xec, 0x57, 0x2a, 0x3e, 0x70, 0x88, 0x1e, 0xbd, 0xc0, 0x2a, 0x4d, 0x3d,
  0x38, 0x7c, 0xad, 0x3d, 0x64, 0x3a, 0x38, 0x3e, 0x9e, 0xec, 0x04, 0x3e,
  0xef, 0xcc, 0x67, 0xbc, 0x68, 0xbb, 0x92, 0xbd, 0x50, 0x68, 0x39, 0x3d,
  0x2d, 0x86, 0x39, 0x3e, 0xc4, 0xf2, 0x78, 0x3e, 0xb0, 0xe7, 0xff, 0xbd,
  0x7c, 0x48, 0x56, 0x3e, 0xe8, 0xa4, 0xd6, 0xbd, 0x7c, 0x57, 0x30, 0xbd,
  0xac, 0xa1, 0x77, 0xbe, 0x80, 0xe1, 0x2c, 0xbd, 0x17, 0xa2, 0x3e, 0xbe,
  0xc6, 0x49, 0xbc, 0xbd, 0xb0, 0xf9, 0x52, 0x3e, 0xe5, 0xb1, 0xad, 0xbd,
  0xb0, 0x40, 0xd2, 0xbd, 0xc6, 0x0d, 0x6d, 0x3e, 0x12, 0x9a, 0x1d, 0x3e,
  0x9e, 0xbc, 0x4b, 0x3e, 0x7b, 0x30, 0x54, 0x3e, 0xd6, 0xde, 0x11, 0xbc,
  0x54, 0x18, 0x3d, 0xbe, 0xf0, 0x65, 0x89, 0xbe, 0xcb, 0x1a, 0x85, 0xbe,
  0x8c, 0xda, 0x32, 0x3e, 0x1c, 0x54, 0x65, 0xbd, 0x80, 0x0a, 0xf6, 0xbd,
  0xb9, 0xe7, 0x62, 0xbb, 0x82, 0x44, 0x36, 0xbe, 0xd0, 0xac, 0xf9, 0x3d,
  0xf0, 0xb8, 0x56, 0x3e, 0x70, 0x2b, 0x03, 0x3e, 0x37, 0xae, 0xaa, 0x3d,
  0x50, 0x32, 0x68, 0xbd, 0x70, 0x0d, 0x13, 0xbe, 0xe0, 0xa6, 0x13, 0x3e,
  0x2c, 0x2e, 0x71, 0xbe, 0x00, 0x41, 0x79, 0x3c, 0x40, 0xf0, 0xa5, 0x3d,
  0x00, 0x78, 0x9f, 0xbb, 0x58, 0x6f, 0x8e, 0xbe, 0x94, 0xba, 0x09, 0x3e,
  0x88, 0x0d, 0x54, 0xbe, 0x04, 0x42, 0x44, 0xbe, 0xeb, 0x71, 0x3c, 0x3d,
  0x38, 0x82, 0x5e, 0x3e, 0x6c, 0x70, 0x43, 0xbe, 0x28, 0x67, 0x65, 0xbe,
  0x9b, 0x3c, 0x7a, 0xbe, 0x1d, 0xc6, 0x2c, 0xbe, 0x60, 0x8b, 0x19, 0x3e,
  0x48, 0x75, 0x0e, 0xbb, 0xf2, 0xef, 0x36, 0xbe, 0x24, 0x00, 0x1c, 0xbe,
  0x65, 0x5c, 0x40, 0xbd, 0x17, 0x8c, 0x94, 0x3d, 0x33, 0xdb, 0x96, 0x3d,
  0xa1, 0x82, 0x6e, 0xbe, 0xb8, 0x97, 0xf2, 0x3d, 0xf3, 0xef, 0x85, 0xbe,
  0x7a, 0x1e, 0x15, 0x3e, 0x10, 0x80, 0x0f, 0xbd, 0xb0, 0x1c, 0xe0, 0x3d,
  0x6e, 0x58, 0x8a, 0x3d, 0xbf, 0x3e, 0x3e, 0x3e, 0x38, 0x7b, 0x25, 0xbe,
  0xb4, 0xc3, 0x01, 0x3e, 0x69, 0x39, 0x9a, 0xbd, 0xe0, 0xc5, 0x0b, 0xbe,
  0xb8, 0x77, 0x0a, 0x3e, 0x00, 0x58, 0x5e, 0x3b, 0x08, 0x99, 0x67, 0x3e,
  0x0a, 0x0c, 0x51, 0x3e, 0x5c, 0xb4, 0x31, 0x3e, 0xa8, 0x2d, 0x62, 0x3e,
  0x5b, 0x05, 0x05, 0xbe, 0x44, 0xfc, 0x36, 0x3e, 0x30, 0x44, 0x4b, 0xbe,
  0x6c, 0x84, 0x1e, 0x3d, 0x24, 0xdb, 0x7f, 0x3e, 0x77, 0x20, 0x77, 0xbe,
  0xff, 0xcc, 0x80, 0x3d, 0x24, 0x7f, 0x00, 0xbd, 0x25, 0xed, 0xa1, 0xbd,
  0xa6, 0x0b, 0x80, 0x3e, 0x1c, 0xcc, 0x44, 0xbe, 0xe1, 0x1b, 0x79, 0x3d,
  0x6c, 0x7a, 0x0c, 0x3d, 0x86, 0xf2, 0xa1, 0x3d, 0x9a, 0x25, 0xfe, 0xbd,
  0x90, 0xa0, 0xc6, 0x3d, 0x68, 0x02, 0x09, 0xbe, 0xab, 0x1d, 0x5c, 0xbd,
  0xbc, 0xbc, 0x0a, 0x3e, 0xbc, 0x84, 0x67, 0x3e, 0x50, 0x3c, 0x30, 0x3e,
  0x2c, 0x78, 0x25, 0x3e, 0x34, 0xda, 0x46, 0x3e, 0xa0, 0x42, 0x40, 0x3e,
  0x40, 0x41, 0xb2, 0xbd, 0x40, 0x73, 0xd8, 0x3d, 0x0c, 0xef, 0x32, 0xbe,
  0x78, 0xb4, 0x78, 0xbe, 0xdc, 0x84, 0x4d, 0xbe, 0x3c, 0x2d, 0x01, 0xbe,
  0x1c, 0x0a, 0x50, 0x3e, 0x98, 0x40, 0xde, 0xbd, 0x20, 0x85, 0xb7, 0xbd,
  0x5c, 0x6a, 0x65, 0xbe, 0xa0, 0x9c, 0x41, 0xbd, 0xa0, 0x39, 0xe6, 0x3c,
  0xa0, 0xea, 0xbb, 0x3c, 0x10, 0x16, 0x99, 0x3d, 0x88, 0x25, 0x7e, 0x3e,
  0x54, 0x89, 0x3f, 0xbe, 0x28, 0x0c, 0x8a, 0xbd, 0x28, 0x61, 0x27, 0xbe,
  0x88, 0xfc, 0xd2, 0xbd, 0x68, 0xb1, 0x31, 0xbe, 0x80, 0xcd, 0x7c, 0x3d,
  0xf8, 0x46, 0xfe, 0xbd, 0xb4, 0x2a, 0x0f, 0xbe, 0x58, 0xeb, 0x62, 0x3e,
  0x18, 0xb8, 0x8c, 0x3d, 0xa4, 0x4c, 0x36, 0x3e, 0x10, 0xee, 0xdc, 0xbd,
  0x40, 0xea, 0x84, 0x3c, 0x7b, 0xf8, 0x3b, 0xbd, 0x68, 0x23, 0x83, 0xbe,
  0xe4, 0x22, 0x18, 0x3e, 0x64, 0x8f, 0x78, 0xbe, 0x51, 0xfd, 0x08, 0xbd,
  0x9c, 0x42, 0x2c, 0xbe, 0xac, 0x60, 0x79, 0x3e, 0x6c, 0x05, 0x0e, 0xbe,
  0xe8, 0x3e, 0x10, 0xbe, 0xda, 0x08, 0x8c, 0xbd, 0x08, 0xb3, 0x7a, 0xbe,
  0x00, 0x71, 0xdc, 0x3d, 0xc1, 0x62, 0x6f, 0xbd, 0x2a, 0xb7, 0x16, 0x3e,
  0xc0, 0x84, 0xe9, 0xbd, 0x34, 0xa7, 0x0c, 0xbe, 0x30, 0x6d, 0x18, 0x3d,
  0xf7, 0x7e, 0x28, 0xbe, 0x17, 0xd1, 0x15, 0xbc, 0x17, 0x6b, 0x6a, 0xbe,
  0xbf, 0x8f, 0xf0, 0xbc, 0x0d, 0xa5, 0x7b, 0x3e, 0x28, 0x5a, 0x0a, 0xbe,
  0x35, 0x64, 0xc8, 0xbb, 0xfd, 0xbe, 0xdc, 0x3d, 0x83, 0xbb, 0xe5, 0xbd,
  0x93, 0x3f, 0x23, 0xbe, 0x70, 0xf4, 0x7a, 0xbe, 0xa0, 0x2c, 0x27, 0x3e,
  0x6d, 0x06, 0xb3, 0xbe, 0x98, 0x7e, 0x75, 0x3e, 0xa8, 0x59, 0x69, 0xbe,
  0x78, 0xee, 0xae, 0xbd, 0x24, 0x7f, 0x50, 0x3e, 0x10, 0xf6, 0xed, 0xbd,
  0xac, 0x22, 0x2f, 0xbe, 0x58, 0x1f, 0xce, 0xbd, 0xc0, 0x0e, 0x44, 0x3e,
  0x80, 0x9d, 0x87, 0x3c, 0xc0, 0x06, 0x58, 0x3e, 0x88, 0x72, 0x06, 0x3e,
  0x00, 0x74, 0x4e, 0xbb, 0x78, 0x9e, 0xa8, 0x3d, 0x00, 0x89, 0xcc, 0x3c,
  0x28, 0x17, 0xe7, 0xbd, 0xb0, 0xc2, 0xae, 0x3d, 0xb8, 0x44, 0x17, 0x3e,
  0xf8, 0xf3, 0x43, 0x3e, 0x54, 0x28, 0x08, 0xbe, 0xa8, 0x7e, 0x71, 0xbe,
  0x10, 0xd0, 0x55, 0xbe, 0x20, 0x29, 0x39, 0x3e, 0x74, 0x4b, 0x37, 0x3e,
  0xdc, 0x0c, 0x1d, 0xbe, 0x70, 0x8b, 0x0c, 0x3d, 0xd8, 0x16, 0x6d, 0xbe,
  0x28, 0xcf, 0xfe, 0xbd, 0xb0, 0x1d, 0x64, 0xbe, 0x3c, 0x99, 0x4f, 0xbe,
  0xf0, 0xe4, 0x4b, 0xbe, 0xb4, 0x0d, 0x7e, 0xbe, 0xc0, 0x16, 0x7e, 0x3d,
  0x54, 0xd5, 0x1d, 0xbe, 0x80, 0x1b, 0xc6, 0xbc, 0xf5, 0xdd, 0xb7, 0xbd,
  0xec, 0xae, 0x1e, 0xbe, 0x50, 0x76, 0x58, 0x3d, 0x60, 0x97, 0x9a, 0x3c,
  0x9c, 0xb8, 0x29, 0xbe, 0x9c, 0x23, 0x55, 0xbe, 0x04, 0x07, 0x68, 0xbe,
  0xd0, 0xbd, 0x6a, 0xbd, 0x20, 0xea, 0x93, 0x3c, 0xf3, 0x47, 0x29, 0xbe,
  0x90, 0xf1, 0x0d, 0x3e, 0x0c, 0x2f, 0x49, 0xbe, 0xad, 0xdb, 0x10, 0x3e,
  0x92, 0x11, 0x25, 0x3e, 0x00, 0x04, 0xe7, 0xbb, 0x06, 0x39, 0x1a, 0xbe,
  0x50, 0xbe, 0x7a, 0xbd, 0x9b, 0xfa, 0x0d, 0x3e, 0xad, 0x84, 0xba, 0x3d,
  0x94, 0x97, 0x3e, 0x3c, 0x8f, 0xa6, 0x5e, 0x3e, 0xe8, 0xdd, 0x52, 0xbd,
  0x80, 0xb8, 0xfd, 0x3b, 0xd3, 0x29, 0x52, 0x3e, 0x75, 0x5f, 0x97, 0xbd,
  0x89, 0x53, 0x22, 0xbe, 0xe5, 0xd9, 0xa9, 0xbe, 0x84, 0xe6, 0x56, 0xbe,
  0x96, 0xf7, 0xf0, 0xbd, 0x7f, 0xb1, 0x56, 0x3d, 0x2c, 0x9d, 0x40, 0x3e,
  0x20, 0x08, 0xac, 0x3d, 0x8a, 0xfe, 0xff, 0xff, 0x04, 0x00, 0x00, 0x00,
  0x80, 0x00, 0x00, 0x00, 0x4b, 0x52, 0xd2, 0x3e, 0xf4, 0xdf, 0x8d, 0x3e,
  0xa0, 0x25, 0x29, 0xbe, 0x32, 0x10, 0x03, 0xbe, 0x76, 0x26, 0x71, 0x3e,
  0x84, 0x15, 0xba, 0xbe, 0x24, 0x2f, 0xaa, 0xbe, 0xe0, 0x03, 0x3e, 0xbd,
  0x46, 0x91, 0x78, 0xbe, 0x25, 0x33, 0x96, 0x3e, 0xed, 0x5e, 0x9a, 0xbe,
  0x54, 0x09, 0x54, 0xbe, 0x32, 0xc5, 0xc9, 0x3d, 0x5e, 0x6b, 0xa5, 0x3e,
  0x20, 0xfc, 0xe2, 0xbd, 0x3a, 0xa2, 0xc5, 0x3d, 0x4a, 0xdd, 0x3f, 0xbe,
  0x55, 0xa2, 0x46, 0x3e, 0x10, 0xd3, 0xd9, 0x3d, 0xcd, 0xcb, 0x8d, 0x3e,
  0xd5, 0x26, 0xd2, 0x3d, 0xb9, 0x02, 0x2b, 0x3d, 0x31, 0x80, 0x58, 0xbe,
  0x52, 0x63, 0xac, 0x3e, 0xf0, 0xdb, 0xb9, 0x3d, 0x04, 0x25, 0xa3, 0x3e,
  0x55, 0x30, 0xff, 0x3d, 0xe0, 0xbb, 0x42, 0xbd, 0xbb, 0xdd, 0x5f, 0x3e,
  0x90, 0x55, 0xb3, 0x3e, 0x88, 0x64, 0x98, 0xbe, 0x66, 0x4f, 0x85, 0xbe,
  0x16, 0xff, 0xff, 0xff, 0x04, 0x00, 0x00, 0x00, 0x80, 0x00, 0x00, 0x00,
  0xbd, 0xfe, 0xb6, 0xbe, 0x31, 0xf9, 0x51, 0xbd, 0x00, 0x00, 0x00, 0x00,
  0x00, 0x00, 0x00, 0x00, 0x96, 0xad, 0x3a, 0xbe, 0x00, 0x00, 0x00, 0x00,
  0x00, 0x00, 0x00, 0x00, 0x00, 0x00, 0x00, 0x00, 0x00, 0x00, 0x00, 0x00,
  0x85, 0xc4, 0xa9, 0xbe, 0x00, 0x00, 0x00, 0x00, 0x00, 0x00, 0x00, 0x00,
  0xf0, 0x41, 0x3f, 0x3d, 0xe5, 0xbe, 0x3d, 0xbd, 0x00, 0x00, 0x00, 0x00,
  0xf9, 0x72, 0x7e, 0xbe, 0x00, 0x00, 0x00, 0x00, 0xb7, 0x6a, 0x9c, 0x3e,
  0x5d, 0xaa, 0xd4, 0x3e, 0x7e, 0x63, 0x93, 0x3e, 0x43, 0x57, 0xc8, 0x3e,
  0xf9, 0x54, 0x6f, 0x3e, 0x00, 0x00, 0x00, 0x00, 0x41, 0xb4, 0x6e, 0x3d,
  0x44, 0xf5, 0x7f, 0x3e, 0x54, 0xe6, 0x03, 0x3e, 0xb8, 0xa0, 0x71, 0xbe,
  0x00, 0x00, 0x00, 0x00, 0xad, 0xae, 0xbc, 0xbe, 0x3a, 0xd9, 0x7c, 0xbd,
  0x00, 0x00, 0x00, 0x00, 0x00, 0x00, 0x00, 0x00, 0xa2, 0xff, 0xff, 0xff,
  0x04, 0x00, 0x00, 0x00, 0x04, 0x00, 0x00, 0x00, 0x12, 0xbb, 0x0f, 0x3d,
  0xb2, 0xff, 0xff, 0xff, 0x04, 0x00, 0x00, 0x00, 0x40, 0x00, 0x00, 0x00,
  0x96, 0x08, 0x01, 0x3c, 0xc7, 0x9b, 0x3a, 0x3d, 0x2d, 0xa7, 0xf6, 0x3c,
  0x00, 0x00, 0x00, 0x00, 0x3a, 0x6d, 0x11, 0x3d, 0xaf, 0x21, 0x3e, 0x3d,
  0xf0, 0x55, 0x53, 0x3d, 0xcd, 0x28, 0x0e, 0x3d, 0x8a, 0xec, 0xc9, 0xbc,
  0x00, 0x00, 0x00, 0x00, 0x00, 0x00, 0x00, 0x00, 0xdf, 0x24, 0xf8, 0x3d,
  0x3f, 0xf4, 0x16, 0x3e, 0x00, 0x00, 0x00, 0x00, 0x00, 0xf1, 0x19, 0x3c,
  0xcc, 0x3b, 0x92, 0xbe, 0x00, 0x00, 0x06, 0x00, 0x08, 0x00, 0x04, 0x00,
  0x06, 0x00, 0x00, 0x00, 0x04, 0x00, 0x00, 0x00, 0x00, 0x01, 0x00, 0x00,
  0xf4, 0x8d, 0x3c, 0x3e, 0x00, 0x00, 0x00, 0x00, 0x00, 0x00, 0x00, 0x00,
  0x68, 0xb5, 0x2b, 0xbc, 0x00, 0x00, 0x00, 0x00, 0x00, 0x00, 0x00, 0x00,
  0x00, 0x00, 0x00, 0x00, 0x5a, 0x37, 0x0a, 0x3e, 0x00, 0x00, 0x00, 0x00,
  0x73, 0xc1, 0x14, 0xbc, 0x3e, 0xf8, 0x3c, 0x3e, 0x33, 0x2e, 0xd7, 0xbd,
  0x0f, 0x02, 0x12, 0xbe, 0x00, 0x00, 0x00, 0x00, 0x20, 0x9b, 0x12, 0x3e,
  0xcb, 0x7f, 0xd0, 0x3d, 0x6c, 0xd3, 0x45, 0xbd, 0x79, 0x33, 0x42, 0xbc,
  0x98, 0x3e, 0x99, 0x3e, 0xba, 0xb4, 0xf5, 0x3b, 0x00, 0x00, 0x00, 0x00,
  0x00, 0x00, 0x00, 0x00, 0x00, 0x00, 0x00, 0x00, 0x00, 0x00, 0x00, 0x00,
  0x82, 0x74, 0xf7, 0x3c, 0xee, 0xa8, 0xf3, 0xbd, 0x0c, 0x46, 0x9f, 0xbc,
  0xab, 0xfa, 0x6c, 0x3e, 0x37, 0xa5, 0xcd, 0xbb, 0x69, 0x48, 0xff, 0x3c,
  0x54, 0xe3, 0x38, 0x3e, 0xfd, 0x4c, 0xaa, 0xbd, 0x0b, 0x3e, 0xf9, 0x3d,
  0x00, 0x00, 0x00, 0x00, 0xe9, 0x3b, 0xc0, 0x3d, 0x00, 0x00, 0x00, 0x00,
  0xbd, 0x44, 0x33, 0x3c, 0x20, 0xe1, 0xa9, 0x3b, 0xd6, 0x3f, 0x12, 0xbe,
  0x00, 0x00, 0x00, 0x00, 0xbf, 0x1c, 0x8e, 0x3d, 0x8e, 0x98, 0x40, 0xbe,
  0xee, 0x5d, 0x77, 0xbd, 0xf0, 0xd6, 0x16, 0x3c, 0x7a, 0xa6, 0x66, 0xbc,
  0xaa, 0x9c, 0x12, 0x3b, 0x5d, 0x07, 0x25, 0x3d, 0x1a, 0x5e, 0x4e, 0xbb,
  0x5d, 0x2a, 0x38, 0xbe, 0x00, 0x00, 0x00, 0x00, 0x00, 0x00, 0x00, 0x00,
  0x7e, 0x1c, 0x3b, 0x3e, 0x00, 0x00, 0x00, 0x00, 0xd8, 0xbe, 0x12, 0x3d,
  0x54, 0xec, 0xaa, 0x3d, 0xce, 0x08, 0x29, 0x3e, 0x00, 0x00, 0x00, 0x00,
  0x33, 0x40, 0x94, 0xbd, 0x91, 0xb0, 0x5a, 0x3e, 0x9d, 0xa3, 0x8c, 0x3d,
  0x00, 0x00, 0x00, 0x00, 0xda, 0x24, 0x63, 0x3e, 0x00, 0x00, 0x00, 0x00,
  0x60, 0x03, 0x2f, 0x3e, 0xb4, 0xf9, 0xff, 0xff, 0xb8, 0xf9, 0xff, 0xff,
  0x0f, 0x00, 0x00, 0x00, 0x4d, 0x4c, 0x49, 0x52, 0x20, 0x43, 0x6f, 0x6e,
  0x76, 0x65, 0x72, 0x74, 0x65, 0x64, 0x2e, 0x00, 0x01, 0x00, 0x00, 0x00,
  0x14, 0x00, 0x00, 0x00, 0x00, 0x00, 0x0e, 0x00, 0x18, 0x00, 0x14, 0x00,
  0x10, 0x00, 0x0c, 0x00, 0x08, 0x00, 0x04, 0x00, 0x0e, 0x00, 0x00, 0x00,
  0x14, 0x00, 0x00, 0x00, 0x1c, 0x00, 0x00, 0x00, 0x10, 0x01, 0x00, 0x00,
  0x14, 0x01, 0x00, 0x00, 0x18, 0x01, 0x00, 0x00, 0x04, 0x00, 0x00, 0x00,
  0x6d, 0x61, 0x69, 0x6e, 0x00, 0x00, 0x00, 0x00, 0x04, 0x00, 0x00, 0x00,
  0xb8, 0x00, 0x00, 0x00, 0x70, 0x00, 0x00, 0x00, 0x38, 0x00, 0x00, 0x00,
  0x04, 0x00, 0x00, 0x00, 0x66, 0xff, 0xff, 0xff, 0x10, 0x00, 0x00, 0x00,
  0x00, 0x00, 0x00, 0x08, 0x0c, 0x00, 0x00, 0x00, 0x10, 0x00, 0x00, 0x00,
  0x34, 0xfa, 0xff, 0xff, 0x01, 0x00, 0x00, 0x00, 0x0c, 0x00, 0x00, 0x00,
  0x03, 0x00, 0x00, 0x00, 0x0b, 0x00, 0x00, 0x00, 0x08, 0x00, 0x00, 0x00,
  0x03, 0x00, 0x00, 0x00, 0x96, 0xff, 0xff, 0xff, 0x10, 0x00, 0x00, 0x00,
  0x00, 0x00, 0x00, 0x08, 0x10, 0x00, 0x00, 0x00, 0x14, 0x00, 0x00, 0x00,
  0x86, 0xff, 0xff, 0xff, 0x00, 0x00, 0x00, 0x01, 0x01, 0x00, 0x00, 0x00,
  0x0b, 0x00, 0x00, 0x00, 0x03, 0x00, 0x00, 0x00, 0x0a, 0x00, 0x00, 0x00,
  0x07, 0x00, 0x00, 0x00, 0x02, 0x00, 0x00, 0x00, 0xca, 0xff, 0xff, 0xff,
  0x10, 0x00, 0x00, 0x00, 0x00, 0x00, 0x00, 0x08, 0x10, 0x00, 0x00, 0x00,
  0x14, 0x00, 0x00, 0x00, 0xba, 0xff, 0xff, 0xff, 0x00, 0x00, 0x00, 0x01,
  0x01, 0x00, 0x00, 0x00, 0x0a, 0x00, 0x00, 0x00, 0x03, 0x00, 0x00, 0x00,
  0x09, 0x00, 0x00, 0x00, 0x06, 0x00, 0x00, 0x00, 0x01, 0x00, 0x00, 0x00,
  0x00, 0x00, 0x0e, 0x00, 0x16, 0x00, 0x00, 0x00, 0x10, 0x00, 0x0c, 0x00,
  0x0b, 0x00, 0x04, 0x00, 0x0e, 0x00, 0x00, 0x00, 0x18, 0x00, 0x00, 0x00,
  0x00, 0x00, 0x00, 0x08, 0x18, 0x00, 0x00, 0x00, 0x1c, 0x00, 0x00, 0x00,
  0x00, 0x00, 0x06, 0x00, 0x08, 0x00, 0x07, 0x00, 0x06, 0x00, 0x00, 0x00,
  0x00, 0x00, 0x00, 0x01, 0x01, 0x00, 0x00, 0x00, 0x09, 0x00, 0x00, 0x00,
  0x03, 0x00, 0x00, 0x00, 0x00, 0x00, 0x00, 0x00, 0x05, 0x00, 0x00, 0x00,
  0x04, 0x00, 0x00, 0x00, 0x01, 0x00, 0x00, 0x00, 0x0c, 0x00, 0x00, 0x00,
  0x01, 0x00, 0x00, 0x00, 0x00, 0x00, 0x00, 0x00, 0x0d, 0x00, 0x00, 0x00,
  0xc0, 0x04, 0x00, 0x00, 0x50, 0x04, 0x00, 0x00, 0xe0, 0x03, 0x00, 0x00,
  0x88, 0x03, 0x00, 0x00, 0x34, 0x03, 0x00, 0x00, 0xec, 0x02, 0x00, 0x00,
  0xa0, 0x02, 0x00, 0x00, 0x54, 0x02, 0x00, 0x00, 0x08, 0x02, 0x00, 0x00,
  0x80, 0x01, 0x00, 0x00, 0xf0, 0x00, 0x00, 0x00, 0x60, 0x00, 0x00, 0x00,
  0x04, 0x00, 0x00, 0x00, 0x8a, 0xfb, 0xff, 0xff, 0x00, 0x00, 0x00, 0x01,
  0x14, 0x00, 0x00, 0x00, 0x1c, 0x00, 0x00, 0x00, 0x1c, 0x00, 0x00, 0x00,
  0x0d, 0x00, 0x00, 0x00, 0x34, 0x00, 0x00, 0x00, 0x02, 0x00, 0x00, 0x00,
  0xff, 0xff, 0xff, 0xff, 0x01, 0x00, 0x00, 0x00, 0x74, 0xfb, 0xff, 0xff,
  0x19, 0x00, 0x00, 0x00, 0x53, 0x74, 0x61, 0x74, 0x65, 0x66, 0x75, 0x6c,
  0x50, 0x61, 0x72, 0x74, 0x69, 0x74, 0x69, 0x6f, 0x6e, 0x65, 0x64, 0x43,
  0x61, 0x6c, 0x6c, 0x3a, 0x30, 0x00, 0x00, 0x00, 0x02, 0x00, 0x00, 0x00,
  0x01, 0x00, 0x00, 0x00, 0x01, 0x00, 0x00, 0x00, 0xe2, 0xfb, 0xff, 0xff,
  0x00, 0x00, 0x00, 0x01, 0x14, 0x00, 0x00, 0x00, 0x1c, 0x00, 0x00, 0x00,
  0x1c, 0x00, 0x00, 0x00, 0x0c, 0x00, 0x00, 0x00, 0x68, 0x00, 0x00, 0x00,
  0x02, 0x00, 0x00, 0x00, 0xff, 0xff, 0xff, 0xff, 0x10, 0x00, 0x00, 0x00,
  0xcc, 0xfb, 0xff, 0xff, 0x4c, 0x00, 0x00, 0x00, 0x73, 0x65, 0x71, 0x75,
  0x65, 0x6e, 0x74, 0x69, 0x61, 0x6c, 0x2f, 0x64, 0x65, 0x6e, 0x73, 0x65,
  0x5f, 0x32, 0x2f, 0x4d, 0x61, 0x74, 0x4d, 0x75, 0x6c, 0x3b, 0x73, 0x65,
  0x71, 0x75, 0x65, 0x6e, 0x74, 0x69, 0x61, 0x6c, 0x2f, 0x64, 0x65, 0x6e,
  0x73, 0x65, 0x5f, 0x32, 0x2f, 0x52, 0x65, 0x6c, 0x75, 0x3b, 0x73, 0x65,
  0x71, 0x75, 0x65, 0x6e, 0x74, 0x69, 0x61, 0x6c, 0x2f, 0x64, 0x65, 0x6e,
  0x73, 0x65, 0x5f, 0x32, 0x2f, 0x42, 0x69, 0x61, 0x73, 0x41, 0x64, 0x64,
  0x00, 0x00, 0x00, 0x00, 0x02, 0x00, 0x00, 0x00, 0x01, 0x00, 0x00, 0x00,
  0x10, 0x00, 0x00, 0x00, 0x6e, 0xfc, 0xff, 0xff, 0x00, 0x00, 0x00, 0x01,
  0x14, 0x00, 0x00, 0x00, 0x1c, 0x00, 0x00, 0x00, 0x1c, 0x00, 0x00, 0x00,
  0x0b, 0x00, 0x00, 0x00, 0x68, 0x00, 0x00, 0x00, 0x02, 0x00, 0x00, 0x00,
  0xff, 0xff, 0xff, 0xff, 0x40, 0x00, 0x00, 0x00, 0x58, 0xfc, 0xff, 0xff,
  0x4c, 0x00, 0x00, 0x00, 0x73, 0x65, 0x71, 0x75, 0x65, 0x6e, 0x74, 0x69,
  0x61, 0x6c, 0x2f, 0x64, 0x65, 0x6e, 0x73, 0x65, 0x5f, 0x31, 0x2f, 0x4d,
  0x61, 0x74, 0x4d, 0x75, 0x6c, 0x3b, 0x73, 0x65, 0x71, 0x75, 0x65, 0x6e,
  0x74, 0x69, 0x61, 0x6c, 0x2f, 0x64, 0x65, 0x6e, 0x73, 0x65, 0x5f, 0x31,
  0x2f, 0x52, 0x65, 0x6c, 0x75, 0x3b, 0x73, 0x65, 0x71, 0x75, 0x65, 0x6e,
  0x74, 0x69, 0x61, 0x6c, 0x2f, 0x64, 0x65, 0x6e, 0x73, 0x65, 0x5f, 0x31,
  0x2f, 0x42, 0x69, 0x61, 0x73, 0x41, 0x64, 0x64, 0x00, 0x00, 0x00, 0x00,
  0x02, 0x00, 0x00, 0x00, 0x01, 0x00, 0x00, 0x00, 0x40, 0x00, 0x00, 0x00,
  0xfa, 0xfc, 0xff, 0xff, 0x00, 0x00, 0x00, 0x01, 0x14, 0x00, 0x00, 0x00,
  0x1c, 0x00, 0x00, 0x00, 0x1c, 0x00, 0x00, 0x00, 0x0a, 0x00, 0x00, 0x00,
  0x60, 0x00, 0x00, 0x00, 0x02, 0x00, 0x00, 0x00, 0xff, 0xff, 0xff, 0xff,
  0x20, 0x00, 0x00, 0x00, 0xe4, 0xfc, 0xff, 0xff, 0x46, 0x00, 0x00, 0x00,
  0x73, 0x65, 0x71, 0x75, 0x65, 0x6e, 0x74, 0x69, 0x61, 0x6c, 0x2f, 0x64,
  0x65, 0x6e, 0x73, 0x65, 0x2f, 0x4d, 0x61, 0x74, 0x4d, 0x75, 0x6c, 0x3b,
  0x73, 0x65, 0x71, 0x75, 0x65, 0x6e, 0x74, 0x69, 0x61, 0x6c, 0x2f, 0x64,
  0x65, 0x6e, 0x73, 0x65, 0x2f, 0x52, 0x65, 0x6c, 0x75, 0x3b, 0x73, 0x65,
  0x71, 0x75, 0x65, 0x6e, 0x74, 0x69, 0x61, 0x6c, 0x2f, 0x64, 0x65, 0x6e,
  0x73, 0x65, 0x2f, 0x42, 0x69, 0x61, 0x73, 0x41, 0x64, 0x64, 0x00, 0x00,
  0x02, 0x00, 0x00, 0x00, 0x01, 0x00, 0x00, 0x00, 0x20, 0x00, 0x00, 0x00,
  0xea, 0xfd, 0xff, 0xff, 0x00, 0x00, 0x00, 0x01, 0x10, 0x00, 0x00, 0x00,
  0x10, 0x00, 0x00, 0x00, 0x09, 0x00, 0x00, 0x00, 0x28, 0x00, 0x00, 0x00,
  0x58, 0xfd, 0xff, 0xff, 0x19, 0x00, 0x00, 0x00, 0x73, 0x65, 0x71, 0x75,
  0x65, 0x6e, 0x74, 0x69, 0x61, 0x6c, 0x2f, 0x64, 0x65, 0x6e, 0x73, 0x65,
  0x5f, 0x33, 0x2f, 0x4d, 0x61, 0x74, 0x4d, 0x75, 0x6c, 0x00, 0x00, 0x00,
  0x02, 0x00, 0x00, 0x00, 0x01, 0x00, 0x00, 0x00, 0x10, 0x00, 0x00, 0x00,
  0x32, 0xfe, 0xff, 0xff, 0x00, 0x00, 0x00, 0x01, 0x10, 0x00, 0x00, 0x00,
  0x10, 0x00, 0x00, 0x00, 0x08, 0x00, 0x00, 0x00, 0x28, 0x00, 0x00, 0x00,
  0xa0, 0xfd, 0xff, 0xff, 0x19, 0x00, 0x00, 0x00, 0x73, 0x65, 0x71, 0x75,
  0x65, 0x6e, 0x74, 0x69, 0x61, 0x6c, 0x2f, 0x64, 0x65, 0x6e, 0x73, 0x65,
  0x5f, 0x32, 0x2f, 0x4d, 0x61, 0x74, 0x4d, 0x75, 0x6c, 0x00, 0x00, 0x00,
  0x02, 0x00, 0x00, 0x00, 0x10, 0x00, 0x00, 0x00, 0x40, 0x00, 0x00, 0x00,
  0x7a, 0xfe, 0xff, 0xff, 0x00, 0x00, 0x00, 0x01, 0x10, 0x00, 0x00, 0x00,
  0x10, 0x00, 0x00, 0x00, 0x07, 0x00, 0x00, 0x00, 0x28, 0x00, 0x00, 0x00,
  0xe8, 0xfd, 0xff, 0xff, 0x19, 0x00, 0x00, 0x00, 0x73, 0x65, 0x71, 0x75,
  0x65, 0x6e, 0x74, 0x69, 0x61, 0x6c, 0x2f, 0x64, 0x65, 0x6e, 0x73, 0x65,
  0x5f, 0x31, 0x2f, 0x4d, 0x61, 0x74, 0x4d, 0x75, 0x6c, 0x00, 0x00, 0x00,
  0x02, 0x00, 0x00, 0x00, 0x40, 0x00, 0x00, 0x00, 0x20, 0x00, 0x00, 0x00,
  0xc2, 0xfe, 0xff, 0xff, 0x00, 0x00, 0x00, 0x01, 0x10, 0x00, 0x00, 0x00,
  0x10, 0x00, 0x00, 0x00, 0x06, 0x00, 0x00, 0x00, 0x24, 0x00, 0x00, 0x00,
  0x30, 0xfe, 0xff, 0xff, 0x17, 0x00, 0x00, 0x00, 0x73, 0x65, 0x71, 0x75,
  0x65, 0x6e, 0x74, 0x69, 0x61, 0x6c, 0x2f, 0x64, 0x65, 0x6e, 0x73, 0x65,
  0x2f, 0x4d, 0x61, 0x74, 0x4d, 0x75, 0x6c, 0x00, 0x02, 0x00, 0x00, 0x00,
  0x20, 0x00, 0x00, 0x00, 0x01, 0x00, 0x00, 0x00, 0x06, 0xff, 0xff, 0xff,
  0x00, 0x00, 0x00, 0x01, 0x10, 0x00, 0x00, 0x00, 0x10, 0x00, 0x00, 0x00,
  0x05, 0x00, 0x00, 0x00, 0x34, 0x00, 0x00, 0x00, 0x74, 0xfe, 0xff, 0xff,
  0x27, 0x00, 0x00, 0x00, 0x73, 0x65, 0x71, 0x75, 0x65, 0x6e, 0x74, 0x69,
  0x61, 0x6c, 0x2f, 0x64, 0x65, 0x6e, 0x73, 0x65, 0x2f, 0x42, 0x69, 0x61,
  0x73, 0x41, 0x64, 0x64, 0x2f, 0x52, 0x65, 0x61, 0x64, 0x56, 0x61, 0x72,
  0x69, 0x61, 0x62, 0x6c, 0x65, 0x4f, 0x70, 0x00, 0x01, 0x00, 0x00, 0x00,
  0x20, 0x00, 0x00, 0x00, 0x56, 0xff, 0xff, 0xff, 0x00, 0x00, 0x00, 0x01,
  0x10, 0x00, 0x00, 0x00, 0x10, 0x00, 0x00, 0x00, 0x04, 0x00, 0x00, 0x00,
  0x38, 0x00, 0x00, 0x00, 0xc4, 0xfe, 0xff, 0xff, 0x29, 0x00, 0x00, 0x00,
  0x73, 0x65, 0x71, 0x75, 0x65, 0x6e, 0x74, 0x69, 0x61, 0x6c, 0x2f, 0x64,
  0x65, 0x6e, 0x73, 0x65, 0x5f, 0x33, 0x2f, 0x42, 0x69, 0x61, 0x73, 0x41,
  0x64, 0x64, 0x2f, 0x52, 0x65, 0x61, 0x64, 0x56, 0x61, 0x72, 0x69, 0x61,
  0x62, 0x6c, 0x65, 0x4f, 0x70, 0x00, 0x00, 0x00, 0x01, 0x00, 0x00, 0x00,
  0x01, 0x00, 0x00, 0x00, 0xaa, 0xff, 0xff, 0xff, 0x00, 0x00, 0x00, 0x01,
  0x10, 0x00, 0x00, 0x00, 0x10, 0x00, 0x00, 0x00, 0x03, 0x00, 0x00, 0x00,
  0x38, 0x00, 0x00, 0x00, 0x18, 0xff, 0xff, 0xff, 0x29, 0x00, 0x00, 0x00,
  0x73, 0x65, 0x71, 0x75, 0x65, 0x6e, 0x74, 0x69, 0x61, 0x6c, 0x2f, 0x64,
  0x65, 0x6e, 0x73, 0x65, 0x5f, 0x32, 0x2f, 0x42, 0x69, 0x61, 0x73, 0x41,
  0x64, 0x64, 0x2f, 0x52, 0x65, 0x61, 0x64, 0x56, 0x61, 0x72, 0x69, 0x61,
  0x62, 0x6c, 0x65, 0x4f, 0x70, 0x00, 0x00, 0x00, 0x01, 0x00, 0x00, 0x00,
  0x10, 0x00, 0x00, 0x00, 0x00, 0x00, 0x16, 0x00, 0x18, 0x00, 0x14, 0x00,
  0x00, 0x00, 0x10, 0x00, 0x0c, 0x00, 0x08, 0x00, 0x00, 0x00, 0x00, 0x00,
  0x00, 0x00, 0x07, 0x00, 0x16, 0x00, 0x00, 0x00, 0x00, 0x00, 0x00, 0x01,
  0x10, 0x00, 0x00, 0x00, 0x10, 0x00, 0x00, 0x00, 0x02, 0x00, 0x00, 0x00,
  0x38, 0x00, 0x00, 0x00, 0x84, 0xff, 0xff, 0xff, 0x29, 0x00, 0x00, 0x00,
  0x73, 0x65, 0x71, 0x75, 0x65, 0x6e, 0x74, 0x69, 0x61, 0x6c, 0x2f, 0x64,
  0x65, 0x6e, 0x73, 0x65, 0x5f, 0x31, 0x2f, 0x42, 0x69, 0x61, 0x73, 0x41,
  0x64, 0x64, 0x2f, 0x52, 0x65, 0x61, 0x64, 0x56, 0x61, 0x72, 0x69, 0x61,
  0x62, 0x6c, 0x65, 0x4f, 0x70, 0x00, 0x00, 0x00, 0x01, 0x00, 0x00, 0x00,
  0x40, 0x00, 0x00, 0x00, 0x00, 0x00, 0x16, 0x00, 0x1c, 0x00, 0x18, 0x00,
  0x00, 0x00, 0x14, 0x00, 0x10, 0x00, 0x0c, 0x00, 0x00, 0x00, 0x00, 0x00,
  0x08, 0x00, 0x07, 0x00, 0x16, 0x00, 0x00, 0x00, 0x00, 0x00, 0x00, 0x01,
  0x14, 0x00, 0x00, 0x00, 0x20, 0x00, 0x00, 0x00, 0x20, 0x00, 0x00, 0x00,
  0x01, 0x00, 0x00, 0x00, 0x3c, 0x00, 0x00, 0x00, 0x02, 0x00, 0x00, 0x00,
  0xff, 0xff, 0xff, 0xff, 0x01, 0x00, 0x00, 0x00, 0x04, 0x00, 0x04, 0x00,
  0x04, 0x00, 0x00, 0x00, 0x1d, 0x00, 0x00, 0x00, 0x73, 0x65, 0x72, 0x76,
  0x69, 0x6e, 0x67, 0x5f, 0x64, 0x65, 0x66, 0x61, 0x75, 0x6c, 0x74, 0x5f,
  0x64, 0x65, 0x6e, 0x73, 0x65, 0x5f, 0x69, 0x6e, 0x70, 0x75, 0x74, 0x3a,
  0x30, 0x00, 0x00, 0x00, 0x02, 0x00, 0x00, 0x00, 0x01, 0x00, 0x00, 0x00,
  0x01, 0x00, 0x00, 0x00, 0x01, 0x00, 0x00, 0x00, 0x10, 0x00, 0x00, 0x00,
  0x0c, 0x00, 0x0c, 0x00, 0x0b, 0x00, 0x00, 0x00, 0x00, 0x00, 0x04, 0x00,
  0x0c, 0x00, 0x00, 0x00, 0x09, 0x00, 0x00, 0x00, 0x00, 0x00, 0x00, 0x09
};
unsigned int g_model_len = 15216;
