const unsigned char model[] = {
    0x1c, 0x00, 0x00, 0x00, 0x54, 0x46, 0x4c, 0x33, 0x14, 0x00, 0x20, 0x00,
    0x1c, 0x00, 0x18, 0x00, 0x14, 0x00, 0x10, 0x00, 0x0c, 0x00, 0x00, 0x00,
    0x08, 0x00, 0x04, 0x00, 0x14, 0x00, 0x00, 0x00, 0x1c, 0x00, 0x00, 0x00,
    0x88, 0x00, 0x00, 0x00, 0xe0, 0x00, 0x00, 0x00, 0x50, 0x13, 0x00, 0x00,
    0x60, 0x13, 0x00, 0x00, 0x74, 0x24, 0x00, 0x00, 0x03, 0x00, 0x00, 0x00,
    0x01, 0x00, 0x00, 0x00, 0x04, 0x00, 0x00, 0x00, 0x5e, 0xe8, 0xff, 0xff,
    0x0c, 0x00, 0x00, 0x00, 0x1c, 0x00, 0x00, 0x00, 0x3c, 0x00, 0x00, 0x00,
    0x0f, 0x00, 0x00, 0x00, 0x73, 0x65, 0x72, 0x76, 0x69, 0x6e, 0x67, 0x5f,
    0x64, 0x65, 0x66, 0x61, 0x75, 0x6c, 0x74, 0x00, 0x01, 0x00, 0x00, 0x00,
    0x04, 0x00, 0x00, 0x00, 0x94, 0xff, 0xff, 0xff, 0x28, 0x00, 0x00, 0x00,
    0x04, 0x00, 0x00, 0x00, 0x08, 0x00, 0x00, 0x00, 0x6f, 0x75, 0x74, 0x70,
    0x75, 0x74, 0x5f, 0x30, 0x00, 0x00, 0x00, 0x00, 0x01, 0x00, 0x00, 0x00,
    0x04, 0x00, 0x00, 0x00, 0x56, 0xe8, 0xff, 0xff, 0x04, 0x00, 0x00, 0x00,
    0x08, 0x00, 0x00, 0x00, 0x72, 0x61, 0x77, 0x5f, 0x64, 0x61, 0x74, 0x61,
    0x00, 0x00, 0x00, 0x00, 0x02, 0x00, 0x00, 0x00, 0x34, 0x00, 0x00, 0x00,
    0x04, 0x00, 0x00, 0x00, 0xdc, 0xff, 0xff, 0xff, 0x2b, 0x00, 0x00, 0x00,
    0x04, 0x00, 0x00, 0x00, 0x13, 0x00, 0x00, 0x00, 0x43, 0x4f, 0x4e, 0x56,
    0x45, 0x52, 0x53, 0x49, 0x4f, 0x4e, 0x5f, 0x4d, 0x45, 0x54, 0x41, 0x44,
    0x41, 0x54, 0x41, 0x00, 0x08, 0x00, 0x0c, 0x00, 0x08, 0x00, 0x04, 0x00,
    0x08, 0x00, 0x00, 0x00, 0x2a, 0x00, 0x00, 0x00, 0x04, 0x00, 0x00, 0x00,
    0x13, 0x00, 0x00, 0x00, 0x6d, 0x69, 0x6e, 0x5f, 0x72, 0x75, 0x6e, 0x74,
    0x69, 0x6d, 0x65, 0x5f, 0x76, 0x65, 0x72, 0x73, 0x69, 0x6f, 0x6e, 0x00,
    0x2c, 0x00, 0x00, 0x00, 0x6c, 0x12, 0x00, 0x00, 0x64, 0x12, 0x00, 0x00,
    0x4c, 0x12, 0x00, 0x00, 0x34, 0x12, 0x00, 0x00, 0x20, 0x12, 0x00, 0x00,
    0x10, 0x02, 0x00, 0x00, 0xfc, 0x01, 0x00, 0x00, 0xe4, 0x01, 0x00, 0x00,
    0xc8, 0x01, 0x00, 0x00, 0xb4, 0x01, 0x00, 0x00, 0xac, 0x01, 0x00, 0x00,
    0x98, 0x01, 0x00, 0x00, 0x90, 0x01, 0x00, 0x00, 0x7c, 0x01, 0x00, 0x00,
    0x6c, 0x01, 0x00, 0x00, 0x64, 0x01, 0x00, 0x00, 0x5c, 0x01, 0x00, 0x00,
    0x54, 0x01, 0x00, 0x00, 0x4c, 0x01, 0x00, 0x00, 0x44, 0x01, 0x00, 0x00,
    0x3c, 0x01, 0x00, 0x00, 0x34, 0x01, 0x00, 0x00, 0x2c, 0x01, 0x00, 0x00,
    0x24, 0x01, 0x00, 0x00, 0x1c, 0x01, 0x00, 0x00, 0x14, 0x01, 0x00, 0x00,
    0x0c, 0x01, 0x00, 0x00, 0x04, 0x01, 0x00, 0x00, 0xfc, 0x00, 0x00, 0x00,
    0xf4, 0x00, 0x00, 0x00, 0xec, 0x00, 0x00, 0x00, 0xe4, 0x00, 0x00, 0x00,
    0xdc, 0x00, 0x00, 0x00, 0xd4, 0x00, 0x00, 0x00, 0xcc, 0x00, 0x00, 0x00,
    0xc4, 0x00, 0x00, 0x00, 0xbc, 0x00, 0x00, 0x00, 0xb4, 0x00, 0x00, 0x00,
    0xac, 0x00, 0x00, 0x00, 0xa4, 0x00, 0x00, 0x00, 0x9c, 0x00, 0x00, 0x00,
    0x94, 0x00, 0x00, 0x00, 0x74, 0x00, 0x00, 0x00, 0x04, 0x00, 0x00, 0x00,
    0x7e, 0xe9, 0xff, 0xff, 0x04, 0x00, 0x00, 0x00, 0x60, 0x00, 0x00, 0x00,
    0x0c, 0x00, 0x00, 0x00, 0x08, 0x00, 0x0e, 0x00, 0x08, 0x00, 0x04, 0x00,
    0x08, 0x00, 0x00, 0x00, 0x10, 0x00, 0x00, 0x00, 0x24, 0x00, 0x00, 0x00,
    0x00, 0x00, 0x06, 0x00, 0x08, 0x00, 0x04, 0x00, 0x06, 0x00, 0x00, 0x00,
    0x04, 0x00, 0x00, 0x00, 0x00, 0x00, 0x00, 0x00, 0x00, 0x00, 0x0a, 0x00,
    0x10, 0x00, 0x0c, 0x00, 0x08, 0x00, 0x04, 0x00, 0x0a, 0x00, 0x00, 0x00,
    0x03, 0x00, 0x00, 0x00, 0x02, 0x00, 0x00, 0x00, 0x04, 0x00, 0x00, 0x00,
    0x12, 0x00, 0x00, 0x00, 0x32, 0x2e, 0x31, 0x37, 0x2e, 0x30, 0x2d, 0x64,
    0x65, 0x76, 0x32, 0x30, 0x32, 0x34, 0x30, 0x33, 0x30, 0x33, 0x00, 0x00,
    0xea, 0xe9, 0xff, 0xff, 0x04, 0x00, 0x00, 0x00, 0x10, 0x00, 0x00, 0x00,
    0x32, 0x2e, 0x35, 0x2e, 0x30, 0x00, 0x00, 0x00, 0x00, 0x00, 0x00, 0x00,
    0x00, 0x00, 0x00, 0x00, 0x14, 0xdd, 0xff, 0xff, 0x18, 0xdd, 0xff, 0xff,
    0x1c, 0xdd, 0xff, 0xff, 0x20, 0xdd, 0xff, 0xff, 0x24, 0xdd, 0xff, 0xff,
    0x28, 0xdd, 0xff, 0xff, 0x2c, 0xdd, 0xff, 0xff, 0x30, 0xdd, 0xff, 0xff,
    0x34, 0xdd, 0xff, 0xff, 0x38, 0xdd, 0xff, 0xff, 0x3c, 0xdd, 0xff, 0xff,
    0x40, 0xdd, 0xff, 0xff, 0x44, 0xdd, 0xff, 0xff, 0x48, 0xdd, 0xff, 0xff,
    0x4c, 0xdd, 0xff, 0xff, 0x50, 0xdd, 0xff, 0xff, 0x54, 0xdd, 0xff, 0xff,
    0x58, 0xdd, 0xff, 0xff, 0x5c, 0xdd, 0xff, 0xff, 0x60, 0xdd, 0xff, 0xff,
    0x64, 0xdd, 0xff, 0xff, 0x68, 0xdd, 0xff, 0xff, 0x6c, 0xdd, 0xff, 0xff,
    0x70, 0xdd, 0xff, 0xff, 0x74, 0xdd, 0xff, 0xff, 0x78, 0xdd, 0xff, 0xff,
    0x7c, 0xdd, 0xff, 0xff, 0x72, 0xea, 0xff, 0xff, 0x04, 0x00, 0x00, 0x00,
    0x00, 0x00, 0x00, 0x00, 0x7e, 0xea, 0xff, 0xff, 0x04, 0x00, 0x00, 0x00,
    0x04, 0x00, 0x00, 0x00, 0x00, 0x02, 0x00, 0x00, 0x9c, 0xdd, 0xff, 0xff,
    0x92, 0xea, 0xff, 0xff, 0x04, 0x00, 0x00, 0x00, 0x04, 0x00, 0x00, 0x00,
    0x00, 0x04, 0x00, 0x00, 0xb0, 0xdd, 0xff, 0xff, 0xa6, 0xea, 0xff, 0xff,
    0x04, 0x00, 0x00, 0x00, 0x04, 0x00, 0x00, 0x00, 0x00, 0x00, 0x00, 0x00,
    0xb6, 0xea, 0xff, 0xff, 0x04, 0x00, 0x00, 0x00, 0x0c, 0x00, 0x00, 0x00,
    0x00, 0x00, 0x00, 0x00, 0x01, 0x00, 0x00, 0x00, 0x00, 0x00, 0x00, 0x00,
    0xce, 0xea, 0xff, 0xff, 0x04, 0x00, 0x00, 0x00, 0x08, 0x00, 0x00, 0x00,
    0x00, 0x00, 0x00, 0x00, 0x01, 0x00, 0x00, 0x00, 0xe2, 0xea, 0xff, 0xff,
    0x04, 0x00, 0x00, 0x00, 0x04, 0x00, 0x00, 0x00, 0x01, 0x00, 0x00, 0x00,
    0xf2, 0xea, 0xff, 0xff, 0x04, 0x00, 0x00, 0x00, 0x00, 0x10, 0x00, 0x00,
    0x00, 0x00, 0x00, 0x00, 0x00, 0x00, 0x1e, 0x37, 0x00, 0xe0, 0x1d, 0x38,
    0x00, 0xa0, 0xb1, 0x38, 0x00, 0xe8, 0x1d, 0x39, 0x00, 0xb8, 0x76, 0x39,
    0x00, 0xa0, 0xb1, 0x39, 0x00, 0xc4, 0xf1, 0x39, 0x00, 0xe2, 0x1d, 0x3a,
    0x00, 0xd0, 0x47, 0x3a, 0x00, 0xaa, 0x76, 0x3a, 0x00, 0x39, 0x95, 0x3a,
    0x00, 0x93, 0xb1, 0x3a, 0x00, 0x63, 0xd0, 0x3a, 0x00, 0xa8, 0xf1, 0x3a,
    0x80, 0xb1, 0x0a, 0x3b, 0x80, 0xc9, 0x1d, 0x3b, 0x80, 0x1b, 0x32, 0x3b,
    0x00, 0xa8, 0x47, 0x3b, 0x80, 0x6e, 0x5e, 0x3b, 0x00, 0x6e, 0x76, 0x3b,
    0xc0, 0xd3, 0x87, 0x3b, 0x00, 0x0d, 0x95, 0x3b, 0x00, 0xe3, 0xa2, 0x3b,
    0x00, 0x55, 0xb1, 0x3b, 0x40, 0x63, 0xc0, 0x3b, 0xc0, 0x0d, 0xd0, 0x3b,
    0x00, 0x54, 0xe0, 0x3b, 0x00, 0x36, 0xf1, 0x3b, 0xe0, 0x59, 0x01, 0x3c,
    0x60, 0x66, 0x0a, 0x3c, 0x80, 0xc0, 0x13, 0x3c, 0x40, 0x68, 0x1d, 0x3c,
    0x40, 0x5d, 0x27, 0x3c, 0xc0, 0x9f, 0x31, 0x3c, 0x80, 0x2f, 0x3c, 0x3c,
    0x60, 0x0c, 0x47, 0x3c, 0x40, 0x36, 0x52, 0x3c, 0x00, 0xad, 0x5d, 0x3c,
    0xa0, 0x70, 0x69, 0x3c, 0x00, 0x81, 0x75, 0x3c, 0x00, 0xef, 0x80, 0x3c,
    0xb0, 0x43, 0x87, 0x3c, 0x90, 0xbe, 0x8d, 0x3c, 0x90, 0x5f, 0x94, 0x3c,
    0x90, 0x26, 0x9b, 0x3c, 0xa0, 0x13, 0xa2, 0x3c, 0x90, 0x26, 0xa9, 0x3c,
    0x50, 0x5f, 0xb0, 0x3c, 0xe0, 0xbd, 0xb7, 0x3c, 0x30, 0x42, 0xbf, 0x3c,
    0x10, 0xec, 0xc6, 0x3c, 0x90, 0xbb, 0xce, 0x3c, 0x80, 0xb0, 0xd6, 0x3c,
    0xe0, 0xca, 0xde, 0x3c, 0x90, 0x0a, 0xe7, 0x3c, 0x80, 0x6f, 0xef, 0x3c,
    0xa0, 0xf9, 0xf7, 0x3c, 0x68, 0x54, 0x00, 0x3d, 0x80, 0xbe, 0x04, 0x3d,
    0x10, 0x3b, 0x09, 0x3d, 0x10, 0xca, 0x0d, 0x3d, 0x68, 0x6b, 0x12, 0x3d,
    0x18, 0x1f, 0x17, 0x3d, 0x10, 0xe5, 0x1b, 0x3d, 0x40, 0xbd, 0x20, 0x3d,
    0xa0, 0xa7, 0x25, 0x3d, 0x30, 0xa4, 0x2a, 0x3d, 0xd0, 0xb2, 0x2f, 0x3d,
    0x78, 0xd3, 0x34, 0x3d, 0x20, 0x06, 0x3a, 0x3d, 0xc0, 0x4a, 0x3f, 0x3d,
    0x40, 0xa1, 0x44, 0x3d, 0xa0, 0x09, 0x4a, 0x3d, 0xc0, 0x83, 0x4f, 0x3d,
    0xa8, 0x0f, 0x55, 0x3d, 0x38, 0xad, 0x5a, 0x3d, 0x68, 0x5c, 0x60, 0x3d,
    0x30, 0x1d, 0x66, 0x3d, 0x80, 0xef, 0x6b, 0x3d, 0x48, 0xd3, 0x71, 0x3d,
    0x70, 0xc8, 0x77, 0x3d, 0xf8, 0xce, 0x7d, 0x3d, 0x64, 0xf3, 0x81, 0x3d,
    0xec, 0x07, 0x85, 0x3d, 0x08, 0x25, 0x88, 0x3d, 0xb4, 0x4a, 0x8b, 0x3d,
    0xe8, 0x78, 0x8e, 0x3d, 0x98, 0xaf, 0x91, 0x3d, 0xc0, 0xee, 0x94, 0x3d,
    0x58, 0x36, 0x98, 0x3d, 0x58, 0x86, 0x9b, 0x3d, 0xb4, 0xde, 0x9e, 0x3d,
    0x68, 0x3f, 0xa2, 0x3d, 0x70, 0xa8, 0xa5, 0x3d, 0xb8, 0x19, 0xa9, 0x3d,
    0x3c, 0x93, 0xac, 0x3d, 0xf8, 0x14, 0xb0, 0x3d, 0xe0, 0x9e, 0xb3, 0x3d,
    0xe8, 0x30, 0xb7, 0x3d, 0x0c, 0xcb, 0xba, 0x3d, 0x44, 0x6d, 0xbe, 0x3d,
    0x84, 0x17, 0xc2, 0x3d, 0xc0, 0xc9, 0xc5, 0x3d, 0xf8, 0x83, 0xc9, 0x3d,
    0x1c, 0x46, 0xcd, 0x3d, 0x20, 0x10, 0xd1, 0x3d, 0x04, 0xe2, 0xd4, 0x3d,
    0xb8, 0xbb, 0xd8, 0x3d, 0x30, 0x9d, 0xdc, 0x3d, 0x6c, 0x86, 0xe0, 0x3d,
    0x5c, 0x77, 0xe4, 0x3d, 0xf4, 0x6f, 0xe8, 0x3d, 0x2c, 0x70, 0xec, 0x3d,
    0x00, 0x78, 0xf0, 0x3d, 0x60, 0x87, 0xf4, 0x3d, 0x40, 0x9e, 0xf8, 0x3d,
    0x98, 0xbc, 0xfc, 0x3d, 0x32, 0x71, 0x00, 0x3e, 0xca, 0x87, 0x02, 0x3e,
    0x0e, 0xa2, 0x04, 0x3e, 0xfc, 0xbf, 0x06, 0x3e, 0x8a, 0xe1, 0x08, 0x3e,
    0xb8, 0x06, 0x0b, 0x3e, 0x7c, 0x2f, 0x0d, 0x3e, 0xd4, 0x5b, 0x0f, 0x3e,
    0xbc, 0x8b, 0x11, 0x3e, 0x28, 0xbf, 0x13, 0x3e, 0x1c, 0xf6, 0x15, 0x3e,
    0x8a, 0x30, 0x18, 0x3e, 0x6e, 0x6e, 0x1a, 0x3e, 0xc8, 0xaf, 0x1c, 0x3e,
    0x8c, 0xf4, 0x1e, 0x3e, 0xb8, 0x3c, 0x21, 0x3e, 0x44, 0x88, 0x23, 0x3e,
    0x2e, 0xd7, 0x25, 0x3e, 0x6e, 0x29, 0x28, 0x3e, 0xfc, 0x7e, 0x2a, 0x3e,
    0xd8, 0xd7, 0x2c, 0x3e, 0xf8, 0x33, 0x2f, 0x3e, 0x56, 0x93, 0x31, 0x3e,
    0xec, 0xf5, 0x33, 0x3e, 0xb8, 0x5b, 0x36, 0x3e, 0xb0, 0xc4, 0x38, 0x3e,
    0xce, 0x30, 0x3b, 0x3e, 0x10, 0xa0, 0x3d, 0x3e, 0x6c, 0x12, 0x40, 0x3e,
    0xde, 0x87, 0x42, 0x3e, 0x5e, 0x00, 0x45, 0x3e, 0xe8, 0x7b, 0x47, 0x3e,
    0x76, 0xfa, 0x49, 0x3e, 0x00, 0x7c, 0x4c, 0x3e, 0x82, 0x00, 0x4f, 0x3e,
    0xf4, 0x87, 0x51, 0x3e, 0x4e, 0x12, 0x54, 0x3e, 0x8e, 0x9f, 0x56, 0x3e,
    0xac, 0x2f, 0x59, 0x3e, 0xa2, 0xc2, 0x5b, 0x3e, 0x68, 0x58, 0x5e, 0x3e,
    0xf8, 0xf0, 0x60, 0x3e, 0x4e, 0x8c, 0x63, 0x3e, 0x60, 0x2a, 0x66, 0x3e,
    0x2a, 0xcb, 0x68, 0x3e, 0xa4, 0x6e, 0x6b, 0x3e, 0xcc, 0x14, 0x6e, 0x3e,
    0x96, 0xbd, 0x70, 0x3e, 0xfc, 0x68, 0x73, 0x3e, 0xfa, 0x16, 0x76, 0x3e,
    0x88, 0xc7, 0x78, 0x3e, 0xa0, 0x7a, 0x7b, 0x3e, 0x38, 0x30, 0x7e, 0x3e,
    0x27, 0x74, 0x80, 0x3e, 0x6d, 0xd1, 0x81, 0x3e, 0xea, 0x2f, 0x83, 0x3e,
    0x9c, 0x8f, 0x84, 0x3e, 0x7d, 0xf0, 0x85, 0x3e, 0x8c, 0x52, 0x87, 0x3e,
    0xc3, 0xb5, 0x88, 0x3e, 0x22, 0x1a, 0x8a, 0x3e, 0xa4, 0x7f, 0x8b, 0x3e,
    0x46, 0xe6, 0x8c, 0x3e, 0x04, 0x4e, 0x8e, 0x3e, 0xda, 0xb6, 0x8f, 0x3e,
    0xc4, 0x20, 0x91, 0x3e, 0xc0, 0x8b, 0x92, 0x3e, 0xca, 0xf7, 0x93, 0x3e,
    0xe0, 0x64, 0x95, 0x3e, 0xfc, 0xd2, 0x96, 0x3e, 0x1c, 0x42, 0x98, 0x3e,
    0x3c, 0xb2, 0x99, 0x3e, 0x58, 0x23, 0x9b, 0x3e, 0x6b, 0x95, 0x9c, 0x3e,
    0x75, 0x08, 0x9e, 0x3e, 0x72, 0x7c, 0x9f, 0x3e, 0x5c, 0xf1, 0xa0, 0x3e,
    0x30, 0x67, 0xa2, 0x3e, 0xec, 0xdd, 0xa3, 0x3e, 0x8b, 0x55, 0xa5, 0x3e,
    0x08, 0xce, 0xa6, 0x3e, 0x63, 0x47, 0xa8, 0x3e, 0x96, 0xc1, 0xa9, 0x3e,
    0x9e, 0x3c, 0xab, 0x3e, 0x78, 0xb8, 0xac, 0x3e, 0x1e, 0x35, 0xae, 0x3e,
    0x8f, 0xb2, 0xaf, 0x3e, 0xc4, 0x30, 0xb1, 0x3e, 0xbd, 0xaf, 0xb2, 0x3e,
    0x75, 0x2f, 0xb4, 0x3e, 0xe8, 0xaf, 0xb5, 0x3e, 0x12, 0x31, 0xb7, 0x3e,
    0xf0, 0xb2, 0xb8, 0x3e, 0x7e, 0x35, 0xba, 0x3e, 0xb6, 0xb8, 0xbb, 0x3e,
    0x98, 0x3c, 0xbd, 0x3e, 0x20, 0xc1, 0xbe, 0x3e, 0x48, 0x46, 0xc0, 0x3e,
    0x0e, 0xcc, 0xc1, 0x3e, 0x6d, 0x52, 0xc3, 0x3e, 0x60, 0xd9, 0xc4, 0x3e,
    0xe6, 0x60, 0xc6, 0x3e, 0xfc, 0xe8, 0xc7, 0x3e, 0x9b, 0x71, 0xc9, 0x3e,
    0xc0, 0xfa, 0xca, 0x3e, 0x69, 0x84, 0xcc, 0x3e, 0x91, 0x0e, 0xce, 0x3e,
    0x32, 0x99, 0xcf, 0x3e, 0x4c, 0x24, 0xd1, 0x3e, 0xda, 0xaf, 0xd2, 0x3e,
    0xd8, 0x3b, 0xd4, 0x3e, 0x42, 0xc8, 0xd5, 0x3e, 0x14, 0x55, 0xd7, 0x3e,
    0x4a, 0xe2, 0xd8, 0x3e, 0xdf, 0x6f, 0xda, 0x3e, 0xd2, 0xfd, 0xdb, 0x3e,
    0x1f, 0x8c, 0xdd, 0x3e, 0xc0, 0x1a, 0xdf, 0x3e, 0xb3, 0xa9, 0xe0, 0x3e,
    0xf2, 0x38, 0xe2, 0x3e, 0x7c, 0xc8, 0xe3, 0x3e, 0x49, 0x58, 0xe5, 0x3e,
    0x59, 0xe8, 0xe6, 0x3e, 0xa8, 0x78, 0xe8, 0x3e, 0x31, 0x09, 0xea, 0x3e,
    0xf0, 0x99, 0xeb, 0x3e, 0xe1, 0x2a, 0xed, 0x3e, 0x00, 0xbc, 0xee, 0x3e,
    0x49, 0x4d, 0xf0, 0x3e, 0xba, 0xde, 0xf1, 0x3e, 0x4d, 0x70, 0xf3, 0x3e,
    0x00, 0x02, 0xf5, 0x3e, 0xce, 0x93, 0xf6, 0x3e, 0xb3, 0x25, 0xf8, 0x3e,
    0xac, 0xb7, 0xf9, 0x3e, 0xb2, 0x49, 0xfb, 0x3e, 0xc6, 0xdb, 0xfc, 0x3e,
    0xe1, 0x6d, 0xfe, 0x3e, 0x00, 0x00, 0x00, 0x3f, 0x10, 0xc9, 0x00, 0x3f,
    0x1e, 0x92, 0x01, 0x3f, 0x28, 0x5b, 0x02, 0x3f, 0x2b, 0x24, 0x03, 0x3f,
    0x27, 0xed, 0x03, 0x3f, 0x1a, 0xb6, 0x04, 0x3f, 0x01, 0x7f, 0x05, 0x3f,
    0xda, 0x47, 0x06, 0x3f, 0xa4, 0x10, 0x07, 0x3f, 0x5c, 0xd9, 0x07, 0x3f,
    0x01, 0xa2, 0x08, 0x3f, 0x90, 0x6a, 0x09, 0x3f, 0x09, 0x33, 0x0a, 0x3f,
    0x68, 0xfb, 0x0a, 0x3f, 0xad, 0xc3, 0x0b, 0x3f, 0xd4, 0x8b, 0x0c, 0x3f,
    0xdc, 0x53, 0x0d, 0x3f, 0xc3, 0x1b, 0x0e, 0x3f, 0x88, 0xe3, 0x0e, 0x3f,
    0x27, 0xab, 0x0f, 0x3f, 0xa1, 0x72, 0x10, 0x3f, 0xf1, 0x39, 0x11, 0x3f,
    0x18, 0x01, 0x12, 0x3f, 0x11, 0xc8, 0x12, 0x3f, 0xdc, 0x8e, 0x13, 0x3f,
    0x77, 0x55, 0x14, 0x3f, 0xe0, 0x1b, 0x15, 0x3f, 0x15, 0xe2, 0x15, 0x3f,
    0x14, 0xa8, 0x16, 0x3f, 0xdb, 0x6d, 0x17, 0x3f, 0x68, 0x33, 0x18, 0x3f,
    0xb8, 0xf8, 0x18, 0x3f, 0xcc, 0xbd, 0x19, 0x3f, 0xa0, 0x82, 0x1a, 0x3f,
    0x33, 0x47, 0x1b, 0x3f, 0x83, 0x0b, 0x1c, 0x3f, 0x8e, 0xcf, 0x1c, 0x3f,
    0x51, 0x93, 0x1d, 0x3f, 0xca, 0x56, 0x1e, 0x3f, 0xfa, 0x19, 0x1f, 0x3f,
    0xdc, 0xdc, 0x1f, 0x3f, 0x70, 0x9f, 0x20, 0x3f, 0xb4, 0x61, 0x21, 0x3f,
    0xa6, 0x23, 0x22, 0x3f, 0x42, 0xe5, 0x22, 0x3f, 0x88, 0xa6, 0x23, 0x3f,
    0x78, 0x67, 0x24, 0x3f, 0x0c, 0x28, 0x25, 0x3f, 0x46, 0xe8, 0x25, 0x3f,
    0x22, 0xa8, 0x26, 0x3f, 0x9e, 0x67, 0x27, 0x3f, 0xb9, 0x26, 0x28, 0x3f,
    0x71, 0xe5, 0x28, 0x3f, 0xc5, 0xa3, 0x29, 0x3f, 0xb1, 0x61, 0x2a, 0x3f,
    0x35, 0x1f, 0x2b, 0x3f, 0x4f, 0xdc, 0x2b, 0x3f, 0xfc, 0x98, 0x2c, 0x3f,
    0x3b, 0x55, 0x2d, 0x3f, 0x0a, 0x11, 0x2e, 0x3f, 0x68, 0xcc, 0x2e, 0x3f,
    0x53, 0x87, 0x2f, 0x3f, 0xc8, 0x41, 0x30, 0x3f, 0xc6, 0xfb, 0x30, 0x3f,
    0x4b, 0xb5, 0x31, 0x3f, 0x55, 0x6e, 0x32, 0x3f, 0xe3, 0x26, 0x33, 0x3f,
    0xf3, 0xde, 0x33, 0x3f, 0x82, 0x96, 0x34, 0x3f, 0x90, 0x4d, 0x35, 0x3f,
    0x1a, 0x04, 0x36, 0x3f, 0x20, 0xba, 0x36, 0x3f, 0x9e, 0x6f, 0x37, 0x3f,
    0x94, 0x24, 0x38, 0x3f, 0xff, 0xd8, 0x38, 0x3f, 0xde, 0x8c, 0x39, 0x3f,
    0x2e, 0x40, 0x3a, 0x3f, 0xef, 0xf2, 0x3a, 0x3f, 0x1f, 0xa5, 0x3b, 0x3f,
    0xbb, 0x56, 0x3c, 0x3f, 0xc3, 0x07, 0x3d, 0x3f, 0x34, 0xb8, 0x3d, 0x3f,
    0x0c, 0x68, 0x3e, 0x3f, 0x4a, 0x17, 0x3f, 0x3f, 0xec, 0xc5, 0x3f, 0x3f,
    0xf2, 0x73, 0x40, 0x3f, 0x59, 0x21, 0x41, 0x3f, 0x1e, 0xce, 0x41, 0x3f,
    0x42, 0x7a, 0x42, 0x3f, 0xc2, 0x25, 0x43, 0x3f, 0x9c, 0xd0, 0x43, 0x3f,
    0xce, 0x7a, 0x44, 0x3f, 0x58, 0x24, 0x45, 0x3f, 0x36, 0xcd, 0x45, 0x3f,
    0x6a, 0x75, 0x46, 0x3f, 0xee, 0x1c, 0x47, 0x3f, 0xc2, 0xc3, 0x47, 0x3f,
    0xe6, 0x69, 0x48, 0x3f, 0x58, 0x0f, 0x49, 0x3f, 0x16, 0xb4, 0x49, 0x3f,
    0x1d, 0x58, 0x4a, 0x3f, 0x6d, 0xfb, 0x4a, 0x3f, 0x04, 0x9e, 0x4b, 0x3f,
    0xe0, 0x3f, 0x4c, 0x3f, 0x01, 0xe1, 0x4c, 0x3f, 0x64, 0x81, 0x4d, 0x3f,
    0x07, 0x21, 0x4e, 0x3f, 0xea, 0xbf, 0x4e, 0x3f, 0x0a, 0x5e, 0x4f, 0x3f,
    0x66, 0xfb, 0x4f, 0x3f, 0xfc, 0x97, 0x50, 0x3f, 0xcc, 0x33, 0x51, 0x3f,
    0xd4, 0xce, 0x51, 0x3f, 0x12, 0x69, 0x52, 0x3f, 0x86, 0x02, 0x53, 0x3f,
    0x2b, 0x9b, 0x53, 0x3f, 0x03, 0x33, 0x54, 0x3f, 0x0b, 0xca, 0x54, 0x3f,
    0x42, 0x60, 0x55, 0x3f, 0xa6, 0xf5, 0x55, 0x3f, 0x36, 0x8a, 0x56, 0x3f,
    0xf0, 0x1d, 0x57, 0x3f, 0xd4, 0xb0, 0x57, 0x3f, 0xde, 0x42, 0x58, 0x3f,
    0x0e, 0xd4, 0x58, 0x3f, 0x64, 0x64, 0x59, 0x3f, 0xde, 0xf3, 0x59, 0x3f,
    0x79, 0x82, 0x5a, 0x3f, 0x36, 0x10, 0x5b, 0x3f, 0x12, 0x9d, 0x5b, 0x3f,
    0x0b, 0x29, 0x5c, 0x3f, 0x21, 0xb4, 0x5c, 0x3f, 0x52, 0x3e, 0x5d, 0x3f,
    0x9e, 0xc7, 0x5d, 0x3f, 0x02, 0x50, 0x5e, 0x3f, 0x7d, 0xd7, 0x5e, 0x3f,
    0x0e, 0x5e, 0x5f, 0x3f, 0xb4, 0xe3, 0x5f, 0x3f, 0x6c, 0x68, 0x60, 0x3f,
    0x38, 0xec, 0x60, 0x3f, 0x14, 0x6f, 0x61, 0x3f, 0x00, 0xf1, 0x61, 0x3f,
    0xfa, 0x71, 0x62, 0x3f, 0x02, 0xf2, 0x62, 0x3f, 0x15, 0x71, 0x63, 0x3f,
    0x33, 0xef, 0x63, 0x3f, 0x5a, 0x6c, 0x64, 0x3f, 0x8a, 0xe8, 0x64, 0x3f,
    0xc0, 0x63, 0x65, 0x3f, 0xfc, 0xdd, 0x65, 0x3f, 0x3e, 0x57, 0x66, 0x3f,
    0x82, 0xcf, 0x66, 0x3f, 0xc8, 0x46, 0x67, 0x3f, 0x10, 0xbd, 0x67, 0x3f,
    0x58, 0x32, 0x68, 0x3f, 0x9e, 0xa6, 0x68, 0x3f, 0xe3, 0x19, 0x69, 0x3f,
    0x24, 0x8c, 0x69, 0x3f, 0x62, 0xfd, 0x69, 0x3f, 0x99, 0x6d, 0x6a, 0x3f,
    0xca, 0xdc, 0x6a, 0x3f, 0xf3, 0x4a, 0x6b, 0x3f, 0x14, 0xb8, 0x6b, 0x3f,
    0x2a, 0x24, 0x6c, 0x3f, 0x36, 0x8f, 0x6c, 0x3f, 0x36, 0xf9, 0x6c, 0x3f,
    0x28, 0x62, 0x6d, 0x3f, 0x0d, 0xca, 0x6d, 0x3f, 0xe3, 0x30, 0x6e, 0x3f,
    0xaa, 0x96, 0x6e, 0x3f, 0x5f, 0xfb, 0x6e, 0x3f, 0x03, 0x5f, 0x6f, 0x3f,
    0x94, 0xc1, 0x6f, 0x3f, 0x11, 0x23, 0x70, 0x3f, 0x7a, 0x83, 0x70, 0x3f,
    0xcc, 0xe2, 0x70, 0x3f, 0x08, 0x41, 0x71, 0x3f, 0x2e, 0x9e, 0x71, 0x3f,
    0x3a, 0xfa, 0x71, 0x3f, 0x2c, 0x55, 0x72, 0x3f, 0x06, 0xaf, 0x72, 0x3f,
    0xc4, 0x07, 0x73, 0x3f, 0x66, 0x5f, 0x73, 0x3f, 0xec, 0xb5, 0x73, 0x3f,
    0x54, 0x0b, 0x74, 0x3f, 0x9e, 0x5f, 0x74, 0x3f, 0xc9, 0xb2, 0x74, 0x3f,
    0xd4, 0x04, 0x75, 0x3f, 0xbe, 0x55, 0x75, 0x3f, 0x86, 0xa5, 0x75, 0x3f,
    0x2c, 0xf4, 0x75, 0x3f, 0xb0, 0x41, 0x76, 0x3f, 0x0f, 0x8e, 0x76, 0x3f,
    0x4a, 0xd9, 0x76, 0x3f, 0x5f, 0x23, 0x77, 0x3f, 0x4f, 0x6c, 0x77, 0x3f,
    0x18, 0xb4, 0x77, 0x3f, 0xba, 0xfa, 0x77, 0x3f, 0x34, 0x40, 0x78, 0x3f,
    0x84, 0x84, 0x78, 0x3f, 0xac, 0xc7, 0x78, 0x3f, 0xaa, 0x09, 0x79, 0x3f,
    0x7c, 0x4a, 0x79, 0x3f, 0x24, 0x8a, 0x79, 0x3f, 0xa0, 0xc8, 0x79, 0x3f,
    0xef, 0x05, 0x7a, 0x3f, 0x12, 0x42, 0x7a, 0x3f, 0x06, 0x7d, 0x7a, 0x3f,
    0xcc, 0xb6, 0x7a, 0x3f, 0x63, 0xef, 0x7a, 0x3f, 0xcc, 0x26, 0x7b, 0x3f,
    0x04, 0x5d, 0x7b, 0x3f, 0x0c, 0x92, 0x7b, 0x3f, 0xe2, 0xc5, 0x7b, 0x3f,
    0x88, 0xf8, 0x7b, 0x3f, 0xfc, 0x29, 0x7c, 0x3f, 0x3e, 0x5a, 0x7c, 0x3f,
    0x4c, 0x89, 0x7c, 0x3f, 0x28, 0xb7, 0x7c, 0x3f, 0xcf, 0xe3, 0x7c, 0x3f,
    0x42, 0x0f, 0x7d, 0x3f, 0x81, 0x39, 0x7d, 0x3f, 0x8b, 0x62, 0x7d, 0x3f,
    0x60, 0x8a, 0x7d, 0x3f, 0xfe, 0xb0, 0x7d, 0x3f, 0x66, 0xd6, 0x7d, 0x3f,
    0x98, 0xfa, 0x7d, 0x3f, 0x94, 0x1d, 0x7e, 0x3f, 0x58, 0x3f, 0x7e, 0x3f,
    0xe4, 0x5f, 0x7e, 0x3f, 0x3a, 0x7f, 0x7e, 0x3f, 0x56, 0x9d, 0x7e, 0x3f,
    0x3a, 0xba, 0x7e, 0x3f, 0xe6, 0xd5, 0x7e, 0x3f, 0x58, 0xf0, 0x7e, 0x3f,
    0x92, 0x09, 0x7f, 0x3f, 0x92, 0x21, 0x7f, 0x3f, 0x58, 0x38, 0x7f, 0x3f,
    0xe4, 0x4d, 0x7f, 0x3f, 0x36, 0x62, 0x7f, 0x3f, 0x4e, 0x75, 0x7f, 0x3f,
    0x2c, 0x87, 0x7f, 0x3f, 0xcf, 0x97, 0x7f, 0x3f, 0x37, 0xa7, 0x7f, 0x3f,
    0x64, 0xb5, 0x7f, 0x3f, 0x56, 0xc2, 0x7f, 0x3f, 0x0c, 0xce, 0x7f, 0x3f,
    0x88, 0xd8, 0x7f, 0x3f, 0xc8, 0xe1, 0x7f, 0x3f, 0xcc, 0xe9, 0x7f, 0x3f,
    0x94, 0xf0, 0x7f, 0x3f, 0x22, 0xf6, 0x7f, 0x3f, 0x73, 0xfa, 0x7f, 0x3f,
    0x88, 0xfd, 0x7f, 0x3f, 0x62, 0xff, 0x7f, 0x3f, 0x00, 0x00, 0x80, 0x3f,
    0x62, 0xff, 0x7f, 0x3f, 0x88, 0xfd, 0x7f, 0x3f, 0x73, 0xfa, 0x7f, 0x3f,
    0x22, 0xf6, 0x7f, 0x3f, 0x94, 0xf0, 0x7f, 0x3f, 0xcc, 0xe9, 0x7f, 0x3f,
    0xc8, 0xe1, 0x7f, 0x3f, 0x88, 0xd8, 0x7f, 0x3f, 0x0c, 0xce, 0x7f, 0x3f,
    0x56, 0xc2, 0x7f, 0x3f, 0x64, 0xb5, 0x7f, 0x3f, 0x36, 0xa7, 0x7f, 0x3f,
    0xce, 0x97, 0x7f, 0x3f, 0x2c, 0x87, 0x7f, 0x3f, 0x4e, 0x75, 0x7f, 0x3f,
    0x36, 0x62, 0x7f, 0x3f, 0xe4, 0x4d, 0x7f, 0x3f, 0x58, 0x38, 0x7f, 0x3f,
    0x92, 0x21, 0x7f, 0x3f, 0x92, 0x09, 0x7f, 0x3f, 0x58, 0xf0, 0x7e, 0x3f,
    0xe6, 0xd5, 0x7e, 0x3f, 0x3a, 0xba, 0x7e, 0x3f, 0x56, 0x9d, 0x7e, 0x3f,
    0x3a, 0x7f, 0x7e, 0x3f, 0xe4, 0x5f, 0x7e, 0x3f, 0x58, 0x3f, 0x7e, 0x3f,
    0x94, 0x1d, 0x7e, 0x3f, 0x98, 0xfa, 0x7d, 0x3f, 0x66, 0xd6, 0x7d, 0x3f,
    0xfe, 0xb0, 0x7d, 0x3f, 0x5f, 0x8a, 0x7d, 0x3f, 0x8a, 0x62, 0x7d, 0x3f,
    0x80, 0x39, 0x7d, 0x3f, 0x42, 0x0f, 0x7d, 0x3f, 0xce, 0xe3, 0x7c, 0x3f,
    0x27, 0xb7, 0x7c, 0x3f, 0x4c, 0x89, 0x7c, 0x3f, 0x3d, 0x5a, 0x7c, 0x3f,
    0xfc, 0x29, 0x7c, 0x3f, 0x88, 0xf8, 0x7b, 0x3f, 0xe2, 0xc5, 0x7b, 0x3f,
    0x0b, 0x92, 0x7b, 0x3f, 0x04, 0x5d, 0x7b, 0x3f, 0xcb, 0x26, 0x7b, 0x3f,
    0x62, 0xef, 0x7a, 0x3f, 0xcb, 0xb6, 0x7a, 0x3f, 0x05, 0x7d, 0x7a, 0x3f,
    0x11, 0x42, 0x7a, 0x3f, 0xee, 0x05, 0x7a, 0x3f, 0xa0, 0xc8, 0x79, 0x3f,
    0x24, 0x8a, 0x79, 0x3f, 0x7c, 0x4a, 0x79, 0x3f, 0xa9, 0x09, 0x79, 0x3f,
    0xac, 0xc7, 0x78, 0x3f, 0x84, 0x84, 0x78, 0x3f, 0x33, 0x40, 0x78, 0x3f,
    0xb9, 0xfa, 0x77, 0x3f, 0x18, 0xb4, 0x77, 0x3f, 0x4e, 0x6c, 0x77, 0x3f,
    0x5e, 0x23, 0x77, 0x3f, 0x49, 0xd9, 0x76, 0x3f, 0x0e, 0x8e, 0x76, 0x3f,
    0xaf, 0x41, 0x76, 0x3f, 0x2c, 0xf4, 0x75, 0x3f, 0x86, 0xa5, 0x75, 0x3f,
    0xbd, 0x55, 0x75, 0x3f, 0xd3, 0x04, 0x75, 0x3f, 0xc8, 0xb2, 0x74, 0x3f,
    0x9e, 0x5f, 0x74, 0x3f, 0x54, 0x0b, 0x74, 0x3f, 0xec, 0xb5, 0x73, 0x3f,
    0x66, 0x5f, 0x73, 0x3f, 0xc3, 0x07, 0x73, 0x3f, 0x05, 0xaf, 0x72, 0x3f,
    0x2c, 0x55, 0x72, 0x3f, 0x3a, 0xfa, 0x71, 0x3f, 0x2d, 0x9e, 0x71, 0x3f,
    0x08, 0x41, 0x71, 0x3f, 0xcc, 0xe2, 0x70, 0x3f, 0x78, 0x83, 0x70, 0x3f,
    0x10, 0x23, 0x70, 0x3f, 0x93, 0xc1, 0x6f, 0x3f, 0x02, 0x5f, 0x6f, 0x3f,
    0x5e, 0xfb, 0x6e, 0x3f, 0xa9, 0x96, 0x6e, 0x3f, 0xe2, 0x30, 0x6e, 0x3f,
    0x0c, 0xca, 0x6d, 0x3f, 0x27, 0x62, 0x6d, 0x3f, 0x35, 0xf9, 0x6c, 0x3f,
    0x35, 0x8f, 0x6c, 0x3f, 0x2a, 0x24, 0x6c, 0x3f, 0x13, 0xb8, 0x6b, 0x3f,
    0xf2, 0x4a, 0x6b, 0x3f, 0xc9, 0xdc, 0x6a, 0x3f, 0x98, 0x6d, 0x6a, 0x3f,
    0x61, 0xfd, 0x69, 0x3f, 0x24, 0x8c, 0x69, 0x3f, 0xe2, 0x19, 0x69, 0x3f,
    0x9e, 0xa6, 0x68, 0x3f, 0x57, 0x32, 0x68, 0x3f, 0x0f, 0xbd, 0x67, 0x3f,
    0xc7, 0x46, 0x67, 0x3f, 0x82, 0xcf, 0x66, 0x3f, 0x3d, 0x57, 0x66, 0x3f,
    0xfc, 0xdd, 0x65, 0x3f, 0xc0, 0x63, 0x65, 0x3f, 0x89, 0xe8, 0x64, 0x3f,
    0x5a, 0x6c, 0x64, 0x3f, 0x32, 0xef, 0x63, 0x3f, 0x14, 0x71, 0x63, 0x3f,
    0x01, 0xf2, 0x62, 0x3f, 0xfa, 0x71, 0x62, 0x3f, 0x00, 0xf1, 0x61, 0x3f,
    0x14, 0x6f, 0x61, 0x3f, 0x38, 0xec, 0x60, 0x3f, 0x6c, 0x68, 0x60, 0x3f,
    0xb4, 0xe3, 0x5f, 0x3f, 0x0e, 0x5e, 0x5f, 0x3f, 0x7c, 0xd7, 0x5e, 0x3f,
    0x01, 0x50, 0x5e, 0x3f, 0x9e, 0xc7, 0x5d, 0x3f, 0x52, 0x3e, 0x5d, 0x3f,
    0x20, 0xb4, 0x5c, 0x3f, 0x0a, 0x29, 0x5c, 0x3f, 0x11, 0x9d, 0x5b, 0x3f,
    0x35, 0x10, 0x5b, 0x3f, 0x79, 0x82, 0x5a, 0x3f, 0xdd, 0xf3, 0x59, 0x3f,
    0x63, 0x64, 0x59, 0x3f, 0x0d, 0xd4, 0x58, 0x3f, 0xdd, 0x42, 0x58, 0x3f,
    0xd2, 0xb0, 0x57, 0x3f, 0xef, 0x1d, 0x57, 0x3f, 0x34, 0x8a, 0x56, 0x3f,
    0xa4, 0xf5, 0x55, 0x3f, 0x40, 0x60, 0x55, 0x3f, 0x0a, 0xca, 0x54, 0x3f,
    0x02, 0x33, 0x54, 0x3f, 0x2c, 0x9b, 0x53, 0x3f, 0x86, 0x02, 0x53, 0x3f,
    0x13, 0x69, 0x52, 0x3f, 0xd5, 0xce, 0x51, 0x3f, 0xcd, 0x33, 0x51, 0x3f,
    0xfc, 0x97, 0x50, 0x3f, 0x66, 0xfb, 0x4f, 0x3f, 0x09, 0x5e, 0x4f, 0x3f,
    0xe8, 0xbf, 0x4e, 0x3f, 0x06, 0x21, 0x4e, 0x3f, 0x62, 0x81, 0x4d, 0x3f,
    0x00, 0xe1, 0x4c, 0x3f, 0xe0, 0x3f, 0x4c, 0x3f, 0x03, 0x9e, 0x4b, 0x3f,
    0x6c, 0xfb, 0x4a, 0x3f, 0x1c, 0x58, 0x4a, 0x3f, 0x14, 0xb4, 0x49, 0x3f,
    0x56, 0x0f, 0x49, 0x3f, 0xe5, 0x69, 0x48, 0x3f, 0xc0, 0xc3, 0x47, 0x3f,
    0xeb, 0x1c, 0x47, 0x3f, 0x66, 0x75, 0x46, 0x3f, 0x34, 0xcd, 0x45, 0x3f,
    0x54, 0x24, 0x45, 0x3f, 0xcb, 0x7a, 0x44, 0x3f, 0x98, 0xd0, 0x43, 0x3f,
    0xbf, 0x25, 0x43, 0x3f, 0x42, 0x7a, 0x42, 0x3f, 0x1f, 0xce, 0x41, 0x3f,
    0x59, 0x21, 0x41, 0x3f, 0xf2, 0x73, 0x40, 0x3f, 0xed, 0xc5, 0x3f, 0x3f,
    0x4a, 0x17, 0x3f, 0x3f, 0x0b, 0x68, 0x3e, 0x3f, 0x32, 0xb8, 0x3d, 0x3f,
    0xc2, 0x07, 0x3d, 0x3f, 0xba, 0x56, 0x3c, 0x3f, 0x1e, 0xa5, 0x3b, 0x3f,
    0xee, 0xf2, 0x3a, 0x3f, 0x2d, 0x40, 0x3a, 0x3f, 0xdc, 0x8c, 0x39, 0x3f,
    0xfe, 0xd8, 0x38, 0x3f, 0x92, 0x24, 0x38, 0x3f, 0x9d, 0x6f, 0x37, 0x3f,
    0x1f, 0xba, 0x36, 0x3f, 0x19, 0x04, 0x36, 0x3f, 0x8f, 0x4d, 0x35, 0x3f,
    0x80, 0x96, 0x34, 0x3f, 0xf0, 0xde, 0x33, 0x3f, 0xe1, 0x26, 0x33, 0x3f,
    0x52, 0x6e, 0x32, 0x3f, 0x48, 0xb5, 0x31, 0x3f, 0xc3, 0xfb, 0x30, 0x3f,
    0xc5, 0x41, 0x30, 0x3f, 0x53, 0x87, 0x2f, 0x3f, 0x69, 0xcc, 0x2e, 0x3f,
    0x0b, 0x11, 0x2e, 0x3f, 0x3c, 0x55, 0x2d, 0x3f, 0xfc, 0x98, 0x2c, 0x3f,
    0x4f, 0xdc, 0x2b, 0x3f, 0x35, 0x1f, 0x2b, 0x3f, 0xb1, 0x61, 0x2a, 0x3f,
    0xc4, 0xa3, 0x29, 0x3f, 0x71, 0xe5, 0x28, 0x3f, 0xb9, 0x26, 0x28, 0x3f,
    0x9e, 0x67, 0x27, 0x3f, 0x21, 0xa8, 0x26, 0x3f, 0x45, 0xe8, 0x25, 0x3f,
    0x0c, 0x28, 0x25, 0x3f, 0x76, 0x67, 0x24, 0x3f, 0x87, 0xa6, 0x23, 0x3f,
    0x40, 0xe5, 0x22, 0x3f, 0xa3, 0x23, 0x22, 0x3f, 0xb2, 0x61, 0x21, 0x3f,
    0x6e, 0x9f, 0x20, 0x3f, 0xda, 0xdc, 0x1f, 0x3f, 0xf7, 0x19, 0x1f, 0x3f,
    0xc8, 0x56, 0x1e, 0x3f, 0x4d, 0x93, 0x1d, 0x3f, 0x8a, 0xcf, 0x1c, 0x3f,
    0x80, 0x0b, 0x1c, 0x3f, 0x30, 0x47, 0x1b, 0x3f, 0xa1, 0x82, 0x1a, 0x3f,
    0xcd, 0xbd, 0x19, 0x3f, 0xb9, 0xf8, 0x18, 0x3f, 0x67, 0x33, 0x18, 0x3f,
    0xda, 0x6d, 0x17, 0x3f, 0x13, 0xa8, 0x16, 0x3f, 0x14, 0xe2, 0x15, 0x3f,
    0xdf, 0x1b, 0x15, 0x3f, 0x76, 0x55, 0x14, 0x3f, 0xdb, 0x8e, 0x13, 0x3f,
    0x10, 0xc8, 0x12, 0x3f, 0x16, 0x01, 0x12, 0x3f, 0xf0, 0x39, 0x11, 0x3f,
    0x9f, 0x72, 0x10, 0x3f, 0x26, 0xab, 0x0f, 0x3f, 0x86, 0xe3, 0x0e, 0x3f,
    0xc1, 0x1b, 0x0e, 0x3f, 0xda, 0x53, 0x0d, 0x3f, 0xd2, 0x8b, 0x0c, 0x3f,
    0xaa, 0xc3, 0x0b, 0x3f, 0x66, 0xfb, 0x0a, 0x3f, 0x06, 0x33, 0x0a, 0x3f,
    0x8e, 0x6a, 0x09, 0x3f, 0xfe, 0xa1, 0x08, 0x3f, 0x59, 0xd9, 0x07, 0x3f,
    0xa0, 0x10, 0x07, 0x3f, 0xd7, 0x47, 0x06, 0x3f, 0xfd, 0x7e, 0x05, 0x3f,
    0x1a, 0xb6, 0x04, 0x3f, 0x28, 0xed, 0x03, 0x3f, 0x2b, 0x24, 0x03, 0x3f,
    0x27, 0x5b, 0x02, 0x3f, 0x1d, 0x92, 0x01, 0x3f, 0x10, 0xc9, 0x00, 0x3f,
    0x00, 0x00, 0x00, 0x3f, 0xe0, 0x6d, 0xfe, 0x3e, 0xc5, 0xdb, 0xfc, 0x3e,
    0xb1, 0x49, 0xfb, 0x3e, 0xa9, 0xb7, 0xf9, 0x3e, 0xb1, 0x25, 0xf8, 0x3e,
    0xcb, 0x93, 0xf6, 0x3e, 0xfd, 0x01, 0xf5, 0x3e, 0x4a, 0x70, 0xf3, 0x3e,
    0xb7, 0xde, 0xf1, 0x3e, 0x46, 0x4d, 0xf0, 0x3e, 0xfb, 0xbb, 0xee, 0x3e,
    0xdc, 0x2a, 0xed, 0x3e, 0xea, 0x99, 0xeb, 0x3e, 0x2c, 0x09, 0xea, 0x3e,
    0xa3, 0x78, 0xe8, 0x3e, 0x54, 0xe8, 0xe6, 0x3e, 0x44, 0x58, 0xe5, 0x3e,
    0x75, 0xc8, 0xe3, 0x3e, 0xec, 0x38, 0xe2, 0x3e, 0xac, 0xa9, 0xe0, 0x3e,
    0xc1, 0x1a, 0xdf, 0x3e, 0x20, 0x8c, 0xdd, 0x3e, 0xd3, 0xfd, 0xdb, 0x3e,
    0xe0, 0x6f, 0xda, 0x3e, 0x49, 0xe2, 0xd8, 0x3e, 0x13, 0x55, 0xd7, 0x3e,
    0x41, 0xc8, 0xd5, 0x3e, 0xd7, 0x3b, 0xd4, 0x3e, 0xd9, 0xaf, 0xd2, 0x3e,
    0x4b, 0x24, 0xd1, 0x3e, 0x31, 0x99, 0xcf, 0x3e, 0x8e, 0x0e, 0xce, 0x3e,
    0x66, 0x84, 0xcc, 0x3e, 0xbe, 0xfa, 0xca, 0x3e, 0x98, 0x71, 0xc9, 0x3e,
    0xf8, 0xe8, 0xc7, 0x3e, 0xe4, 0x60, 0xc6, 0x3e, 0x5d, 0xd9, 0xc4, 0x3e,
    0x68, 0x52, 0xc3, 0x3e, 0x09, 0xcc, 0xc1, 0x3e, 0x44, 0x46, 0xc0, 0x3e,
    0x1c, 0xc1, 0xbe, 0x3e, 0x94, 0x3c, 0xbd, 0x3e, 0xb2, 0xb8, 0xbb, 0x3e,
    0x78, 0x35, 0xba, 0x3e, 0xea, 0xb2, 0xb8, 0x3e, 0x0c, 0x31, 0xb7, 0x3e,
    0xe2, 0xaf, 0xb5, 0x3e, 0x76, 0x2f, 0xb4, 0x3e, 0xbe, 0xaf, 0xb2, 0x3e,
    0xc5, 0x30, 0xb1, 0x3e, 0x8e, 0xb2, 0xaf, 0x3e, 0x1e, 0x35, 0xae, 0x3e,
    0x77, 0xb8, 0xac, 0x3e, 0x9e, 0x3c, 0xab, 0x3e, 0x96, 0xc1, 0xa9, 0x3e,
    0x62, 0x47, 0xa8, 0x3e, 0x08, 0xce, 0xa6, 0x3e, 0x89, 0x55, 0xa5, 0x3e,
    0xea, 0xdd, 0xa3, 0x3e, 0x2e, 0x67, 0xa2, 0x3e, 0x5a, 0xf1, 0xa0, 0x3e,
    0x6f, 0x7c, 0x9f, 0x3e, 0x73, 0x08, 0x9e, 0x3e, 0x68, 0x95, 0x9c, 0x3e,
    0x54, 0x23, 0x9b, 0x3e, 0x37, 0xb2, 0x99, 0x3e, 0x18, 0x42, 0x98, 0x3e,
    0xf8, 0xd2, 0x96, 0x3e, 0xdc, 0x64, 0x95, 0x3e, 0xc6, 0xf7, 0x93, 0x3e,
    0xbc, 0x8b, 0x92, 0x3e, 0xbe, 0x20, 0x91, 0x3e, 0xd4, 0xb6, 0x8f, 0x3e,
    0xfe, 0x4d, 0x8e, 0x3e, 0x40, 0xe6, 0x8c, 0x3e, 0xa6, 0x7f, 0x8b, 0x3e,
    0x24, 0x1a, 0x8a, 0x3e, 0xc4, 0xb5, 0x88, 0x3e, 0x8c, 0x52, 0x87, 0x3e,
    0x7c, 0xf0, 0x85, 0x3e, 0x9b, 0x8f, 0x84, 0x3e, 0xea, 0x2f, 0x83, 0x3e,
    0x6c, 0xd1, 0x81, 0x3e, 0x26, 0x74, 0x80, 0x3e, 0x36, 0x30, 0x7e, 0x3e,
    0x9c, 0x7a, 0x7b, 0x3e, 0x84, 0xc7, 0x78, 0x3e, 0xf6, 0x16, 0x76, 0x3e,
    0xf8, 0x68, 0x73, 0x3e, 0x90, 0xbd, 0x70, 0x3e, 0xc6, 0x14, 0x6e, 0x3e,
    0xa0, 0x6e, 0x6b, 0x3e, 0x24, 0xcb, 0x68, 0x3e, 0x5a, 0x2a, 0x66, 0x3e,
    0x46, 0x8c, 0x63, 0x3e, 0xf0, 0xf0, 0x60, 0x3e, 0x5e, 0x58, 0x5e, 0x3e,
    0x98, 0xc2, 0x5b, 0x3e, 0xa2, 0x2f, 0x59, 0x3e, 0x84, 0x9f, 0x56, 0x3e,
    0x44, 0x12, 0x54, 0x3e, 0xe8, 0x87, 0x51, 0x3e, 0x82, 0x00, 0x4f, 0x3e,
    0x02, 0x7c, 0x4c, 0x3e, 0x76, 0xfa, 0x49, 0x3e, 0xe8, 0x7b, 0x47, 0x3e,
    0x5e, 0x00, 0x45, 0x3e, 0xdc, 0x87, 0x42, 0x3e, 0x6a, 0x12, 0x40, 0x3e,
    0x0e, 0xa0, 0x3d, 0x3e, 0xcc, 0x30, 0x3b, 0x3e, 0xac, 0xc4, 0x38, 0x3e,
    0xb4, 0x5b, 0x36, 0x3e, 0xea, 0xf5, 0x33, 0x3e, 0x52, 0x93, 0x31, 0x3e,
    0xf2, 0x33, 0x2f, 0x3e, 0xd4, 0xd7, 0x2c, 0x3e, 0xf8, 0x7e, 0x2a, 0x3e,
    0x68, 0x29, 0x28, 0x3e, 0x28, 0xd7, 0x25, 0x3e, 0x40, 0x88, 0x23, 0x3e,
    0xb2, 0x3c, 0x21, 0x3e, 0x84, 0xf4, 0x1e, 0x3e, 0xc0, 0xaf, 0x1c, 0x3e,
    0x68, 0x6e, 0x1a, 0x3e, 0x82, 0x30, 0x18, 0x3e, 0x10, 0xf6, 0x15, 0x3e,
    0x20, 0xbf, 0x13, 0x3e, 0xb2, 0x8b, 0x11, 0x3e, 0xcc, 0x5b, 0x0f, 0x3e,
    0x7e, 0x2f, 0x0d, 0x3e, 0xb8, 0x06, 0x0b, 0x3e, 0x8a, 0xe1, 0x08, 0x3e,
    0xfc, 0xbf, 0x06, 0x3e, 0x0e, 0xa2, 0x04, 0x3e, 0xc8, 0x87, 0x02, 0x3e,
    0x30, 0x71, 0x00, 0x3e, 0x98, 0xbc, 0xfc, 0x3d, 0x3c, 0x9e, 0xf8, 0x3d,
    0x58, 0x87, 0xf4, 0x3d, 0xf8, 0x77, 0xf0, 0x3d, 0x28, 0x70, 0xec, 0x3d,
    0xec, 0x6f, 0xe8, 0x3d, 0x54, 0x77, 0xe4, 0x3d, 0x64, 0x86, 0xe0, 0x3d,
    0x28, 0x9d, 0xdc, 0x3d, 0xb0, 0xbb, 0xd8, 0x3d, 0xf8, 0xe1, 0xd4, 0x3d,
    0x18, 0x10, 0xd1, 0x3d, 0x10, 0x46, 0xcd, 0x3d, 0xec, 0x83, 0xc9, 0x3d,
    0xb8, 0xc9, 0xc5, 0x3d, 0x78, 0x17, 0xc2, 0x3d, 0x38, 0x6d, 0xbe, 0x3d,
    0x00, 0xcb, 0xba, 0x3d, 0xd8, 0x30, 0xb7, 0x3d, 0xd0, 0x9e, 0xb3, 0x3d,
    0xe8, 0x14, 0xb0, 0x3d, 0x3c, 0x93, 0xac, 0x3d, 0xb8, 0x19, 0xa9, 0x3d,
    0x70, 0xa8, 0xa5, 0x3d, 0x68, 0x3f, 0xa2, 0x3d, 0xb4, 0xde, 0x9e, 0x3d,
    0x58, 0x86, 0x9b, 0x3d, 0x58, 0x36, 0x98, 0x3d, 0xc0, 0xee, 0x94, 0x3d,
    0x94, 0xaf, 0x91, 0x3d, 0xe0, 0x78, 0x8e, 0x3d, 0xb0, 0x4a, 0x8b, 0x3d,
    0x04, 0x25, 0x88, 0x3d, 0xe8, 0x07, 0x85, 0x3d, 0x60, 0xf3, 0x81, 0x3d,
    0xe8, 0xce, 0x7d, 0x3d, 0x60, 0xc8, 0x77, 0x3d, 0x38, 0xd3, 0x71, 0x3d,
    0x70, 0xef, 0x6b, 0x3d, 0x20, 0x1d, 0x66, 0x3d, 0x58, 0x5c, 0x60, 0x3d,
    0x28, 0xad, 0x5a, 0x3d, 0x90, 0x0f, 0x55, 0x3d, 0xb0, 0x83, 0x4f, 0x3d,
    0x88, 0x09, 0x4a, 0x3d, 0x30, 0xa1, 0x44, 0x3d, 0xa8, 0x4a, 0x3f, 0x3d,
    0x10, 0x06, 0x3a, 0x3d, 0x80, 0xd3, 0x34, 0x3d, 0xd0, 0xb2, 0x2f, 0x3d,
    0x30, 0xa4, 0x2a, 0x3d, 0xa0, 0xa7, 0x25, 0x3d, 0x40, 0xbd, 0x20, 0x3d,
    0x08, 0xe5, 0x1b, 0x3d, 0x10, 0x1f, 0x17, 0x3d, 0x68, 0x6b, 0x12, 0x3d,
    0x08, 0xca, 0x0d, 0x3d, 0x10, 0x3b, 0x09, 0x3d, 0x80, 0xbe, 0x04, 0x3d,
    0x60, 0x54, 0x00, 0x3d, 0x90, 0xf9, 0xf7, 0x3c, 0x70, 0x6f, 0xef, 0x3c,
    0x80, 0x0a, 0xe7, 0x3c, 0xd0, 0xca, 0xde, 0x3c, 0x70, 0xb0, 0xd6, 0x3c,
    0x80, 0xbb, 0xce, 0x3c, 0x00, 0xec, 0xc6, 0x3c, 0x10, 0x42, 0xbf, 0x3c,
    0xd0, 0xbd, 0xb7, 0x3c, 0x40, 0x5f, 0xb0, 0x3c, 0x70, 0x26, 0xa9, 0x3c,
    0x80, 0x13, 0xa2, 0x3c, 0x80, 0x26, 0x9b, 0x3c, 0x70, 0x5f, 0x94, 0x3c,
    0x70, 0xbe, 0x8d, 0x3c, 0x90, 0x43, 0x87, 0x3c, 0x00, 0xef, 0x80, 0x3c,
    0x00, 0x81, 0x75, 0x3c, 0xa0, 0x70, 0x69, 0x3c, 0x00, 0xad, 0x5d, 0x3c,
    0x40, 0x36, 0x52, 0x3c, 0x40, 0x0c, 0x47, 0x3c, 0x80, 0x2f, 0x3c, 0x3c,
    0xc0, 0x9f, 0x31, 0x3c, 0x40, 0x5d, 0x27, 0x3c, 0x20, 0x68, 0x1d, 0x3c,
    0x80, 0xc0, 0x13, 0x3c, 0x40, 0x66, 0x0a, 0x3c, 0xc0, 0x59, 0x01, 0x3c,
    0x00, 0x36, 0xf1, 0x3b, 0xc0, 0x53, 0xe0, 0x3b, 0x80, 0x0d, 0xd0, 0x3b,
    0x40, 0x63, 0xc0, 0x3b, 0xc0, 0x54, 0xb1, 0x3b, 0xc0, 0xe2, 0xa2, 0x3b,
    0x00, 0x0d, 0x95, 0x3b, 0xc0, 0xd3, 0x87, 0x3b, 0x00, 0x6e, 0x76, 0x3b,
    0x00, 0x6e, 0x5e, 0x3b, 0x80, 0xa7, 0x47, 0x3b, 0x80, 0x1b, 0x32, 0x3b,
    0x00, 0xc9, 0x1d, 0x3b, 0x00, 0xb1, 0x0a, 0x3b, 0x00, 0xa8, 0xf1, 0x3a,
    0x00, 0x63, 0xd0, 0x3a, 0x00, 0x93, 0xb1, 0x3a, 0x00, 0x39, 0x95, 0x3a,
    0x00, 0xaa, 0x76, 0x3a, 0x00, 0xce, 0x47, 0x3a, 0x00, 0xe2, 0x1d, 0x3a,
    0x00, 0xc4, 0xf1, 0x39, 0x00, 0xa0, 0xb1, 0x39, 0x00, 0xb8, 0x76, 0x39,
    0x00, 0xe8, 0x1d, 0x39, 0x00, 0xa0, 0xb1, 0x38, 0x00, 0xe0, 0x1d, 0x38,
    0x00, 0x00, 0x1e, 0x37, 0xfe, 0xfa, 0xff, 0xff, 0x04, 0x00, 0x00, 0x00,
    0x04, 0x00, 0x00, 0x00, 0xfe, 0xff, 0xff, 0xff, 0x0e, 0xfb, 0xff, 0xff,
    0x04, 0x00, 0x00, 0x00, 0x08, 0x00, 0x00, 0x00, 0x01, 0x00, 0x00, 0x00,
    0x00, 0x04, 0x00, 0x00, 0x22, 0xfb, 0xff, 0xff, 0x04, 0x00, 0x00, 0x00,
    0x08, 0x00, 0x00, 0x00, 0xff, 0xff, 0xff, 0xff, 0x01, 0x02, 0x00, 0x00,
    0x44, 0xee, 0xff, 0xff, 0x48, 0xee, 0xff, 0xff, 0x0f, 0x00, 0x00, 0x00,
    0x4d, 0x4c, 0x49, 0x52, 0x20, 0x43, 0x6f, 0x6e, 0x76, 0x65, 0x72, 0x74,
    0x65, 0x64, 0x2e, 0x00, 0x01, 0x00, 0x00, 0x00, 0x14, 0x00, 0x00, 0x00,
    0x00, 0x00, 0x0e, 0x00, 0x18, 0x00, 0x14, 0x00, 0x10, 0x00, 0x0c, 0x00,
    0x08, 0x00, 0x04, 0x00, 0x0e, 0x00, 0x00, 0x00, 0x14, 0x00, 0x00, 0x00,
    0x1c, 0x00, 0x00, 0x00, 0xfc, 0x04, 0x00, 0x00, 0x00, 0x05, 0x00, 0x00,
    0x04, 0x05, 0x00, 0x00, 0x04, 0x00, 0x00, 0x00, 0x6d, 0x61, 0x69, 0x6e,
    0x00, 0x00, 0x00, 0x00, 0x19, 0x00, 0x00, 0x00, 0xac, 0x04, 0x00, 0x00,
    0x50, 0x04, 0x00, 0x00, 0x18, 0x04, 0x00, 0x00, 0xe4, 0x03, 0x00, 0x00,
    0xac, 0x03, 0x00, 0x00, 0x78, 0x03, 0x00, 0x00, 0x50, 0x03, 0x00, 0x00,
    0x14, 0x03, 0x00, 0x00, 0xec, 0x02, 0x00, 0x00, 0xb8, 0x02, 0x00, 0x00,
    0x90, 0x02, 0x00, 0x00, 0x5c, 0x02, 0x00, 0x00, 0x34, 0x02, 0x00, 0x00,
    0xfc, 0x01, 0x00, 0x00, 0xc4, 0x01, 0x00, 0x00, 0x98, 0x01, 0x00, 0x00,
    0x70, 0x01, 0x00, 0x00, 0x3c, 0x01, 0x00, 0x00, 0x08, 0x01, 0x00, 0x00,
    0xe0, 0x00, 0x00, 0x00, 0xac, 0x00, 0x00, 0x00, 0x78, 0x00, 0x00, 0x00,
    0x50, 0x00, 0x00, 0x00, 0x28, 0x00, 0x00, 0x00, 0x04, 0x00, 0x00, 0x00,
    0x4e, 0xfc, 0xff, 0xff, 0x0c, 0x00, 0x00, 0x00, 0x10, 0x00, 0x00, 0x00,
    0x0e, 0x00, 0x00, 0x00, 0x01, 0x00, 0x00, 0x00, 0x28, 0x00, 0x00, 0x00,
    0x01, 0x00, 0x00, 0x00, 0x27, 0x00, 0x00, 0x00, 0x6e, 0xfc, 0xff, 0xff,
    0x0c, 0x00, 0x00, 0x00, 0x10, 0x00, 0x00, 0x00, 0x02, 0x00, 0x00, 0x00,
    0x01, 0x00, 0x00, 0x00, 0x27, 0x00, 0x00, 0x00, 0x02, 0x00, 0x00, 0x00,
    0x26, 0x00, 0x00, 0x00, 0x01, 0x00, 0x00, 0x00, 0x92, 0xfc, 0xff, 0xff,
    0x0c, 0x00, 0x00, 0x00, 0x10, 0x00, 0x00, 0x00, 0x0d, 0x00, 0x00, 0x00,
    0x01, 0x00, 0x00, 0x00, 0x26, 0x00, 0x00, 0x00, 0x02, 0x00, 0x00, 0x00,
    0x25, 0x00, 0x00, 0x00, 0x02, 0x00, 0x00, 0x00, 0x86, 0xfc, 0xff, 0xff,
    0x14, 0x00, 0x00, 0x00, 0x00, 0x00, 0x00, 0x34, 0x10, 0x00, 0x00, 0x00,
    0x14, 0x00, 0x00, 0x00, 0x0c, 0x00, 0x00, 0x00, 0x84, 0xef, 0xff, 0xff,
    0x01, 0x00, 0x00, 0x00, 0x25, 0x00, 0x00, 0x00, 0x02, 0x00, 0x00, 0x00,
    0x24, 0x00, 0x00, 0x00, 0x03, 0x00, 0x00, 0x00, 0xb6, 0xfc, 0xff, 0xff,
    0x14, 0x00, 0x00, 0x00, 0x00, 0x00, 0x00, 0x15, 0x10, 0x00, 0x00, 0x00,
    0x14, 0x00, 0x00, 0x00, 0x05, 0x00, 0x00, 0x00, 0xb4, 0xef, 0xff, 0xff,
    0x01, 0x00, 0x00, 0x00, 0x24, 0x00, 0x00, 0x00, 0x02, 0x00, 0x00, 0x00,
    0x23, 0x00, 0x00, 0x00, 0x04, 0x00, 0x00, 0x00, 0x16, 0xfd, 0xff, 0xff,
    0x0c, 0x00, 0x00, 0x00, 0x10, 0x00, 0x00, 0x00, 0x02, 0x00, 0x00, 0x00,
    0x01, 0x00, 0x00, 0x00, 0x23, 0x00, 0x00, 0x00, 0x02, 0x00, 0x00, 0x00,
    0x22, 0x00, 0x00, 0x00, 0x1e, 0x00, 0x00, 0x00, 0x0a, 0xfd, 0xff, 0xff,
    0x14, 0x00, 0x00, 0x00, 0x00, 0x00, 0x00, 0x17, 0x10, 0x00, 0x00, 0x00,
    0x14, 0x00, 0x00, 0x00, 0x0b, 0x00, 0x00, 0x00, 0x08, 0xf0, 0xff, 0xff,
    0x01, 0x00, 0x00, 0x00, 0x22, 0x00, 0x00, 0x00, 0x02, 0x00, 0x00, 0x00,
    0x18, 0x00, 0x00, 0x00, 0x21, 0x00, 0x00, 0x00, 0x3a, 0xfd, 0xff, 0xff,
    0x14, 0x00, 0x00, 0x00, 0x00, 0x00, 0x00, 0x0b, 0x10, 0x00, 0x00, 0x00,
    0x14, 0x00, 0x00, 0x00, 0x08, 0x00, 0x00, 0x00, 0x38, 0xf0, 0xff, 0xff,
    0x01, 0x00, 0x00, 0x00, 0x21, 0x00, 0x00, 0x00, 0x02, 0x00, 0x00, 0x00,
    0x20, 0x00, 0x00, 0x00, 0x06, 0x00, 0x00, 0x00, 0x9a, 0xfd, 0xff, 0xff,
    0x0c, 0x00, 0x00, 0x00, 0x10, 0x00, 0x00, 0x00, 0x02, 0x00, 0x00, 0x00,
    0x01, 0x00, 0x00, 0x00, 0x20, 0x00, 0x00, 0x00, 0x02, 0x00, 0x00, 0x00,
    0x1f, 0x00, 0x00, 0x00, 0x1d, 0x00, 0x00, 0x00, 0xbe, 0xfd, 0xff, 0xff,
    0x0c, 0x00, 0x00, 0x00, 0x10, 0x00, 0x00, 0x00, 0x0a, 0x00, 0x00, 0x00,
    0x01, 0x00, 0x00, 0x00, 0x1f, 0x00, 0x00, 0x00, 0x03, 0x00, 0x00, 0x00,
    0x08, 0x00, 0x00, 0x00, 0x1c, 0x00, 0x00, 0x00, 0x05, 0x00, 0x00, 0x00,
    0xb6, 0xfd, 0xff, 0xff, 0x14, 0x00, 0x00, 0x00, 0x00, 0x00, 0x00, 0x3b,
    0x14, 0x00, 0x00, 0x00, 0x18, 0x00, 0x00, 0x00, 0x04, 0x00, 0x00, 0x00,
    0xa6, 0xfd, 0xff, 0xff, 0x02, 0x00, 0x00, 0x00, 0x01, 0x00, 0x00, 0x00,
    0x1e, 0x00, 0x00, 0x00, 0x02, 0x00, 0x00, 0x00, 0x1c, 0x00, 0x00, 0x00,
    0x0a, 0x00, 0x00, 0x00, 0xea, 0xfd, 0xff, 0xff, 0x14, 0x00, 0x00, 0x00,
    0x00, 0x00, 0x00, 0x3b, 0x14, 0x00, 0x00, 0x00, 0x18, 0x00, 0x00, 0x00,
    0x04, 0x00, 0x00, 0x00, 0xda, 0xfd, 0xff, 0xff, 0x02, 0x00, 0x00, 0x00,
    0x01, 0x00, 0x00, 0x00, 0x1d, 0x00, 0x00, 0x00, 0x02, 0x00, 0x00, 0x00,
    0x1c, 0x00, 0x00, 0x00, 0x05, 0x00, 0x00, 0x00, 0x4e, 0xfe, 0xff, 0xff,
    0x0c, 0x00, 0x00, 0x00, 0x10, 0x00, 0x00, 0x00, 0x09, 0x00, 0x00, 0x00,
    0x01, 0x00, 0x00, 0x00, 0x1c, 0x00, 0x00, 0x00, 0x02, 0x00, 0x00, 0x00,
    0x1b, 0x00, 0x00, 0x00, 0x08, 0x00, 0x00, 0x00, 0x42, 0xfe, 0xff, 0xff,
    0x14, 0x00, 0x00, 0x00, 0x00, 0x00, 0x00, 0x0b, 0x10, 0x00, 0x00, 0x00,
    0x14, 0x00, 0x00, 0x00, 0x08, 0x00, 0x00, 0x00, 0x40, 0xf1, 0xff, 0xff,
    0x01, 0x00, 0x00, 0x00, 0x1b, 0x00, 0x00, 0x00, 0x02, 0x00, 0x00, 0x00,
    0x1a, 0x00, 0x00, 0x00, 0x05, 0x00, 0x00, 0x00, 0xa2, 0xfe, 0xff, 0xff,
    0x0c, 0x00, 0x00, 0x00, 0x10, 0x00, 0x00, 0x00, 0x03, 0x00, 0x00, 0x00,
    0x01, 0x00, 0x00, 0x00, 0x1a, 0x00, 0x00, 0x00, 0x02, 0x00, 0x00, 0x00,
    0x19, 0x00, 0x00, 0x00, 0x0c, 0x00, 0x00, 0x00, 0x96, 0xfe, 0xff, 0xff,
    0x14, 0x00, 0x00, 0x00, 0x00, 0x00, 0x00, 0x1c, 0x10, 0x00, 0x00, 0x00,
    0x14, 0x00, 0x00, 0x00, 0x07, 0x00, 0x00, 0x00, 0x94, 0xf1, 0xff, 0xff,
    0x01, 0x00, 0x00, 0x00, 0x19, 0x00, 0x00, 0x00, 0x02, 0x00, 0x00, 0x00,
    0x12, 0x00, 0x00, 0x00, 0x0a, 0x00, 0x00, 0x00, 0xf6, 0xfe, 0xff, 0xff,
    0x0c, 0x00, 0x00, 0x00, 0x10, 0x00, 0x00, 0x00, 0x02, 0x00, 0x00, 0x00,
    0x01, 0x00, 0x00, 0x00, 0x18, 0x00, 0x00, 0x00, 0x02, 0x00, 0x00, 0x00,
    0x17, 0x00, 0x00, 0x00, 0x14, 0x00, 0x00, 0x00, 0xea, 0xfe, 0xff, 0xff,
    0x14, 0x00, 0x00, 0x00, 0x00, 0x00, 0x00, 0x20, 0x10, 0x00, 0x00, 0x00,
    0x14, 0x00, 0x00, 0x00, 0x06, 0x00, 0x00, 0x00, 0xe8, 0xf1, 0xff, 0xff,
    0x01, 0x00, 0x00, 0x00, 0x17, 0x00, 0x00, 0x00, 0x04, 0x00, 0x00, 0x00,
    0x00, 0x00, 0x00, 0x00, 0x0b, 0x00, 0x00, 0x00, 0x16, 0x00, 0x00, 0x00,
    0x09, 0x00, 0x00, 0x00, 0x52, 0xff, 0xff, 0xff, 0x0c, 0x00, 0x00, 0x00,
    0x10, 0x00, 0x00, 0x00, 0x02, 0x00, 0x00, 0x00, 0x01, 0x00, 0x00, 0x00,
    0x16, 0x00, 0x00, 0x00, 0x02, 0x00, 0x00, 0x00, 0x15, 0x00, 0x00, 0x00,
    0x09, 0x00, 0x00, 0x00, 0x46, 0xff, 0xff, 0xff, 0x14, 0x00, 0x00, 0x00,
    0x00, 0x00, 0x00, 0x15, 0x10, 0x00, 0x00, 0x00, 0x14, 0x00, 0x00, 0x00,
    0x05, 0x00, 0x00, 0x00, 0x44, 0xf2, 0xff, 0xff, 0x01, 0x00, 0x00, 0x00,
    0x15, 0x00, 0x00, 0x00, 0x02, 0x00, 0x00, 0x00, 0x13, 0x00, 0x00, 0x00,
    0x0c, 0x00, 0x00, 0x00, 0x76, 0xff, 0xff, 0xff, 0x14, 0x00, 0x00, 0x00,
    0x00, 0x00, 0x00, 0x3b, 0x14, 0x00, 0x00, 0x00, 0x18, 0x00, 0x00, 0x00,
    0x04, 0x00, 0x00, 0x00, 0x66, 0xff, 0xff, 0xff, 0x02, 0x00, 0x00, 0x00,
    0x01, 0x00, 0x00, 0x00, 0x14, 0x00, 0x00, 0x00, 0x02, 0x00, 0x00, 0x00,
    0x13, 0x00, 0x00, 0x00, 0x0c, 0x00, 0x00, 0x00, 0xda, 0xff, 0xff, 0xff,
    0x0c, 0x00, 0x00, 0x00, 0x10, 0x00, 0x00, 0x00, 0x03, 0x00, 0x00, 0x00,
    0x01, 0x00, 0x00, 0x00, 0x13, 0x00, 0x00, 0x00, 0x02, 0x00, 0x00, 0x00,
    0x12, 0x00, 0x00, 0x00, 0x0c, 0x00, 0x00, 0x00, 0x00, 0x00, 0x0a, 0x00,
    0x10, 0x00, 0x0c, 0x00, 0x08, 0x00, 0x04, 0x00, 0x0a, 0x00, 0x00, 0x00,
    0x0c, 0x00, 0x00, 0x00, 0x10, 0x00, 0x00, 0x00, 0x02, 0x00, 0x00, 0x00,
    0x01, 0x00, 0x00, 0x00, 0x12, 0x00, 0x00, 0x00, 0x02, 0x00, 0x00, 0x00,
    0x10, 0x00, 0x00, 0x00, 0x0d, 0x00, 0x00, 0x00, 0x00, 0x00, 0x0e, 0x00,
    0x1a, 0x00, 0x14, 0x00, 0x10, 0x00, 0x0c, 0x00, 0x0b, 0x00, 0x04, 0x00,
    0x0e, 0x00, 0x00, 0x00, 0x1c, 0x00, 0x00, 0x00, 0x00, 0x00, 0x00, 0x4f,
    0x1c, 0x00, 0x00, 0x00, 0x28, 0x00, 0x00, 0x00, 0x01, 0x00, 0x00, 0x00,
    0x00, 0x00, 0x06, 0x00, 0x08, 0x00, 0x04, 0x00, 0x06, 0x00, 0x00, 0x00,
    0x03, 0x00, 0x00, 0x00, 0x03, 0x00, 0x00, 0x00, 0x0f, 0x00, 0x00, 0x00,
    0x10, 0x00, 0x00, 0x00, 0x11, 0x00, 0x00, 0x00, 0x03, 0x00, 0x00, 0x00,
    0x0e, 0x00, 0x00, 0x00, 0x07, 0x00, 0x00, 0x00, 0x08, 0x00, 0x00, 0x00,
    0x00, 0x00, 0x0e, 0x00, 0x16, 0x00, 0x00, 0x00, 0x10, 0x00, 0x0c, 0x00,
    0x0b, 0x00, 0x04, 0x00, 0x0e, 0x00, 0x00, 0x00, 0x18, 0x00, 0x00, 0x00,
    0x00, 0x00, 0x00, 0x37, 0x18, 0x00, 0x00, 0x00, 0x1c, 0x00, 0x00, 0x00,
    0x00, 0x00, 0x06, 0x00, 0x08, 0x00, 0x07, 0x00, 0x06, 0x00, 0x00, 0x00,
    0x00, 0x00, 0x00, 0x02, 0x01, 0x00, 0x00, 0x00, 0x0e, 0x00, 0x00, 0x00,
    0x01, 0x00, 0x00, 0x00, 0x00, 0x00, 0x00, 0x00, 0x01, 0x00, 0x00, 0x00,
    0x28, 0x00, 0x00, 0x00, 0x01, 0x00, 0x00, 0x00, 0x00, 0x00, 0x00, 0x00,
    0x29, 0x00, 0x00, 0x00, 0x94, 0x0b, 0x00, 0x00, 0x3c, 0x0b, 0x00, 0x00,
    0xe4, 0x0a, 0x00, 0x00, 0xa8, 0x0a, 0x00, 0x00, 0x6c, 0x0a, 0x00, 0x00,
    0x18, 0x0a, 0x00, 0x00, 0xd4, 0x09, 0x00, 0x00, 0x94, 0x09, 0x00, 0x00,
    0x58, 0x09, 0x00, 0x00, 0x18, 0x09, 0x00, 0x00, 0xdc, 0x08, 0x00, 0x00,
    0x98, 0x08, 0x00, 0x00, 0x58, 0x08, 0x00, 0x00, 0x14, 0x08, 0x00, 0x00,
    0xd0, 0x07, 0x00, 0x00, 0x8c, 0x07, 0x00, 0x00, 0x48, 0x07, 0x00, 0x00,
    0x04, 0x07, 0x00, 0x00, 0xc4, 0x06, 0x00, 0x00, 0x80, 0x06, 0x00, 0x00,
    0x30, 0x06, 0x00, 0x00, 0xf4, 0x05, 0x00, 0x00, 0xa8, 0x05, 0x00, 0x00,
    0x58, 0x05, 0x00, 0x00, 0x00, 0x05, 0x00, 0x00, 0xc0, 0x04, 0x00, 0x00,
    0x80, 0x04, 0x00, 0x00, 0x44, 0x04, 0x00, 0x00, 0x04, 0x04, 0x00, 0x00,
    0xb8, 0x03, 0x00, 0x00, 0x74, 0x03, 0x00, 0x00, 0x24, 0x03, 0x00, 0x00,
    0xb0, 0x02, 0x00, 0x00, 0x58, 0x02, 0x00, 0x00, 0xf8, 0x01, 0x00, 0x00,
    0xa0, 0x01, 0x00, 0x00, 0x54, 0x01, 0x00, 0x00, 0x00, 0x01, 0x00, 0x00,
    0xa8, 0x00, 0x00, 0x00, 0x58, 0x00, 0x00, 0x00, 0x04, 0x00, 0x00, 0x00,
    0x26, 0xf5, 0xff, 0xff, 0x00, 0x00, 0x00, 0x01, 0x14, 0x00, 0x00, 0x00,
    0x1c, 0x00, 0x00, 0x00, 0x1c, 0x00, 0x00, 0x00, 0x29, 0x00, 0x00, 0x00,
    0x2c, 0x00, 0x00, 0x00, 0x02, 0x00, 0x00, 0x00, 0xff, 0xff, 0xff, 0xff,
    0x01, 0x02, 0x00, 0x00, 0x60, 0xf4, 0xff, 0xff, 0x11, 0x00, 0x00, 0x00,
    0x50, 0x61, 0x72, 0x74, 0x69, 0x74, 0x69, 0x6f, 0x6e, 0x65, 0x64, 0x43,
    0x61, 0x6c, 0x6c, 0x3a, 0x30, 0x00, 0x00, 0x00, 0x02, 0x00, 0x00, 0x00,
    0x01, 0x00, 0x00, 0x00, 0x01, 0x02, 0x00, 0x00, 0x6a, 0xfd, 0xff, 0xff,
    0x00, 0x00, 0x00, 0x01, 0x18, 0x00, 0x00, 0x00, 0x20, 0x00, 0x00, 0x00,
    0x20, 0x00, 0x00, 0x00, 0x28, 0x00, 0x00, 0x00, 0x00, 0x00, 0x00, 0x08,
    0x24, 0x00, 0x00, 0x00, 0x02, 0x00, 0x00, 0x00, 0xff, 0xff, 0xff, 0xff,
    0x01, 0x02, 0x00, 0x00, 0xb4, 0xf4, 0xff, 0xff, 0x0a, 0x00, 0x00, 0x00,
    0x73, 0x74, 0x66, 0x74, 0x2f, 0x72, 0x66, 0x66, 0x74, 0x32, 0x00, 0x00,
    0x02, 0x00, 0x00, 0x00, 0x01, 0x00, 0x00, 0x00, 0x01, 0x02, 0x00, 0x00,
    0xb6, 0xfd, 0xff, 0xff, 0x00, 0x00, 0x00, 0x01, 0x18, 0x00, 0x00, 0x00,
    0x24, 0x00, 0x00, 0x00, 0x24, 0x00, 0x00, 0x00, 0x27, 0x00, 0x00, 0x00,
    0x00, 0x00, 0x00, 0x08, 0x28, 0x00, 0x00, 0x00, 0x03, 0x00, 0x00, 0x00,
    0xff, 0xff, 0xff, 0xff, 0x01, 0x00, 0x00, 0x00, 0x01, 0x02, 0x00, 0x00,
    0x04, 0xf5, 0xff, 0xff, 0x0a, 0x00, 0x00, 0x00, 0x73, 0x74, 0x66, 0x74,
    0x2f, 0x72, 0x66, 0x66, 0x74, 0x31, 0x00, 0x00, 0x03, 0x00, 0x00, 0x00,
    0x01, 0x00, 0x00, 0x00, 0x01, 0x00, 0x00, 0x00, 0x01, 0x02, 0x00, 0x00,
    0x16, 0xf6, 0xff, 0xff, 0x00, 0x00, 0x00, 0x01, 0x14, 0x00, 0x00, 0x00,
    0x20, 0x00, 0x00, 0x00, 0x20, 0x00, 0x00, 0x00, 0x26, 0x00, 0x00, 0x00,
    0x28, 0x00, 0x00, 0x00, 0x03, 0x00, 0x00, 0x00, 0xff, 0xff, 0xff, 0xff,
    0x01, 0x00, 0x00, 0x00, 0x00, 0x04, 0x00, 0x00, 0x54, 0xf5, 0xff, 0xff,
    0x09, 0x00, 0x00, 0x00, 0x73, 0x74, 0x66, 0x74, 0x2f, 0x72, 0x66, 0x66,
    0x74, 0x00, 0x00, 0x00, 0x03, 0x00, 0x00, 0x00, 0x01, 0x00, 0x00, 0x00,
    0x01, 0x00, 0x00, 0x00, 0x00, 0x04, 0x00, 0x00, 0x66, 0xf6, 0xff, 0xff,
    0x00, 0x00, 0x00, 0x01, 0x14, 0x00, 0x00, 0x00, 0x1c, 0x00, 0x00, 0x00,
    0x1c, 0x00, 0x00, 0x00, 0x25, 0x00, 0x00, 0x00, 0x24, 0x00, 0x00, 0x00,
    0x02, 0x00, 0x00, 0x00, 0xff, 0xff, 0xff, 0xff, 0x00, 0x04, 0x00, 0x00,
    0xa0, 0xf5, 0xff, 0xff, 0x08, 0x00, 0x00, 0x00, 0x73, 0x74, 0x66, 0x74,
    0x2f, 0x6d, 0x75, 0x6c, 0x00, 0x00, 0x00, 0x00, 0x02, 0x00, 0x00, 0x00,
    0x01, 0x00, 0x00, 0x00, 0x00, 0x04, 0x00, 0x00, 0xae, 0xf6, 0xff, 0xff,
    0x00, 0x00, 0x00, 0x01, 0x14, 0x00, 0x00, 0x00, 0x1c, 0x00, 0x00, 0x00,
    0x1c, 0x00, 0x00, 0x00, 0x24, 0x00, 0x00, 0x00, 0x30, 0x00, 0x00, 0x00,
    0x02, 0x00, 0x00, 0x00, 0xff, 0xff, 0xff, 0xff, 0x00, 0x04, 0x00, 0x00,
    0xe8, 0xf5, 0xff, 0xff, 0x14, 0x00, 0x00, 0x00, 0x73, 0x74, 0x66, 0x74,
    0x2f, 0x66, 0x72, 0x61, 0x6d, 0x65, 0x2f, 0x52, 0x65, 0x73, 0x68, 0x61,
    0x70, 0x65, 0x5f, 0x34, 0x00, 0x00, 0x00, 0x00, 0x02, 0x00, 0x00, 0x00,
    0x01, 0x00, 0x00, 0x00, 0x00, 0x04, 0x00, 0x00, 0x02, 0xf7, 0xff, 0xff,
    0x00, 0x00, 0x00, 0x01, 0x14, 0x00, 0x00, 0x00, 0x20, 0x00, 0x00, 0x00,
    0x20, 0x00, 0x00, 0x00, 0x23, 0x00, 0x00, 0x00, 0x34, 0x00, 0x00, 0x00,
    0x03, 0x00, 0x00, 0x00, 0xff, 0xff, 0xff, 0xff, 0x02, 0x00, 0x00, 0x00,
    0x00, 0x02, 0x00, 0x00, 0x40, 0xf6, 0xff, 0xff, 0x14, 0x00, 0x00, 0x00,
    0x73, 0x74, 0x66, 0x74, 0x2f, 0x66, 0x72, 0x61, 0x6d, 0x65, 0x2f, 0x47,
    0x61, 0x74, 0x68, 0x65, 0x72, 0x56, 0x32, 0x3b, 0x00, 0x00, 0x00, 0x00,
    0x03, 0x00, 0x00, 0x00, 0x01, 0x00, 0x00, 0x00, 0x02, 0x00, 0x00, 0x00,
    0x00, 0x02, 0x00, 0x00, 0x52, 0xff, 0xff, 0xff, 0x00, 0x00, 0x00, 0x01,
    0x18, 0x00, 0x00, 0x00, 0x20, 0x00, 0x00, 0x00, 0x20, 0x00, 0x00, 0x00,
    0x22, 0x00, 0x00, 0x00, 0x00, 0x00, 0x00, 0x02, 0x2c, 0x00, 0x00, 0x00,
    0x02, 0x00, 0x00, 0x00, 0xff, 0xff, 0xff, 0xff, 0x02, 0x00, 0x00, 0x00,
    0x9c, 0xf6, 0xff, 0xff, 0x10, 0x00, 0x00, 0x00, 0x73, 0x74, 0x66, 0x74,
    0x2f, 0x66, 0x72, 0x61, 0x6d, 0x65, 0x2f, 0x61, 0x64, 0x64, 0x5f, 0x31,
    0x00, 0x00, 0x00, 0x00, 0x02, 0x00, 0x00, 0x00, 0x01, 0x00, 0x00, 0x00,
    0x02, 0x00, 0x00, 0x00, 0xa6, 0xff, 0xff, 0xff, 0x00, 0x00, 0x00, 0x01,
    0x18, 0x00, 0x00, 0x00, 0x20, 0x00, 0x00, 0x00, 0x20, 0x00, 0x00, 0x00,
    0x21, 0x00, 0x00, 0x00, 0x00, 0x00, 0x00, 0x02, 0x30, 0x00, 0x00, 0x00,
    0x02, 0x00, 0x00, 0x00, 0xff, 0xff, 0xff, 0xff, 0x01, 0x00, 0x00, 0x00,
    0xf0, 0xf6, 0xff, 0xff, 0x14, 0x00, 0x00, 0x00, 0x73, 0x74, 0x66, 0x74,
    0x2f, 0x66, 0x72, 0x61, 0x6d, 0x65, 0x2f, 0x52, 0x65, 0x73, 0x68, 0x61,
    0x70, 0x65, 0x5f, 0x32, 0x00, 0x00, 0x00, 0x00, 0x02, 0x00, 0x00, 0x00,
    0x01, 0x00, 0x00, 0x00, 0x01, 0x00, 0x00, 0x00, 0x00, 0x00, 0x16, 0x00,
    0x20, 0x00, 0x1c, 0x00, 0x1b, 0x00, 0x14, 0x00, 0x10, 0x00, 0x0c, 0x00,
    0x00, 0x00, 0x00, 0x00, 0x08, 0x00, 0x07, 0x00, 0x16, 0x00, 0x00, 0x00,
    0x00, 0x00, 0x00, 0x01, 0x18, 0x00, 0x00, 0x00, 0x1c, 0x00, 0x00, 0x00,
    0x1c, 0x00, 0x00, 0x00, 0x20, 0x00, 0x00, 0x00, 0x00, 0x00, 0x00, 0x02,
    0x28, 0x00, 0x00, 0x00, 0x01, 0x00, 0x00, 0x00, 0xff, 0xff, 0xff, 0xff,
    0x5c, 0xf7, 0xff, 0xff, 0x12, 0x00, 0x00, 0x00, 0x73, 0x74, 0x66, 0x74,
    0x2f, 0x66, 0x72, 0x61, 0x6d, 0x65, 0x2f, 0x72, 0x61, 0x6e, 0x67, 0x65,
    0x5f, 0x31, 0x00, 0x00, 0x01, 0x00, 0x00, 0x00, 0x01, 0x00, 0x00, 0x00,
    0xc2, 0xf8, 0xff, 0xff, 0x00, 0x00, 0x00, 0x01, 0x14, 0x00, 0x00, 0x00,
    0x14, 0x00, 0x00, 0x00, 0x1f, 0x00, 0x00, 0x00, 0x00, 0x00, 0x00, 0x02,
    0x20, 0x00, 0x00, 0x00, 0x9c, 0xf7, 0xff, 0xff, 0x13, 0x00, 0x00, 0x00,
    0x73, 0x74, 0x66, 0x74, 0x2f, 0x66, 0x72, 0x61, 0x6d, 0x65, 0x2f, 0x70,
    0x61, 0x63, 0x6b, 0x65, 0x64, 0x5f, 0x31, 0x00, 0x01, 0x00, 0x00, 0x00,
    0x02, 0x00, 0x00, 0x00, 0x02, 0xf9, 0xff, 0xff, 0x00, 0x00, 0x00, 0x01,
    0x14, 0x00, 0x00, 0x00, 0x14, 0x00, 0x00, 0x00, 0x1e, 0x00, 0x00, 0x00,
    0x00, 0x00, 0x00, 0x02, 0x28, 0x00, 0x00, 0x00, 0xdc, 0xf7, 0xff, 0xff,
    0x1a, 0x00, 0x00, 0x00, 0x73, 0x74, 0x66, 0x74, 0x2f, 0x66, 0x72, 0x61,
    0x6d, 0x65, 0x2f, 0x52, 0x65, 0x73, 0x68, 0x61, 0x70, 0x65, 0x5f, 0x32,
    0x2f, 0x73, 0x68, 0x61, 0x70, 0x65, 0x00, 0x00, 0x01, 0x00, 0x00, 0x00,
    0x02, 0x00, 0x00, 0x00, 0x4a, 0xf9, 0xff, 0xff, 0x00, 0x00, 0x00, 0x01,
    0x14, 0x00, 0x00, 0x00, 0x14, 0x00, 0x00, 0x00, 0x1d, 0x00, 0x00, 0x00,
    0x00, 0x00, 0x00, 0x02, 0x20, 0x00, 0x00, 0x00, 0x24, 0xf8, 0xff, 0xff,
    0x12, 0x00, 0x00, 0x00, 0x73, 0x74, 0x66, 0x74, 0x2f, 0x66, 0x72, 0x61,
    0x6d, 0x65, 0x2f, 0x4d, 0x61, 0x78, 0x69, 0x6d, 0x75, 0x6d, 0x00, 0x00,
    0x00, 0x00, 0x00, 0x00, 0x86, 0xf9, 0xff, 0xff, 0x00, 0x00, 0x00, 0x01,
    0x14, 0x00, 0x00, 0x00, 0x14, 0x00, 0x00, 0x00, 0x1c, 0x00, 0x00, 0x00,
    0x00, 0x00, 0x00, 0x02, 0x1c, 0x00, 0x00, 0x00, 0x60, 0xf8, 0xff, 0xff,
    0x0e, 0x00, 0x00, 0x00, 0x73, 0x74, 0x66, 0x74, 0x2f, 0x66, 0x72, 0x61,
    0x6d, 0x65, 0x2f, 0x61, 0x64, 0x64, 0x00, 0x00, 0x00, 0x00, 0x00, 0x00,
    0xbe, 0xf9, 0xff, 0xff, 0x00, 0x00, 0x00, 0x01, 0x14, 0x00, 0x00, 0x00,
    0x14, 0x00, 0x00, 0x00, 0x1b, 0x00, 0x00, 0x00, 0x00, 0x00, 0x00, 0x02,
    0x20, 0x00, 0x00, 0x00, 0x98, 0xf8, 0xff, 0xff, 0x13, 0x00, 0x00, 0x00,
    0x73, 0x74, 0x66, 0x74, 0x2f, 0x66, 0x72, 0x61, 0x6d, 0x65, 0x2f, 0x66,
    0x6c, 0x6f, 0x6f, 0x72, 0x64, 0x69, 0x76, 0x00, 0x00, 0x00, 0x00, 0x00,
    0xfa, 0xf9, 0xff, 0xff, 0x00, 0x00, 0x00, 0x01, 0x14, 0x00, 0x00, 0x00,
    0x14, 0x00, 0x00, 0x00, 0x1a, 0x00, 0x00, 0x00, 0x00, 0x00, 0x00, 0x02,
    0x20, 0x00, 0x00, 0x00, 0xd4, 0xf8, 0xff, 0xff, 0x10, 0x00, 0x00, 0x00,
    0x73, 0x74, 0x66, 0x74, 0x2f, 0x66, 0x72, 0x61, 0x6d, 0x65, 0x2f, 0x73,
    0x75, 0x62, 0x5f, 0x32, 0x00, 0x00, 0x00, 0x00, 0x00, 0x00, 0x00, 0x00,
    0xe2, 0xf9, 0xff, 0xff, 0x00, 0x00, 0x00, 0x01, 0x14, 0x00, 0x00, 0x00,
    0x1c, 0x00, 0x00, 0x00, 0x1c, 0x00, 0x00, 0x00, 0x19, 0x00, 0x00, 0x00,
    0x30, 0x00, 0x00, 0x00, 0x02, 0x00, 0x00, 0x00, 0xff, 0xff, 0xff, 0xff,
    0x00, 0x02, 0x00, 0x00, 0x1c, 0xf9, 0xff, 0xff, 0x14, 0x00, 0x00, 0x00,
    0x73, 0x74, 0x66, 0x74, 0x2f, 0x66, 0x72, 0x61, 0x6d, 0x65, 0x2f, 0x52,
    0x65, 0x73, 0x68, 0x61, 0x70, 0x65, 0x5f, 0x31, 0x00, 0x00, 0x00, 0x00,
    0x02, 0x00, 0x00, 0x00, 0x01, 0x00, 0x00, 0x00, 0x00, 0x02, 0x00, 0x00,
    0x36, 0xfa, 0xff, 0xff, 0x00, 0x00, 0x00, 0x01, 0x14, 0x00, 0x00, 0x00,
    0x18, 0x00, 0x00, 0x00, 0x18, 0x00, 0x00, 0x00, 0x18, 0x00, 0x00, 0x00,
    0x2c, 0x00, 0x00, 0x00, 0x01, 0x00, 0x00, 0x00, 0xff, 0xff, 0xff, 0xff,
    0x6c, 0xf9, 0xff, 0xff, 0x17, 0x00, 0x00, 0x00, 0x73, 0x74, 0x66, 0x74,
    0x2f, 0x66, 0x72, 0x61, 0x6d, 0x65, 0x2f, 0x53, 0x74, 0x72, 0x69, 0x64,
    0x65, 0x64, 0x53, 0x6c, 0x69, 0x63, 0x65, 0x00, 0x01, 0x00, 0x00, 0x00,
    0x01, 0x00, 0x00, 0x00, 0xd6, 0xfa, 0xff, 0xff, 0x00, 0x00, 0x00, 0x01,
    0x14, 0x00, 0x00, 0x00, 0x14, 0x00, 0x00, 0x00, 0x17, 0x00, 0x00, 0x00,
    0x00, 0x00, 0x00, 0x02, 0x28, 0x00, 0x00, 0x00, 0xb0, 0xf9, 0xff, 0xff,
    0x1a, 0x00, 0x00, 0x00, 0x73, 0x74, 0x66, 0x74, 0x2f, 0x66, 0x72, 0x61,
    0x6d, 0x65, 0x2f, 0x63, 0x6f, 0x6e, 0x63, 0x61, 0x74, 0x2f, 0x76, 0x61,
    0x6c, 0x75, 0x65, 0x73, 0x5f, 0x31, 0x00, 0x00, 0x01, 0x00, 0x00, 0x00,
    0x01, 0x00, 0x00, 0x00, 0x1e, 0xfb, 0xff, 0xff, 0x00, 0x00, 0x00, 0x01,
    0x14, 0x00, 0x00, 0x00, 0x14, 0x00, 0x00, 0x00, 0x16, 0x00, 0x00, 0x00,
    0x00, 0x00, 0x00, 0x02, 0x1c, 0x00, 0x00, 0x00, 0xf8, 0xf9, 0xff, 0xff,
    0x0e, 0x00, 0x00, 0x00, 0x73, 0x74, 0x66, 0x74, 0x2f, 0x66, 0x72, 0x61,
    0x6d, 0x65, 0x2f, 0x6d, 0x75, 0x6c, 0x00, 0x00, 0x00, 0x00, 0x00, 0x00,
    0x56, 0xfb, 0xff, 0xff, 0x00, 0x00, 0x00, 0x01, 0x14, 0x00, 0x00, 0x00,
    0x14, 0x00, 0x00, 0x00, 0x15, 0x00, 0x00, 0x00, 0x00, 0x00, 0x00, 0x02,
    0x2c, 0x00, 0x00, 0x00, 0x30, 0xfa, 0xff, 0xff, 0x1c, 0x00, 0x00, 0x00,
    0x73, 0x74, 0x66, 0x74, 0x2f, 0x66, 0x72, 0x61, 0x6d, 0x65, 0x2f, 0x63,
    0x6f, 0x6e, 0x63, 0x61, 0x74, 0x5f, 0x31, 0x2f, 0x76, 0x61, 0x6c, 0x75,
    0x65, 0x73, 0x5f, 0x31, 0x00, 0x00, 0x00, 0x00, 0x01, 0x00, 0x00, 0x00,
    0x02, 0x00, 0x00, 0x00, 0xa2, 0xfb, 0xff, 0xff, 0x00, 0x00, 0x00, 0x01,
    0x14, 0x00, 0x00, 0x00, 0x14, 0x00, 0x00, 0x00, 0x14, 0x00, 0x00, 0x00,
    0x00, 0x00, 0x00, 0x02, 0x24, 0x00, 0x00, 0x00, 0x7c, 0xfa, 0xff, 0xff,
    0x15, 0x00, 0x00, 0x00, 0x73, 0x74, 0x66, 0x74, 0x2f, 0x66, 0x72, 0x61,
    0x6d, 0x65, 0x2f, 0x66, 0x6c, 0x6f, 0x6f, 0x72, 0x64, 0x69, 0x76, 0x5f,
    0x33, 0x00, 0x00, 0x00, 0x00, 0x00, 0x00, 0x00, 0xe2, 0xfb, 0xff, 0xff,
    0x00, 0x00, 0x00, 0x01, 0x14, 0x00, 0x00, 0x00, 0x14, 0x00, 0x00, 0x00,
    0x13, 0x00, 0x00, 0x00, 0x00, 0x00, 0x00, 0x02, 0x20, 0x00, 0x00, 0x00,
    0xbc, 0xfa, 0xff, 0xff, 0x12, 0x00, 0x00, 0x00, 0x73, 0x74, 0x66, 0x74,
    0x2f, 0x66, 0x72, 0x61, 0x6d, 0x65, 0x2f, 0x52, 0x65, 0x73, 0x68, 0x61,
    0x70, 0x65, 0x00, 0x00, 0x00, 0x00, 0x00, 0x00, 0x1e, 0xfc, 0xff, 0xff,
    0x00, 0x00, 0x00, 0x01, 0x14, 0x00, 0x00, 0x00, 0x14, 0x00, 0x00, 0x00,
    0x12, 0x00, 0x00, 0x00, 0x00, 0x00, 0x00, 0x02, 0x20, 0x00, 0x00, 0x00,
    0xf8, 0xfa, 0xff, 0xff, 0x11, 0x00, 0x00, 0x00, 0x73, 0x74, 0x66, 0x74,
    0x2f, 0x66, 0x72, 0x61, 0x6d, 0x65, 0x2f, 0x73, 0x70, 0x6c, 0x69, 0x74,
    0x32, 0x00, 0x00, 0x00, 0x01, 0x00, 0x00, 0x00, 0x00, 0x00, 0x00, 0x00,
    0x5e, 0xfc, 0xff, 0xff, 0x00, 0x00, 0x00, 0x01, 0x14, 0x00, 0x00, 0x00,
    0x14, 0x00, 0x00, 0x00, 0x11, 0x00, 0x00, 0x00, 0x00, 0x00, 0x00, 0x02,
    0x20, 0x00, 0x00, 0x00, 0x38, 0xfb, 0xff, 0xff, 0x11, 0x00, 0x00, 0x00,
    0x73, 0x74, 0x66, 0x74, 0x2f, 0x66, 0x72, 0x61, 0x6d, 0x65, 0x2f, 0x73,
    0x70, 0x6c, 0x69, 0x74, 0x31, 0x00, 0x00, 0x00, 0x01, 0x00, 0x00, 0x00,
    0x01, 0x00, 0x00, 0x00, 0x9e, 0xfc, 0xff, 0xff, 0x00, 0x00, 0x00, 0x01,
    0x14, 0x00, 0x00, 0x00, 0x14, 0x00, 0x00, 0x00, 0x10, 0x00, 0x00, 0x00,
    0x00, 0x00, 0x00, 0x02, 0x20, 0x00, 0x00, 0x00, 0x78, 0xfb, 0xff, 0xff,
    0x10, 0x00, 0x00, 0x00, 0x73, 0x74, 0x66, 0x74, 0x2f, 0x66, 0x72, 0x61,
    0x6d, 0x65, 0x2f, 0x73, 0x70, 0x6c, 0x69, 0x74, 0x00, 0x00, 0x00, 0x00,
    0x01, 0x00, 0x00, 0x00, 0x00, 0x00, 0x00, 0x00, 0xde, 0xfc, 0xff, 0xff,
    0x00, 0x00, 0x00, 0x01, 0x14, 0x00, 0x00, 0x00, 0x14, 0x00, 0x00, 0x00,
    0x0f, 0x00, 0x00, 0x00, 0x00, 0x00, 0x00, 0x02, 0x20, 0x00, 0x00, 0x00,
    0xb8, 0xfb, 0xff, 0xff, 0x10, 0x00, 0x00, 0x00, 0x73, 0x74, 0x66, 0x74,
    0x2f, 0x66, 0x72, 0x61, 0x6d, 0x65, 0x2f, 0x53, 0x68, 0x61, 0x70, 0x65,
    0x00, 0x00, 0x00, 0x00, 0x01, 0x00, 0x00, 0x00, 0x01, 0x00, 0x00, 0x00,
    0x1e, 0xfd, 0xff, 0xff, 0x00, 0x00, 0x00, 0x01, 0x14, 0x00, 0x00, 0x00,
    0x14, 0x00, 0x00, 0x00, 0x0e, 0x00, 0x00, 0x00, 0x00, 0x00, 0x00, 0x02,
    0x20, 0x00, 0x00, 0x00, 0xf8, 0xfb, 0xff, 0xff, 0x10, 0x00, 0x00, 0x00,
    0x61, 0x72, 0x69, 0x74, 0x68, 0x2e, 0x63, 0x6f, 0x6e, 0x73, 0x74, 0x61,
    0x6e, 0x74, 0x31, 0x32, 0x00, 0x00, 0x00, 0x00, 0x01, 0x00, 0x00, 0x00,
    0x00, 0x00, 0x00, 0x00, 0x5e, 0xfd, 0xff, 0xff, 0x00, 0x00, 0x00, 0x01,
    0x14, 0x00, 0x00, 0x00, 0x14, 0x00, 0x00, 0x00, 0x0d, 0x00, 0x00, 0x00,
    0x00, 0x00, 0x00, 0x02, 0x20, 0x00, 0x00, 0x00, 0x38, 0xfc, 0xff, 0xff,
    0x10, 0x00, 0x00, 0x00, 0x61, 0x72, 0x69, 0x74, 0x68, 0x2e, 0x63, 0x6f,
    0x6e, 0x73, 0x74, 0x61, 0x6e, 0x74, 0x31, 0x31, 0x00, 0x00, 0x00, 0x00,
    0x00, 0x00, 0x00, 0x00, 0x9a, 0xfd, 0xff, 0xff, 0x00, 0x00, 0x00, 0x01,
    0x14, 0x00, 0x00, 0x00, 0x14, 0x00, 0x00, 0x00, 0x09, 0x00, 0x00, 0x00,
    0x00, 0x00, 0x00, 0x02, 0x20, 0x00, 0x00, 0x00, 0x74, 0xfc, 0xff, 0xff,
    0x10, 0x00, 0x00, 0x00, 0x61, 0x72, 0x69, 0x74, 0x68, 0x2e, 0x63, 0x6f,
    0x6e, 0x73, 0x74, 0x61, 0x6e, 0x74, 0x31, 0x30, 0x00, 0x00, 0x00, 0x00,
    0x01, 0x00, 0x00, 0x00, 0x01, 0x00, 0x00, 0x00, 0xda, 0xfd, 0xff, 0xff,
    0x00, 0x00, 0x00, 0x01, 0x14, 0x00, 0x00, 0x00, 0x14, 0x00, 0x00, 0x00,
    0x0b, 0x00, 0x00, 0x00, 0x00, 0x00, 0x00, 0x02, 0x1c, 0x00, 0x00, 0x00,
    0xb4, 0xfc, 0xff, 0xff, 0x0f, 0x00, 0x00, 0x00, 0x61, 0x72, 0x69, 0x74,
    0x68, 0x2e, 0x63, 0x6f, 0x6e, 0x73, 0x74, 0x61, 0x6e, 0x74, 0x39, 0x00,
    0x00, 0x00, 0x00, 0x00, 0x12, 0xfe, 0xff, 0xff, 0x00, 0x00, 0x00, 0x01,
    0x14, 0x00, 0x00, 0x00, 0x14, 0x00, 0x00, 0x00, 0x06, 0x00, 0x00, 0x00,
    0x00, 0x00, 0x00, 0x02, 0x1c, 0x00, 0x00, 0x00, 0xec, 0xfc, 0xff, 0xff,
    0x0f, 0x00, 0x00, 0x00, 0x61, 0x72, 0x69, 0x74, 0x68, 0x2e, 0x63, 0x6f,
    0x6e, 0x73, 0x74, 0x61, 0x6e, 0x74, 0x38, 0x00, 0x01, 0x00, 0x00, 0x00,
    0x01, 0x00, 0x00, 0x00, 0x4e, 0xfe, 0xff, 0xff, 0x00, 0x00, 0x00, 0x01,
    0x14, 0x00, 0x00, 0x00, 0x14, 0x00, 0x00, 0x00, 0x09, 0x00, 0x00, 0x00,
    0x00, 0x00, 0x00, 0x02, 0x1c, 0x00, 0x00, 0x00, 0x28, 0xfd, 0xff, 0xff,
    0x0f, 0x00, 0x00, 0x00, 0x61, 0x72, 0x69, 0x74, 0x68, 0x2e, 0x63, 0x6f,
    0x6e, 0x73, 0x74, 0x61, 0x6e, 0x74, 0x37, 0x00, 0x00, 0x00, 0x00, 0x00,
    0x86, 0xfe, 0xff, 0xff, 0x00, 0x00, 0x00, 0x01, 0x14, 0x00, 0x00, 0x00,
    0x14, 0x00, 0x00, 0x00, 0x08, 0x00, 0x00, 0x00, 0x00, 0x00, 0x00, 0x02,
    0x1c, 0x00, 0x00, 0x00, 0x60, 0xfd, 0xff, 0xff, 0x0f, 0x00, 0x00, 0x00,
    0x61, 0x72, 0x69, 0x74, 0x68, 0x2e, 0x63, 0x6f, 0x6e, 0x73, 0x74, 0x61,
    0x6e, 0x74, 0x36, 0x00, 0x01, 0x00, 0x00, 0x00, 0x03, 0x00, 0x00, 0x00,
    0xc2, 0xfe, 0xff, 0xff, 0x00, 0x00, 0x00, 0x01, 0x14, 0x00, 0x00, 0x00,
    0x14, 0x00, 0x00, 0x00, 0x07, 0x00, 0x00, 0x00, 0x00, 0x00, 0x00, 0x02,
    0x1c, 0x00, 0x00, 0x00, 0x9c, 0xfd, 0xff, 0xff, 0x0f, 0x00, 0x00, 0x00,
    0x61, 0x72, 0x69, 0x74, 0x68, 0x2e, 0x63, 0x6f, 0x6e, 0x73, 0x74, 0x61,
    0x6e, 0x74, 0x35, 0x00, 0x02, 0x00, 0x00, 0x00, 0x01, 0x00, 0x00, 0x00,
    0x02, 0x00, 0x00, 0x00, 0x02, 0xff, 0xff, 0xff, 0x00, 0x00, 0x00, 0x01,
    0x14, 0x00, 0x00, 0x00, 0x14, 0x00, 0x00, 0x00, 0x06, 0x00, 0x00, 0x00,
    0x00, 0x00, 0x00, 0x02, 0x1c, 0x00, 0x00, 0x00, 0xdc, 0xfd, 0xff, 0xff,
    0x0f, 0x00, 0x00, 0x00, 0x61, 0x72, 0x69, 0x74, 0x68, 0x2e, 0x63, 0x6f,
    0x6e, 0x73, 0x74, 0x61, 0x6e, 0x74, 0x34, 0x00, 0x00, 0x00, 0x00, 0x00,
    0x00, 0x00, 0x16, 0x00, 0x18, 0x00, 0x14, 0x00, 0x00, 0x00, 0x10, 0x00,
    0x0c, 0x00, 0x08, 0x00, 0x00, 0x00, 0x00, 0x00, 0x00, 0x00, 0x07, 0x00,
    0x16, 0x00, 0x00, 0x00, 0x00, 0x00, 0x00, 0x01, 0x10, 0x00, 0x00, 0x00,
    0x10, 0x00, 0x00, 0x00, 0x05, 0x00, 0x00, 0x00, 0x1c, 0x00, 0x00, 0x00,
    0x28, 0xfe, 0xff, 0xff, 0x0f, 0x00, 0x00, 0x00, 0x61, 0x72, 0x69, 0x74,
    0x68, 0x2e, 0x63, 0x6f, 0x6e, 0x73, 0x74, 0x61, 0x6e, 0x74, 0x33, 0x00,
    0x01, 0x00, 0x00, 0x00, 0x00, 0x04, 0x00, 0x00, 0x8a, 0xff, 0xff, 0xff,
    0x00, 0x00, 0x00, 0x01, 0x14, 0x00, 0x00, 0x00, 0x14, 0x00, 0x00, 0x00,
    0x04, 0x00, 0x00, 0x00, 0x00, 0x00, 0x00, 0x02, 0x1c, 0x00, 0x00, 0x00,
    0x64, 0xfe, 0xff, 0xff, 0x0f, 0x00, 0x00, 0x00, 0x61, 0x72, 0x69, 0x74,
    0x68, 0x2e, 0x63, 0x6f, 0x6e, 0x73, 0x74, 0x61, 0x6e, 0x74, 0x32, 0x00,
    0x00, 0x00, 0x00, 0x00, 0xc2, 0xff, 0xff, 0xff, 0x00, 0x00, 0x00, 0x01,
    0x14, 0x00, 0x00, 0x00, 0x14, 0x00, 0x00, 0x00, 0x03, 0x00, 0x00, 0x00,
    0x00, 0x00, 0x00, 0x02, 0x1c, 0x00, 0x00, 0x00, 0x9c, 0xfe, 0xff, 0xff,
    0x0f, 0x00, 0x00, 0x00, 0x61, 0x72, 0x69, 0x74, 0x68, 0x2e, 0x63, 0x6f,
    0x6e, 0x73, 0x74, 0x61, 0x6e, 0x74, 0x31, 0x00, 0x01, 0x00, 0x00, 0x00,
    0x02, 0x00, 0x00, 0x00, 0x00, 0x00, 0x16, 0x00, 0x1c, 0x00, 0x18, 0x00,
    0x17, 0x00, 0x10, 0x00, 0x0c, 0x00, 0x08, 0x00, 0x00, 0x00, 0x00, 0x00,
    0x00, 0x00, 0x07, 0x00, 0x16, 0x00, 0x00, 0x00, 0x00, 0x00, 0x00, 0x01,
    0x14, 0x00, 0x00, 0x00, 0x14, 0x00, 0x00, 0x00, 0x02, 0x00, 0x00, 0x00,
    0x00, 0x00, 0x00, 0x02, 0x1c, 0x00, 0x00, 0x00, 0xf0, 0xfe, 0xff, 0xff,
    0x0e, 0x00, 0x00, 0x00, 0x61, 0x72, 0x69, 0x74, 0x68, 0x2e, 0x63, 0x6f,
    0x6e, 0x73, 0x74, 0x61, 0x6e, 0x74, 0x00, 0x00, 0x01, 0x00, 0x00, 0x00,
    0x02, 0x00, 0x00, 0x00, 0x00, 0x00, 0x16, 0x00, 0x1c, 0x00, 0x18, 0x00,
    0x00, 0x00, 0x14, 0x00, 0x10, 0x00, 0x0c, 0x00, 0x00, 0x00, 0x00, 0x00,
    0x08, 0x00, 0x07, 0x00, 0x16, 0x00, 0x00, 0x00, 0x00, 0x00, 0x00, 0x01,
    0x14, 0x00, 0x00, 0x00, 0x18, 0x00, 0x00, 0x00, 0x18, 0x00, 0x00, 0x00,
    0x01, 0x00, 0x00, 0x00, 0x30, 0x00, 0x00, 0x00, 0x01, 0x00, 0x00, 0x00,
    0xff, 0xff, 0xff, 0xff, 0x4c, 0xff, 0xff, 0xff, 0x1a, 0x00, 0x00, 0x00,
    0x73, 0x65, 0x72, 0x76, 0x69, 0x6e, 0x67, 0x5f, 0x64, 0x65, 0x66, 0x61,
    0x75, 0x6c, 0x74, 0x5f, 0x72, 0x61, 0x77, 0x5f, 0x64, 0x61, 0x74, 0x61,
    0x3a, 0x30, 0x00, 0x00, 0x01, 0x00, 0x00, 0x00, 0x01, 0x00, 0x00, 0x00,
    0x0f, 0x00, 0x00, 0x00, 0xec, 0x00, 0x00, 0x00, 0xd0, 0x00, 0x00, 0x00,
    0xc0, 0x00, 0x00, 0x00, 0xb0, 0x00, 0x00, 0x00, 0xa0, 0x00, 0x00, 0x00,
    0x90, 0x00, 0x00, 0x00, 0x80, 0x00, 0x00, 0x00, 0x70, 0x00, 0x00, 0x00,
    0x68, 0x00, 0x00, 0x00, 0x54, 0x00, 0x00, 0x00, 0x44, 0x00, 0x00, 0x00,
    0x34, 0x00, 0x00, 0x00, 0x24, 0x00, 0x00, 0x00, 0x14, 0x00, 0x00, 0x00,
    0x04, 0x00, 0x00, 0x00, 0x5c, 0xff, 0xff, 0xff, 0x87, 0x00, 0x00, 0x00,
    0x00, 0x00, 0x00, 0x7f, 0x68, 0xff, 0xff, 0xff, 0x83, 0x00, 0x00, 0x00,
    0x00, 0x00, 0x00, 0x7f, 0x74, 0xff, 0xff, 0xff, 0x46, 0x00, 0x00, 0x00,
    0x00, 0x00, 0x00, 0x46, 0x80, 0xff, 0xff, 0xff, 0x24, 0x00, 0x00, 0x00,
    0x00, 0x00, 0x00, 0x24, 0x8c, 0xff, 0xff, 0xff, 0x60, 0x00, 0x00, 0x00,
    0x00, 0x00, 0x00, 0x60, 0x98, 0xff, 0xff, 0xff, 0x37, 0x00, 0x00, 0x00,
    0x00, 0x00, 0x00, 0x37, 0x04, 0x00, 0x04, 0x00, 0x04, 0x00, 0x00, 0x00,
    0xac, 0xff, 0xff, 0xff, 0x29, 0x00, 0x00, 0x00, 0x00, 0x00, 0x00, 0x29,
    0xb8, 0xff, 0xff, 0xff, 0x2d, 0x00, 0x00, 0x00, 0x00, 0x00, 0x00, 0x2d,
    0xc4, 0xff, 0xff, 0xff, 0x12, 0x00, 0x00, 0x00, 0x00, 0x00, 0x00, 0x12,
    0xd0, 0xff, 0xff, 0xff, 0x53, 0x00, 0x00, 0x00, 0x00, 0x00, 0x00, 0x53,
    0xdc, 0xff, 0xff, 0xff, 0x5a, 0x00, 0x00, 0x00, 0x00, 0x00, 0x00, 0x5a,
    0xe8, 0xff, 0xff, 0xff, 0x16, 0x00, 0x00, 0x00, 0x00, 0x00, 0x00, 0x16,
    0xf4, 0xff, 0xff, 0xff, 0x66, 0x00, 0x00, 0x00, 0x00, 0x00, 0x00, 0x66,
    0x0c, 0x00, 0x0c, 0x00, 0x0b, 0x00, 0x00, 0x00, 0x00, 0x00, 0x04, 0x00,
    0x0c, 0x00, 0x00, 0x00, 0x4d, 0x00, 0x00, 0x00, 0x00, 0x00, 0x00, 0x4d};
unsigned int model_len = 9636;