const unsigned char model[] = {
  0x1c, 0x00, 0x00, 0x00, 0x54, 0x46, 0x4c, 0x33, 0x14, 0x00, 0x20, 0x00,
  0x1c, 0x00, 0x18, 0x00, 0x14, 0x00, 0x10, 0x00, 0x0c, 0x00, 0x00, 0x00,
  0x08, 0x00, 0x04, 0x00, 0x14, 0x00, 0x00, 0x00, 0x1c, 0x00, 0x00, 0x00,
  0x84, 0x00, 0x00, 0x00, 0xdc, 0x00, 0x00, 0x00, 0x28, 0x26, 0x00, 0x00,
  0x38, 0x26, 0x00, 0x00, 0x60, 0x34, 0x00, 0x00, 0x03, 0x00, 0x00, 0x00,
  0x01, 0x00, 0x00, 0x00, 0x04, 0x00, 0x00, 0x00, 0xf6, 0xd7, 0xff, 0xff,
  0x0c, 0x00, 0x00, 0x00, 0x1c, 0x00, 0x00, 0x00, 0x38, 0x00, 0x00, 0x00,
  0x0f, 0x00, 0x00, 0x00, 0x73, 0x65, 0x72, 0x76, 0x69, 0x6e, 0x67, 0x5f,
  0x64, 0x65, 0x66, 0x61, 0x75, 0x6c, 0x74, 0x00, 0x01, 0x00, 0x00, 0x00,
  0x04, 0x00, 0x00, 0x00, 0x98, 0xff, 0xff, 0xff, 0x1a, 0x00, 0x00, 0x00,
  0x04, 0x00, 0x00, 0x00, 0x07, 0x00, 0x00, 0x00, 0x64, 0x65, 0x6e, 0x73,
  0x65, 0x5f, 0x32, 0x00, 0x01, 0x00, 0x00, 0x00, 0x04, 0x00, 0x00, 0x00,
  0xca, 0xd7, 0xff, 0xff, 0x04, 0x00, 0x00, 0x00, 0x0b, 0x00, 0x00, 0x00,
  0x64, 0x65, 0x6e, 0x73, 0x65, 0x5f, 0x69, 0x6e, 0x70, 0x75, 0x74, 0x00,
  0x02, 0x00, 0x00, 0x00, 0x34, 0x00, 0x00, 0x00, 0x04, 0x00, 0x00, 0x00,
  0xdc, 0xff, 0xff, 0xff, 0x1d, 0x00, 0x00, 0x00, 0x04, 0x00, 0x00, 0x00,
  0x13, 0x00, 0x00, 0x00, 0x43, 0x4f, 0x4e, 0x56, 0x45, 0x52, 0x53, 0x49,
  0x4f, 0x4e, 0x5f, 0x4d, 0x45, 0x54, 0x41, 0x44, 0x41, 0x54, 0x41, 0x00,
  0x08, 0x00, 0x0c, 0x00, 0x08, 0x00, 0x04, 0x00, 0x08, 0x00, 0x00, 0x00,
  0x1c, 0x00, 0x00, 0x00, 0x04, 0x00, 0x00, 0x00, 0x13, 0x00, 0x00, 0x00,
  0x6d, 0x69, 0x6e, 0x5f, 0x72, 0x75, 0x6e, 0x74, 0x69, 0x6d, 0x65, 0x5f,
  0x76, 0x65, 0x72, 0x73, 0x69, 0x6f, 0x6e, 0x00, 0x1e, 0x00, 0x00, 0x00,
  0x48, 0x25, 0x00, 0x00, 0x40, 0x25, 0x00, 0x00, 0xb0, 0x24, 0x00, 0x00,
  0x80, 0x24, 0x00, 0x00, 0x68, 0x24, 0x00, 0x00, 0x18, 0x24, 0x00, 0x00,
  0x00, 0x24, 0x00, 0x00, 0xe8, 0x23, 0x00, 0x00, 0xd4, 0x23, 0x00, 0x00,
  0xc0, 0x23, 0x00, 0x00, 0xac, 0x23, 0x00, 0x00, 0x94, 0x1f, 0x00, 0x00,
  0x04, 0x01, 0x00, 0x00, 0xfc, 0x00, 0x00, 0x00, 0xf4, 0x00, 0x00, 0x00,
  0xec, 0x00, 0x00, 0x00, 0xe4, 0x00, 0x00, 0x00, 0xdc, 0x00, 0x00, 0x00,
  0xd4, 0x00, 0x00, 0x00, 0xcc, 0x00, 0x00, 0x00, 0xc4, 0x00, 0x00, 0x00,
  0xbc, 0x00, 0x00, 0x00, 0xb4, 0x00, 0x00, 0x00, 0xac, 0x00, 0x00, 0x00,
  0xa4, 0x00, 0x00, 0x00, 0x9c, 0x00, 0x00, 0x00, 0x94, 0x00, 0x00, 0x00,
  0x8c, 0x00, 0x00, 0x00, 0x6c, 0x00, 0x00, 0x00, 0x04, 0x00, 0x00, 0x00,
  0xba, 0xd8, 0xff, 0xff, 0x04, 0x00, 0x00, 0x00, 0x58, 0x00, 0x00, 0x00,
  0x0c, 0x00, 0x00, 0x00, 0x08, 0x00, 0x0e, 0x00, 0x08, 0x00, 0x04, 0x00,
  0x08, 0x00, 0x00, 0x00, 0x10, 0x00, 0x00, 0x00, 0x28, 0x00, 0x00, 0x00,
  0x00, 0x00, 0x06, 0x00, 0x08, 0x00, 0x04, 0x00, 0x06, 0x00, 0x00, 0x00,
  0x04, 0x00, 0x00, 0x00, 0x01, 0x00, 0x00, 0x00, 0xea, 0x03, 0x00, 0x00,
  0x00, 0x00, 0x0a, 0x00, 0x10, 0x00, 0x0c, 0x00, 0x08, 0x00, 0x04, 0x00,
  0x0a, 0x00, 0x00, 0x00, 0x01, 0x00, 0x00, 0x00, 0x02, 0x00, 0x00, 0x00,
  0x04, 0x00, 0x00, 0x00, 0x06, 0x00, 0x00, 0x00, 0x32, 0x2e, 0x31, 0x35,
  0x2e, 0x30, 0x00, 0x00, 0x1e, 0xd9, 0xff, 0xff, 0x04, 0x00, 0x00, 0x00,
  0x10, 0x00, 0x00, 0x00, 0x32, 0x2e, 0x33, 0x2e, 0x30, 0x00, 0x00, 0x00,
  0x00, 0x00, 0x00, 0x00, 0x00, 0x00, 0x00, 0x00, 0x38, 0xcd, 0xff, 0xff,
  0x3c, 0xcd, 0xff, 0xff, 0x40, 0xcd, 0xff, 0xff, 0x44, 0xcd, 0xff, 0xff,
  0x48, 0xcd, 0xff, 0xff, 0x4c, 0xcd, 0xff, 0xff, 0x50, 0xcd, 0xff, 0xff,
  0x54, 0xcd, 0xff, 0xff, 0x58, 0xcd, 0xff, 0xff, 0x5c, 0xcd, 0xff, 0xff,
  0x60, 0xcd, 0xff, 0xff, 0x64, 0xcd, 0xff, 0xff, 0x68, 0xcd, 0xff, 0xff,
  0x6c, 0xcd, 0xff, 0xff, 0x70, 0xcd, 0xff, 0xff, 0x76, 0xd9, 0xff, 0xff,
  0x04, 0x00, 0x00, 0x00, 0x80, 0x1e, 0x00, 0x00, 0x00, 0x00, 0x00, 0x1e,
  0xee, 0x0f, 0x17, 0xf7, 0x00, 0x00, 0x00, 0x34, 0xf1, 0x10, 0x22, 0x13,
  0x00, 0x00, 0x00, 0x34, 0xee, 0x0d, 0x24, 0x41, 0x00, 0x00, 0x00, 0x2e,
  0xf6, 0x0b, 0xfb, 0x5c, 0x00, 0x00, 0x00, 0x1c, 0xf2, 0x0a, 0xe7, 0x4f,
  0x00, 0x00, 0x00, 0xf1, 0xf1, 0x0a, 0x02, 0x54, 0x00, 0x00, 0x00, 0xef,
  0xf9, 0x0b, 0x0c, 0x30, 0x00, 0x00, 0x00, 0xf0, 0x0e, 0x08, 0xf5, 0xe9,
  0x00, 0x00, 0x00, 0xec, 0x16, 0x08, 0xf8, 0xe9, 0x00, 0x00, 0x00, 0xf3,
  0x11, 0x0a, 0xf7, 0xd9, 0x00, 0x00, 0x00, 0xf7, 0x04, 0x07, 0xf4, 0xe3,
  0x00, 0x00, 0x00, 0xef, 0xf6, 0x06, 0xe4, 0x01, 0x00, 0x00, 0x00, 0xf1,
  0x01, 0x0a, 0x03, 0xf6, 0x00, 0x00, 0x00, 0xf2, 0x07, 0x05, 0x00, 0xfc,
  0x00, 0x00, 0x00, 0xef, 0x00, 0x04, 0xf3, 0xfb, 0x00, 0x00, 0x00, 0xf2,
  0xfc, 0x05, 0xf8, 0xf2, 0x00, 0x00, 0x00, 0xee, 0x04, 0x00, 0xe8, 0xe9,
  0x00, 0x00, 0x00, 0xf7, 0x06, 0x02, 0xf5, 0xe6, 0x00, 0x00, 0x00, 0xfc,
  0x08, 0xfd, 0xf3, 0xed, 0x00, 0x00, 0x00, 0x05, 0x01, 0xfc, 0xec, 0x01,
  0x00, 0x00, 0x00, 0x04, 0xfe, 0x05, 0x04, 0x25, 0x00, 0x00, 0x00, 0x05,
  0x00, 0x09, 0x02, 0x34, 0x00, 0x00, 0x00, 0xf4, 0xff, 0x08, 0x09, 0x39,
  0x00, 0x00, 0x00, 0xf0, 0xfb, 0x02, 0xe2, 0x1b, 0x00, 0x00, 0x00, 0xe5,
  0xf9, 0x02, 0xf2, 0x0f, 0x00, 0x00, 0x00, 0xec, 0xf6, 0x05, 0xda, 0x04,
  0x00, 0x00, 0x00, 0xf8, 0x06, 0xfa, 0xef, 0x03, 0x00, 0x00, 0x00, 0xfe,
  0x0d, 0xf9, 0xfc, 0xe6, 0x00, 0x00, 0x00, 0x0b, 0x29, 0xff, 0x0f, 0xee,
  0x00, 0x00, 0x00, 0x0a, 0x13, 0xfc, 0xe6, 0xe3, 0x00, 0x00, 0x00, 0xfb,
  0xfd, 0xfe, 0xe3, 0xf0, 0x00, 0x00, 0x00, 0xf6, 0xfb, 0xf9, 0xde, 0xf3,
  0x00, 0x00, 0x00, 0xf6, 0xf9, 0xfc, 0xd7, 0x06, 0x00, 0x00, 0x00, 0x06,
  0x00, 0xfc, 0xdc, 0x0d, 0x00, 0x00, 0x00, 0xf5, 0x06, 0xfc, 0xdf, 0x0a,
  0x00, 0x00, 0x00, 0xf0, 0x0f, 0xfc, 0xda, 0x02, 0x00, 0x00, 0x00, 0xf0,
  0x05, 0xfd, 0xe1, 0xee, 0x00, 0x00, 0x00, 0xf0, 0x10, 0xfe, 0xdb, 0xee,
  0x00, 0x00, 0x00, 0xe9, 0x08, 0xfd, 0xe4, 0xf0, 0x00, 0x00, 0x00, 0xeb,
  0x0a, 0xff, 0xe3, 0x04, 0x00, 0x00, 0x00, 0x10, 0x05, 0xfd, 0xe0, 0x16,
  0x00, 0x00, 0x00, 0x1b, 0xff, 0xfc, 0xe1, 0x18, 0x00, 0x00, 0x00, 0x11,
  0x01, 0xfc, 0xf1, 0x1b, 0x00, 0x00, 0x00, 0x06, 0x03, 0xfc, 0xfb, 0x19,
  0x00, 0x00, 0x00, 0xf1, 0x04, 0xfc, 0xf8, 0x1a, 0x00, 0x00, 0x00, 0xeb,
  0xf4, 0xfc, 0xed, 0x02, 0x00, 0x00, 0x00, 0xe6, 0xee, 0xfb, 0xed, 0xeb,
  0x00, 0x00, 0x00, 0xf0, 0xf0, 0xfc, 0xe9, 0xfc, 0x00, 0x00, 0x00, 0xed,
  0xfb, 0xfc, 0xed, 0xe7, 0x00, 0x00, 0x00, 0xf0, 0xf9, 0xfd, 0xeb, 0xec,
  0x00, 0x00, 0x00, 0xf9, 0xf8, 0xfd, 0xec, 0xea, 0x00, 0x00, 0x00, 0x04,
  0xfc, 0xfc, 0xf4, 0xfe, 0x00, 0x00, 0x00, 0x08, 0xfc, 0xfd, 0xf9, 0xfc,
  0x00, 0x00, 0x00, 0x01, 0xfa, 0xfe, 0xf8, 0xf4, 0x00, 0x00, 0x00, 0xfb,
  0xfb, 0xfd, 0xfd, 0xfc, 0x00, 0x00, 0x00, 0xfb, 0xf9, 0xfc, 0xee, 0x00,
  0x00, 0x00, 0x00, 0xfc, 0xfd, 0xfa, 0xea, 0x00, 0x00, 0x00, 0x00, 0xfb,
  0xfb, 0xfa, 0xe0, 0x09, 0x00, 0x00, 0x00, 0xf9, 0xf8, 0xfb, 0xf7, 0x03,
  0x00, 0x00, 0x00, 0xf5, 0xfa, 0xfc, 0xf4, 0x00, 0x00, 0x00, 0x00, 0xfd,
  0xf7, 0xfc, 0xe6, 0xf5, 0x00, 0x00, 0x00, 0x00, 0x00, 0x00, 0x00, 0x00,
  0x00, 0x00, 0x00, 0x00, 0x00, 0x00, 0x00, 0x00, 0x00, 0x00, 0x00, 0x00,
  0x00, 0x00, 0x00, 0x00, 0x00, 0x00, 0x00, 0x00, 0x00, 0x00, 0x00, 0x00,
  0x00, 0x00, 0x00, 0x00, 0x00, 0x00, 0x00, 0x00, 0x00, 0x00, 0x00, 0x00,
  0x00, 0x00, 0x00, 0x00, 0x00, 0x00, 0x00, 0x00, 0x00, 0x00, 0x00, 0x00,
  0x00, 0x00, 0x00, 0x00, 0x00, 0x00, 0x00, 0x00, 0x00, 0x00, 0x00, 0x00,
  0x00, 0x00, 0x00, 0x00, 0x00, 0x00, 0x00, 0x00, 0x00, 0x00, 0x00, 0x00,
  0x00, 0x00, 0x00, 0x00, 0x00, 0x00, 0x00, 0x00, 0x00, 0x00, 0x00, 0x00,
  0x00, 0x00, 0x00, 0x00, 0x00, 0x00, 0x00, 0x00, 0x00, 0x00, 0x00, 0x00,
  0x00, 0x00, 0x00, 0x00, 0x00, 0x00, 0x00, 0x00, 0x00, 0x00, 0x00, 0x00,
  0x00, 0x00, 0x00, 0x00, 0x00, 0x00, 0x00, 0x00, 0x00, 0x00, 0x00, 0x00,
  0x00, 0x00, 0x00, 0x00, 0x00, 0x00, 0x00, 0x00, 0x00, 0x00, 0x00, 0x00,
  0x00, 0x00, 0x00, 0x00, 0x00, 0x00, 0x00, 0x00, 0x00, 0x00, 0x00, 0x00,
  0x00, 0x00, 0x00, 0x00, 0x00, 0x00, 0x00, 0x00, 0x00, 0x00, 0x00, 0x00,
  0x00, 0x00, 0x00, 0x00, 0x00, 0x00, 0x00, 0x00, 0x00, 0x00, 0x00, 0x00,
  0x00, 0x00, 0x00, 0x00, 0x00, 0x00, 0x00, 0x00, 0x00, 0x00, 0x00, 0x00,
  0x00, 0x00, 0x00, 0x00, 0x00, 0x00, 0x00, 0x00, 0x00, 0x00, 0x00, 0x00,
  0x00, 0x00, 0x00, 0x00, 0x00, 0x00, 0x00, 0x00, 0x00, 0x00, 0x00, 0x00,
  0x00, 0x00, 0x00, 0x00, 0x00, 0x00, 0x00, 0x00, 0x00, 0x00, 0x00, 0x00,
  0x00, 0x00, 0x00, 0x00, 0x00, 0x00, 0x00, 0x00, 0x00, 0x00, 0x00, 0x00,
  0x00, 0x00, 0x00, 0x00, 0x00, 0x00, 0x00, 0x00, 0x00, 0x00, 0x00, 0x00,
  0x00, 0x00, 0x00, 0x00, 0x00, 0x00, 0x00, 0x00, 0x00, 0x00, 0x00, 0x00,
  0x00, 0x00, 0x00, 0x00, 0x00, 0x00, 0x00, 0x00, 0x00, 0x00, 0x00, 0x00,
  0x00, 0x00, 0x00, 0x00, 0x00, 0x00, 0x00, 0x00, 0x00, 0x00, 0x00, 0x00,
  0x00, 0x00, 0x00, 0x00, 0x00, 0x00, 0x00, 0x00, 0x00, 0x00, 0x00, 0x00,
  0x00, 0x00, 0x00, 0x00, 0x00, 0x00, 0x00, 0x00, 0x00, 0x00, 0x00, 0x00,
  0x00, 0x00, 0x00, 0x00, 0x00, 0x00, 0x00, 0x00, 0x00, 0x00, 0x00, 0x00,
  0x00, 0x00, 0x00, 0x00, 0x00, 0x00, 0x00, 0x00, 0x00, 0x00, 0x00, 0x00,
  0x00, 0x00, 0x00, 0x00, 0x00, 0x00, 0x00, 0x00, 0x00, 0x00, 0x00, 0x00,
  0x00, 0x00, 0x00, 0x00, 0x00, 0x00, 0x00, 0x00, 0x00, 0x00, 0x00, 0x00,
  0x00, 0x00, 0x00, 0x00, 0x00, 0x00, 0x00, 0x00, 0x00, 0x00, 0x00, 0x00,
  0x00, 0x00, 0x00, 0x00, 0x00, 0x00, 0x00, 0x00, 0x00, 0x00, 0x00, 0x00,
  0x00, 0x00, 0x00, 0x00, 0x00, 0x00, 0x00, 0x00, 0x00, 0x00, 0x00, 0x00,
  0x00, 0x00, 0x00, 0x00, 0x00, 0x00, 0x00, 0x00, 0x00, 0x00, 0x00, 0x00,
  0x00, 0x00, 0x00, 0x00, 0x00, 0x00, 0x00, 0x00, 0x00, 0x00, 0x00, 0x00,
  0x00, 0x00, 0x00, 0x00, 0x00, 0x00, 0x00, 0x00, 0x00, 0x00, 0x00, 0x00,
  0x00, 0x00, 0x00, 0x00, 0x00, 0x00, 0x00, 0x00, 0x00, 0x00, 0x00, 0x00,
  0x00, 0x00, 0x00, 0x00, 0x00, 0x00, 0x00, 0x00, 0x00, 0x00, 0x00, 0x00,
  0x00, 0x00, 0x00, 0x00, 0x00, 0x00, 0x00, 0x00, 0x00, 0x00, 0x00, 0x00,
  0x00, 0x00, 0x00, 0x00, 0x00, 0x00, 0x00, 0x00, 0x00, 0x00, 0x00, 0x00,
  0x00, 0x00, 0x00, 0x00, 0x00, 0x00, 0x00, 0x00, 0x00, 0x00, 0x00, 0x00,
  0x00, 0x00, 0x00, 0x00, 0x00, 0x00, 0x00, 0x00, 0x00, 0x00, 0x00, 0x00,
  0x00, 0x00, 0x00, 0x00, 0x00, 0x00, 0x00, 0x00, 0x00, 0x00, 0x00, 0x00,
  0x00, 0x00, 0x00, 0x00, 0x00, 0x00, 0x00, 0x00, 0x00, 0x00, 0x00, 0x00,
  0x00, 0x00, 0x00, 0x00, 0x00, 0x00, 0x00, 0x00, 0x00, 0x00, 0x00, 0x00,
  0x00, 0x00, 0x00, 0x00, 0x00, 0x00, 0x00, 0x00, 0x00, 0x00, 0x00, 0x00,
  0x00, 0x00, 0x00, 0x00, 0x00, 0x00, 0x00, 0x00, 0x00, 0x00, 0x00, 0x00,
  0x00, 0x00, 0x00, 0x00, 0x00, 0x00, 0x00, 0x00, 0x00, 0x00, 0x00, 0x00,
  0x00, 0x00, 0x00, 0x00, 0x00, 0x00, 0x00, 0x00, 0x00, 0x00, 0x00, 0x00,
  0x00, 0x00, 0x00, 0x00, 0x00, 0x00, 0x00, 0x00, 0x00, 0x00, 0x00, 0x00,
  0x00, 0x00, 0x00, 0x00, 0x00, 0x00, 0x00, 0x00, 0x00, 0x00, 0x00, 0x00,
  0x00, 0x00, 0x00, 0x00, 0x00, 0x00, 0x00, 0x00, 0x00, 0x00, 0x00, 0x00,
  0x00, 0x00, 0x00, 0x00, 0x00, 0x00, 0x00, 0x00, 0x00, 0x00, 0x00, 0x00,
  0x00, 0x00, 0x00, 0x00, 0x00, 0x00, 0x00, 0x00, 0x00, 0x00, 0x00, 0x00,
  0x00, 0x00, 0x00, 0x00, 0x00, 0x00, 0x00, 0x00, 0x00, 0x00, 0x00, 0x00,
  0x00, 0x00, 0x00, 0x00, 0x00, 0x00, 0x00, 0x00, 0x00, 0x00, 0x00, 0x00,
  0x00, 0x00, 0x00, 0x00, 0x00, 0x00, 0x00, 0x00, 0x00, 0x00, 0x00, 0x00,
  0x00, 0x00, 0x00, 0x00, 0x00, 0x00, 0x00, 0x00, 0x00, 0x00, 0x00, 0x00,
  0x00, 0x00, 0x00, 0x00, 0x00, 0x00, 0x00, 0x00, 0x00, 0x00, 0x00, 0x00,
  0x00, 0x00, 0x00, 0x00, 0x00, 0x00, 0x00, 0x00, 0x00, 0x00, 0x00, 0x00,
  0x00, 0x00, 0x00, 0x00, 0x00, 0x00, 0x00, 0x00, 0x00, 0x00, 0x00, 0x00,
  0x00, 0x00, 0x00, 0x00, 0x00, 0x00, 0x00, 0x00, 0x00, 0x00, 0x00, 0x00,
  0x00, 0x00, 0x00, 0x00, 0x00, 0x00, 0x00, 0x00, 0x00, 0x00, 0x00, 0x00,
  0x00, 0x00, 0x00, 0x00, 0x00, 0x00, 0x00, 0x00, 0x00, 0x00, 0x00, 0x00,
  0x00, 0x00, 0x00, 0x00, 0x00, 0x00, 0x00, 0x00, 0x00, 0x00, 0x00, 0x00,
  0x00, 0x00, 0x00, 0x00, 0x00, 0x00, 0x00, 0x00, 0x00, 0x00, 0x00, 0x00,
  0x00, 0x00, 0x00, 0x00, 0x00, 0x00, 0x00, 0x00, 0x00, 0x00, 0x00, 0x00,
  0x00, 0x00, 0x00, 0x00, 0x00, 0x00, 0x00, 0x00, 0x00, 0x00, 0x00, 0x00,
  0x00, 0x00, 0x00, 0x00, 0x00, 0x00, 0x00, 0x00, 0x00, 0x00, 0x00, 0x00,
  0x00, 0x00, 0x00, 0x00, 0x00, 0x00, 0x00, 0x00, 0x00, 0x00, 0x00, 0x00,
  0x00, 0x00, 0x00, 0x00, 0x00, 0x00, 0x00, 0x00, 0x00, 0x00, 0x00, 0x00,
  0x00, 0x00, 0x00, 0x00, 0x00, 0x00, 0x00, 0x00, 0x00, 0x00, 0x00, 0x00,
  0x00, 0x00, 0x00, 0x00, 0x00, 0x00, 0x00, 0x00, 0x00, 0x00, 0x00, 0x00,
  0x00, 0x00, 0x00, 0x00, 0x00, 0x00, 0x00, 0x00, 0x00, 0x00, 0x00, 0x00,
  0x00, 0x00, 0x00, 0x00, 0x00, 0x00, 0x00, 0x00, 0x00, 0x00, 0x00, 0x00,
  0x00, 0x00, 0x00, 0x00, 0x00, 0x00, 0x00, 0x00, 0x00, 0x00, 0x00, 0x00,
  0x00, 0x00, 0x00, 0x00, 0x00, 0x00, 0x00, 0x00, 0x00, 0x00, 0x00, 0x00,
  0x00, 0x00, 0x00, 0x00, 0x00, 0x00, 0x00, 0x00, 0x00, 0x00, 0x00, 0x00,
  0x00, 0x00, 0x00, 0x00, 0x00, 0x00, 0x00, 0x00, 0x00, 0x00, 0x00, 0x00,
  0x00, 0x00, 0x00, 0x00, 0x00, 0x00, 0x00, 0x00, 0x00, 0x00, 0x00, 0x00,
  0x00, 0x00, 0x00, 0x00, 0x00, 0x00, 0x00, 0x00, 0x00, 0x00, 0x00, 0x00,
  0x00, 0x00, 0x00, 0x00, 0x00, 0x00, 0x00, 0x00, 0x00, 0x00, 0x00, 0x00,
  0x00, 0x00, 0x00, 0x00, 0x00, 0x00, 0x00, 0x00, 0x00, 0x00, 0x00, 0x00,
  0x00, 0x00, 0x00, 0x00, 0x00, 0x00, 0x00, 0x00, 0x00, 0x00, 0x00, 0x00,
  0x00, 0x00, 0x00, 0x00, 0x00, 0x00, 0x00, 0x00, 0x00, 0x00, 0x00, 0x00,
  0x00, 0x00, 0x00, 0x00, 0x00, 0x00, 0x00, 0x00, 0x00, 0x00, 0x00, 0x00,
  0x00, 0x00, 0x00, 0x00, 0x00, 0x00, 0x00, 0x00, 0x00, 0x00, 0x00, 0x00,
  0x00, 0x00, 0x00, 0x00, 0x00, 0x00, 0x00, 0x00, 0x00, 0x00, 0x00, 0x00,
  0x00, 0x00, 0x00, 0x00, 0x00, 0x00, 0x00, 0x00, 0x00, 0x00, 0x00, 0x00,
  0x00, 0x00, 0x00, 0x00, 0x00, 0x00, 0x00, 0x00, 0x00, 0x00, 0x00, 0x00,
  0x00, 0x00, 0x00, 0x00, 0x00, 0x00, 0x00, 0x00, 0x00, 0x00, 0x00, 0x00,
  0x00, 0x00, 0x00, 0x00, 0x00, 0x00, 0x00, 0x00, 0x00, 0x00, 0x00, 0x00,
  0x00, 0x00, 0x00, 0x00, 0x00, 0x00, 0x00, 0x00, 0x00, 0x00, 0x00, 0x00,
  0x00, 0x00, 0x00, 0x00, 0x00, 0x00, 0x00, 0x00, 0x00, 0x00, 0x00, 0x00,
  0x00, 0x00, 0x00, 0x00, 0x00, 0x00, 0x00, 0x00, 0x00, 0x00, 0x00, 0x00,
  0x00, 0x00, 0x00, 0x00, 0x00, 0x00, 0x00, 0x00, 0x00, 0x00, 0x00, 0x00,
  0x00, 0x00, 0x00, 0x00, 0x00, 0x00, 0x00, 0x00, 0x00, 0x00, 0x00, 0x00,
  0x00, 0x00, 0x00, 0x00, 0x00, 0x00, 0x00, 0x00, 0x00, 0x00, 0x00, 0x00,
  0x00, 0x00, 0x00, 0x00, 0x00, 0x00, 0x00, 0x00, 0x00, 0x00, 0x00, 0x00,
  0x00, 0x00, 0x00, 0x00, 0x00, 0x00, 0x00, 0x00, 0x00, 0x00, 0x00, 0x00,
  0x00, 0x00, 0x00, 0x00, 0x00, 0x00, 0x00, 0x00, 0x00, 0x00, 0x00, 0x00,
  0x00, 0x00, 0x00, 0x00, 0x00, 0x00, 0x00, 0x00, 0x00, 0x00, 0x00, 0x00,
  0x00, 0x00, 0x00, 0x00, 0x00, 0x00, 0x00, 0x00, 0x00, 0x00, 0x00, 0x00,
  0x00, 0x00, 0x00, 0x00, 0x00, 0x00, 0x00, 0x00, 0x00, 0x00, 0x00, 0x00,
  0x00, 0x00, 0x00, 0x00, 0x00, 0x00, 0x00, 0x00, 0x00, 0x00, 0x00, 0x00,
  0x00, 0x00, 0x00, 0x00, 0x00, 0x00, 0x00, 0x00, 0x00, 0x00, 0x00, 0x00,
  0x00, 0x00, 0x00, 0x00, 0x00, 0x00, 0x00, 0x00, 0x00, 0x00, 0x00, 0x00,
  0x00, 0x00, 0x00, 0x00, 0x00, 0x00, 0x00, 0x00, 0x00, 0x00, 0x00, 0x00,
  0x00, 0x00, 0x00, 0x00, 0x00, 0x00, 0x00, 0x00, 0x00, 0x00, 0x00, 0x00,
  0x00, 0x00, 0x00, 0x00, 0x00, 0x00, 0x00, 0x00, 0x00, 0x00, 0x00, 0x00,
  0x00, 0x00, 0x00, 0x00, 0x00, 0x00, 0x00, 0x00, 0x00, 0x00, 0x00, 0x00,
  0x00, 0x00, 0x00, 0x00, 0x00, 0x00, 0x00, 0x00, 0x00, 0x00, 0x00, 0x00,
  0x00, 0x00, 0x00, 0x00, 0x00, 0x00, 0x00, 0x00, 0x00, 0x00, 0x00, 0x00,
  0x00, 0x00, 0x00, 0x00, 0x00, 0x00, 0x00, 0x00, 0x00, 0x00, 0x00, 0x00,
  0x00, 0x00, 0x00, 0x00, 0x00, 0x00, 0x00, 0x00, 0x00, 0x00, 0x00, 0x00,
  0x00, 0x00, 0x00, 0x00, 0x00, 0x00, 0x00, 0x00, 0x00, 0x00, 0x00, 0x00,
  0x00, 0x00, 0x00, 0x00, 0x00, 0x00, 0x00, 0x00, 0x00, 0x00, 0x00, 0x00,
  0x00, 0x00, 0x00, 0x00, 0x00, 0x00, 0x00, 0x00, 0x00, 0x00, 0x00, 0x00,
  0x00, 0x00, 0x00, 0x00, 0x00, 0x00, 0x00, 0x00, 0x00, 0x00, 0x00, 0x00,
  0x00, 0x00, 0x00, 0x00, 0x00, 0x00, 0x00, 0x00, 0x00, 0x00, 0x00, 0x00,
  0x00, 0x00, 0x00, 0x00, 0x00, 0x00, 0x00, 0x00, 0x00, 0x00, 0x00, 0x00,
  0x00, 0x00, 0x00, 0x00, 0x00, 0x00, 0x00, 0x00, 0x00, 0x00, 0x00, 0x00,
  0x00, 0x00, 0x00, 0x00, 0x00, 0x00, 0x00, 0x00, 0x06, 0xff, 0xf5, 0x05,
  0x00, 0x00, 0x00, 0x00, 0x09, 0xfe, 0xed, 0x02, 0x00, 0x00, 0x00, 0x00,
  0x0b, 0xff, 0xf5, 0xfd, 0x00, 0x00, 0x00, 0x00, 0x06, 0x00, 0xe1, 0xfb,
  0x00, 0x00, 0x00, 0x00, 0x08, 0xff, 0xf5, 0x07, 0x00, 0x00, 0x00, 0x06,
  0x0a, 0x00, 0xeb, 0x05, 0x00, 0x00, 0x00, 0x00, 0x02, 0x00, 0xed, 0xfa,
  0x00, 0x00, 0x00, 0xfe, 0xfd, 0xfe, 0xec, 0xed, 0x00, 0x00, 0x00, 0xfd,
  0xff, 0xff, 0xe5, 0xf2, 0x00, 0x00, 0x00, 0xff, 0xff, 0x01, 0xf2, 0x00,
  0x00, 0x00, 0x00, 0xfe, 0x07, 0xff, 0xef, 0x04, 0x00, 0x00, 0x00, 0x01,
  0x0c, 0xfe, 0xe7, 0xfc, 0x00, 0x00, 0x00, 0x06, 0x04, 0xfa, 0xe0, 0x00,
  0x00, 0x00, 0x00, 0x12, 0x04, 0xfb, 0xe4, 0xfc, 0x00, 0x00, 0x00, 0x16,
  0xf6, 0xfc, 0xdd, 0xfd, 0x00, 0x00, 0x00, 0x1a, 0xfe, 0x00, 0xe4, 0xfe,
  0x00, 0x00, 0x00, 0x15, 0x02, 0x00, 0xe6, 0xfe, 0x00, 0x00, 0x00, 0x0d,
  0x04, 0x00, 0xef, 0xf8, 0x00, 0x00, 0x00, 0x0a, 0x04, 0x01, 0xf4, 0xe9,
  0x00, 0x00, 0x00, 0x07, 0x01, 0x01, 0xf8, 0xdc, 0x00, 0x00, 0x00, 0xff,
  0x00, 0xff, 0xf9, 0xbf, 0x00, 0x00, 0x00, 0x03, 0xf8, 0xff, 0xf5, 0xc3,
  0x00, 0x00, 0x00, 0x12, 0xfa, 0xff, 0xfa, 0xec, 0x00, 0x00, 0x00, 0x16,
  0xf5, 0xfe, 0xff, 0x01, 0x00, 0x00, 0x00, 0x1a, 0xf0, 0xfe, 0x04, 0x0e,
  0x00, 0x00, 0x00, 0x17, 0xf5, 0xff, 0xed, 0x0d, 0x00, 0x00, 0x00, 0x0f,
  0xf3, 0x00, 0xf3, 0xfd, 0x00, 0x00, 0x00, 0x16, 0xf8, 0x00, 0xfc, 0xfe,
  0x00, 0x00, 0x00, 0xef, 0xf1, 0xfd, 0xf9, 0xfb, 0x00, 0x00, 0x00, 0xfc,
  0xf1, 0x02, 0x01, 0x03, 0x00, 0x00, 0x00, 0xfd, 0xf1, 0xff, 0xe4, 0x12,
  0x00, 0x00, 0x00, 0x11, 0xed, 0x03, 0xf8, 0x11, 0x00, 0x00, 0x00, 0x07,
  0xeb, 0x05, 0xff, 0x01, 0x00, 0x00, 0x00, 0xf7, 0xe9, 0x04, 0xf6, 0x10,
  0x00, 0x00, 0x00, 0xfe, 0xf1, 0x07, 0x14, 0x22, 0x00, 0x00, 0x00, 0x09,
  0xf1, 0x08, 0x14, 0x22, 0x00, 0x00, 0x00, 0x00, 0xe0, 0x09, 0x0c, 0x34,
  0x00, 0x00, 0x00, 0x04, 0xd7, 0x0a, 0x1b, 0x08, 0x00, 0x00, 0x00, 0x07,
  0xdb, 0xfe, 0x0c, 0xe5, 0x00, 0x00, 0x00, 0xfb, 0xe2, 0xfe, 0x1b, 0x10,
  0x00, 0x00, 0x00, 0xf4, 0xe9, 0x05, 0x0c, 0xec, 0x00, 0x00, 0x00, 0xee,
  0xee, 0x02, 0x22, 0xfc, 0x00, 0x00, 0x00, 0xeb, 0xe8, 0x03, 0x18, 0x05,
  0x00, 0x00, 0x00, 0xf2, 0xf1, 0xff, 0x1b, 0x1e, 0x00, 0x00, 0x00, 0xf1,
  0xee, 0xfd, 0x3e, 0x0a, 0x00, 0x00, 0x00, 0xe4, 0xeb, 0x04, 0x2d, 0xf7,
  0x00, 0x00, 0x00, 0xe9, 0xe2, 0x06, 0xfd, 0x02, 0x00, 0x00, 0x00, 0xf5,
  0xf9, 0x09, 0x10, 0x15, 0x00, 0x00, 0x00, 0xfa, 0xf7, 0x07, 0x17, 0x21,
  0x00, 0x00, 0x00, 0x03, 0xf4, 0x06, 0x0c, 0x0e, 0x00, 0x00, 0x00, 0x03,
  0xfd, 0x05, 0x1a, 0xf2, 0x00, 0x00, 0x00, 0x02, 0xfb, 0x02, 0x13, 0xf8,
  0x00, 0x00, 0x00, 0x03, 0xfb, 0xfa, 0xfd, 0xe4, 0x00, 0x00, 0x00, 0x07,
  0xfe, 0x06, 0xfb, 0x01, 0x00, 0x00, 0x00, 0x05, 0xfd, 0x05, 0x05, 0x01,
  0x00, 0x00, 0x00, 0x02, 0x01, 0x06, 0xf8, 0xfe, 0x00, 0x00, 0x00, 0x03,
  0x00, 0x04, 0xff, 0x00, 0x00, 0x00, 0x00, 0x02, 0xfe, 0x02, 0x07, 0x03,
  0x00, 0x00, 0x00, 0xfe, 0x01, 0x01, 0xf3, 0xfa, 0x00, 0x00, 0x00, 0x00,
  0x03, 0x01, 0xf8, 0xf8, 0x00, 0x00, 0x00, 0x01, 0x03, 0x00, 0xf5, 0xfd,
  0x00, 0x00, 0x00, 0x00, 0x00, 0x00, 0x00, 0x00, 0x00, 0x00, 0x00, 0x00,
  0x00, 0x00, 0x00, 0x00, 0x00, 0x00, 0x00, 0x00, 0x00, 0x00, 0x00, 0x00,
  0x00, 0x00, 0x00, 0x00, 0x00, 0x00, 0x00, 0x00, 0x00, 0x00, 0x00, 0x00,
  0x00, 0x00, 0x00, 0x00, 0x00, 0x00, 0x00, 0x00, 0x00, 0x00, 0x00, 0x00,
  0x00, 0x00, 0x00, 0x00, 0x00, 0x00, 0x00, 0x00, 0x00, 0x00, 0x00, 0x00,
  0x00, 0x00, 0x00, 0x00, 0x00, 0x00, 0x00, 0x00, 0x00, 0x00, 0x00, 0x00,
  0x00, 0x00, 0x00, 0x00, 0x00, 0x00, 0x00, 0x00, 0x00, 0x00, 0x00, 0x00,
  0x00, 0x00, 0x00, 0x00, 0x00, 0x00, 0x00, 0x00, 0x00, 0x00, 0x00, 0x00,
  0x00, 0x00, 0x00, 0x00, 0x00, 0x00, 0x00, 0x00, 0x00, 0x00, 0x00, 0x00,
  0x00, 0x00, 0x00, 0x00, 0x00, 0x00, 0x00, 0x00, 0x00, 0x00, 0x00, 0x00,
  0x00, 0x00, 0x00, 0x00, 0x00, 0x00, 0x00, 0x00, 0x00, 0x00, 0x00, 0x00,
  0x00, 0x00, 0x00, 0x00, 0x00, 0x00, 0x00, 0x00, 0x00, 0x00, 0x00, 0x00,
  0x00, 0x00, 0x00, 0x00, 0x00, 0x00, 0x00, 0x00, 0x00, 0x00, 0x00, 0x00,
  0x00, 0x00, 0x00, 0x00, 0x00, 0x00, 0x00, 0x00, 0x00, 0x00, 0x00, 0x00,
  0x00, 0x00, 0x00, 0x00, 0x00, 0x00, 0x00, 0x00, 0x00, 0x00, 0x00, 0x00,
  0x00, 0x00, 0x00, 0x00, 0x00, 0x00, 0x00, 0x00, 0x00, 0x00, 0x00, 0x00,
  0x00, 0x00, 0x00, 0x00, 0x00, 0x00, 0x00, 0x00, 0x00, 0x00, 0x00, 0x00,
  0x00, 0x00, 0x00, 0x00, 0x00, 0x00, 0x00, 0x00, 0x00, 0x00, 0x00, 0x00,
  0x00, 0x00, 0x00, 0x00, 0x00, 0x00, 0x00, 0x00, 0x00, 0x00, 0x00, 0x00,
  0x00, 0x00, 0x00, 0x00, 0x00, 0x00, 0x00, 0x00, 0x00, 0x00, 0x00, 0x00,
  0x00, 0x00, 0x00, 0x00, 0x00, 0x00, 0x00, 0x00, 0x00, 0x00, 0x00, 0x00,
  0x00, 0x00, 0x00, 0x00, 0x00, 0x00, 0x00, 0x00, 0x00, 0x00, 0x00, 0x00,
  0x00, 0x00, 0x00, 0x00, 0x00, 0x00, 0x00, 0x00, 0x00, 0x00, 0x00, 0x00,
  0x00, 0x00, 0x00, 0x00, 0x00, 0x00, 0x00, 0x00, 0x00, 0x00, 0x00, 0x00,
  0x00, 0x00, 0x00, 0x00, 0x00, 0x00, 0x00, 0x00, 0x00, 0x00, 0x00, 0x00,
  0x00, 0x00, 0x00, 0x00, 0x00, 0x00, 0x00, 0x00, 0x00, 0x00, 0x00, 0x00,
  0x00, 0x00, 0x00, 0x00, 0x00, 0x00, 0x00, 0x00, 0x00, 0x00, 0x00, 0x00,
  0x00, 0x00, 0x00, 0x00, 0x00, 0x00, 0x00, 0x00, 0x00, 0x00, 0x00, 0x00,
  0x00, 0x00, 0x00, 0x00, 0x00, 0x00, 0x00, 0x00, 0x00, 0x00, 0x00, 0x00,
  0x00, 0x00, 0x00, 0x00, 0x00, 0x00, 0x00, 0x00, 0x00, 0x00, 0x00, 0x00,
  0x00, 0x00, 0x00, 0x00, 0x00, 0x00, 0x00, 0x00, 0x00, 0x00, 0x00, 0x00,
  0x00, 0x00, 0x00, 0x00, 0x00, 0x00, 0x00, 0x00, 0x00, 0x00, 0x00, 0x00,
  0x00, 0x00, 0x00, 0x00, 0x00, 0x00, 0x00, 0x00, 0x00, 0x00, 0x00, 0x00,
  0x00, 0x00, 0x00, 0x00, 0x00, 0x00, 0x00, 0x00, 0x00, 0x00, 0x00, 0x00,
  0x00, 0x00, 0x00, 0x00, 0x00, 0x00, 0x00, 0x00, 0x00, 0x00, 0x00, 0x00,
  0x00, 0x00, 0x00, 0x00, 0x00, 0x00, 0x00, 0x00, 0x00, 0x00, 0x00, 0x00,
  0x00, 0x00, 0x00, 0x00, 0x00, 0x00, 0x00, 0x00, 0x00, 0x00, 0x00, 0x00,
  0x00, 0x00, 0x00, 0x00, 0x00, 0x00, 0x00, 0x00, 0x00, 0x00, 0x00, 0x00,
  0x00, 0x00, 0x00, 0x00, 0x00, 0x00, 0x00, 0x00, 0x00, 0x00, 0x00, 0x00,
  0x00, 0x00, 0x00, 0x00, 0x00, 0x00, 0x00, 0x00, 0x00, 0x00, 0x00, 0x00,
  0x00, 0x00, 0x00, 0x00, 0x00, 0x00, 0x00, 0x00, 0x00, 0x00, 0x00, 0x03,
  0x29, 0xfa, 0xcb, 0xec, 0x00, 0x00, 0x00, 0x0e, 0x22, 0xfa, 0xbf, 0xd0,
  0x00, 0x00, 0x00, 0x18, 0x25, 0xfb, 0xce, 0xbc, 0x00, 0x00, 0x00, 0x1d,
  0x09, 0xfd, 0xdd, 0xbf, 0x00, 0x00, 0x00, 0x18, 0x11, 0xff, 0x24, 0xde,
  0x00, 0x00, 0x00, 0x34, 0x24, 0xfe, 0x07, 0xd6, 0x00, 0x00, 0x00, 0x13,
  0x20, 0xf8, 0xf9, 0xee, 0x00, 0x00, 0x00, 0x1d, 0xfd, 0x00, 0x0e, 0xe7,
  0x00, 0x00, 0x00, 0x1b, 0xf9, 0x05, 0x01, 0xd3, 0x00, 0x00, 0x00, 0x13,
  0xf4, 0xff, 0xf8, 0xb0, 0x00, 0x00, 0x00, 0xf7, 0x05, 0xff, 0xe1, 0xb5,
  0x00, 0x00, 0x00, 0x06, 0x2d, 0xfb, 0x0e, 0xf1, 0x00, 0x00, 0x00, 0x19,
  0x14, 0xe9, 0xef, 0xe0, 0x00, 0x00, 0x00, 0x17, 0x16, 0xee, 0xe7, 0xc7,
  0x00, 0x00, 0x00, 0x16, 0x02, 0xf4, 0xe2, 0xb1, 0x00, 0x00, 0x00, 0x1a,
  0x09, 0xfc, 0xfb, 0xe2, 0x00, 0x00, 0x00, 0x1d, 0xfa, 0xfa, 0x00, 0xe5,
  0x00, 0x00, 0x00, 0x05, 0xe2, 0xfb, 0x00, 0xeb, 0x00, 0x00, 0x00, 0x01,
  0xf7, 0xfe, 0x0a, 0x9a, 0x00, 0x00, 0x00, 0xe9, 0xf9, 0x03, 0x5e, 0xa7,
  0x00, 0x00, 0x00, 0xeb, 0xf1, 0xfe, 0xf2, 0x88, 0x00, 0x00, 0x00, 0x04,
  0xe8, 0x00, 0x09, 0xa7, 0x00, 0x00, 0x00, 0x22, 0xfe, 0xf9, 0x06, 0xba,
  0x00, 0x00, 0x00, 0x12, 0x09, 0xf9, 0x12, 0xd3, 0x00, 0x00, 0x00, 0x28,
  0x05, 0x01, 0x26, 0xd6, 0x00, 0x00, 0x00, 0x37, 0x03, 0x05, 0x2a, 0xc7,
  0x00, 0x00, 0x00, 0x18, 0xe1, 0x0a, 0x08, 0xb4, 0x00, 0x00, 0x00, 0x3e,
  0xe4, 0x0d, 0x0c, 0xd5, 0x00, 0x00, 0x00, 0xb6, 0xc9, 0x05, 0xf6, 0xef,
  0x00, 0x00, 0x00, 0xdc, 0xde, 0x0c, 0x45, 0xea, 0x00, 0x00, 0x00, 0xd7,
  0xfc, 0xff, 0x2b, 0xb0, 0x00, 0x00, 0x00, 0x19, 0x02, 0x08, 0x47, 0xb0,
  0x00, 0x00, 0x00, 0x13, 0x06, 0x0b, 0x54, 0xd3, 0x00, 0x00, 0x00, 0xee,
  0x12, 0xd7, 0xfc, 0xac, 0x00, 0x00, 0x00, 0x08, 0x1c, 0xc7, 0x24, 0xc3,
  0x00, 0x00, 0x00, 0x17, 0x20, 0xd6, 0xf5, 0xae, 0x00, 0x00, 0x00, 0x09,
  0xf0, 0xdc, 0xe1, 0x89, 0x00, 0x00, 0x00, 0x08, 0xcb, 0x12, 0x38, 0xc7,
  0x00, 0x00, 0x00, 0xf4, 0xe9, 0x12, 0x0e, 0xf4, 0x00, 0x00, 0x00, 0xef,
  0xe6, 0x0e, 0x29, 0xfd, 0x00, 0x00, 0x00, 0xd3, 0x00, 0x0f, 0x13, 0xb1,
  0x00, 0x00, 0x00, 0xc7, 0x29, 0x0f, 0x44, 0xd1, 0x00, 0x00, 0x00, 0xcf,
  0x13, 0x10, 0x0d, 0xd4, 0x00, 0x00, 0x00, 0xd7, 0x16, 0x09, 0x0f, 0xfb,
  0x00, 0x00, 0x00, 0x1c, 0x0a, 0x08, 0x24, 0xd6, 0x00, 0x00, 0x00, 0x0c,
  0x0e, 0x10, 0x2a, 0xcf, 0x00, 0x00, 0x00, 0x13, 0xfc, 0x0d, 0xf7, 0xd9,
  0x00, 0x00, 0x00, 0x10, 0x1b, 0x10, 0x00, 0xc9, 0x00, 0x00, 0x00, 0x20,
  0x0c, 0x11, 0xf3, 0xea, 0x00, 0x00, 0x00, 0x18, 0x0b, 0x0e, 0x03, 0xe6,
  0x00, 0x00, 0x00, 0x0b, 0x18, 0x13, 0xfa, 0xf9, 0x00, 0x00, 0x00, 0x05,
  0x0c, 0x12, 0x1d, 0xe8, 0x00, 0x00, 0x00, 0xfc, 0x0d, 0x0f, 0xf2, 0xe9,
  0x00, 0x00, 0x00, 0x05, 0x26, 0x0f, 0xfb, 0xdc, 0x00, 0x00, 0x00, 0xfe,
  0x27, 0x0f, 0xe7, 0xd7, 0x00, 0x00, 0x00, 0xfe, 0x34, 0x12, 0x0f, 0xe7,
  0x00, 0x00, 0x00, 0x08, 0x24, 0x14, 0xf5, 0xe4, 0x00, 0x00, 0x00, 0x06,
  0x20, 0x10, 0x0f, 0xf8, 0x00, 0x00, 0x00, 0x08, 0x22, 0x10, 0xd7, 0xf1,
  0x00, 0x00, 0x00, 0x13, 0x22, 0x0d, 0xde, 0xd2, 0x00, 0x00, 0x00, 0x06,
  0x29, 0x09, 0xf6, 0xdc, 0x00, 0x00, 0x00, 0xfe, 0xf2, 0xff, 0x1e, 0xd6,
  0x00, 0x00, 0x00, 0xfe, 0xf4, 0xfb, 0x14, 0xdc, 0x00, 0x00, 0x00, 0xf3,
  0xf6, 0xfa, 0x08, 0xe6, 0x00, 0x00, 0x00, 0xf1, 0x06, 0xf8, 0xf5, 0xe6,
  0x00, 0x00, 0x00, 0xfa, 0x01, 0xf8, 0x00, 0xd4, 0x00, 0x00, 0x00, 0xf4,
  0x02, 0xf8, 0xfc, 0xde, 0x00, 0x00, 0x00, 0xf3, 0x12, 0xf8, 0xf8, 0xfd,
  0x00, 0x00, 0x00, 0xf3, 0x23, 0xfb, 0xe3, 0xe3, 0x00, 0x00, 0x00, 0xf0,
  0x2c, 0xfc, 0xde, 0xda, 0x00, 0x00, 0x00, 0xe7, 0x2f, 0xfd, 0xed, 0xc1,
  0x00, 0x00, 0x00, 0xe5, 0x1c, 0xff, 0xf0, 0xc9, 0x00, 0x00, 0x00, 0xe7,
  0x06, 0x04, 0xd6, 0xcf, 0x00, 0x00, 0x00, 0xe6, 0x12, 0x19, 0x03, 0xde,
  0x00, 0x00, 0x00, 0xe3, 0x07, 0x18, 0x02, 0x43, 0x00, 0x00, 0x00, 0xe1,
  0x18, 0x13, 0xee, 0x3f, 0x00, 0x00, 0x00, 0xf3, 0x09, 0x09, 0xe5, 0x06,
  0x00, 0x00, 0x00, 0xfd, 0x0f, 0x0c, 0xf2, 0xea, 0x00, 0x00, 0x00, 0x01,
  0x12, 0x0b, 0xe1, 0xf1, 0x00, 0x00, 0x00, 0xfa, 0x16, 0x0a, 0xf0, 0xd2,
  0x00, 0x00, 0x00, 0x11, 0x0c, 0x07, 0x05, 0xbf, 0x00, 0x00, 0x00, 0x13,
  0x02, 0x08, 0x1b, 0xb7, 0x00, 0x00, 0x00, 0x0d, 0x08, 0x10, 0xfe, 0x13,
  0x00, 0x00, 0x00, 0xf6, 0xfe, 0x1a, 0x08, 0x56, 0x00, 0x00, 0x00, 0x04,
  0xfd, 0x00, 0xec, 0x26, 0x00, 0x00, 0x00, 0xe2, 0xf7, 0xf3, 0xfa, 0x16,
  0x00, 0x00, 0x00, 0xfc, 0xfd, 0xfe, 0xe3, 0x29, 0x00, 0x00, 0x00, 0xf0,
  0xf4, 0xf1, 0xc5, 0x5b, 0x00, 0x00, 0x00, 0xeb, 0xf0, 0xe5, 0x9d, 0x1b,
  0x00, 0x00, 0x00, 0x20, 0xf1, 0xf0, 0xc7, 0xfe, 0x00, 0x00, 0x00, 0xfb,
  0xf4, 0xf4, 0xc5, 0x09, 0x00, 0x00, 0x00, 0xf0, 0xf3, 0xf7, 0xe3, 0xf9,
  0x00, 0x00, 0x00, 0xf3, 0xed, 0xf4, 0xf1, 0xf7, 0x00, 0x00, 0x00, 0xee,
  0xeb, 0xf5, 0xbe, 0x05, 0x00, 0x00, 0x00, 0x02, 0xe8, 0xf5, 0xc8, 0x08,
  0x00, 0x00, 0x00, 0xfd, 0xf1, 0xf5, 0xad, 0xe6, 0x00, 0x00, 0x00, 0xe7,
  0xee, 0xf7, 0xc6, 0xf3, 0x00, 0x00, 0x00, 0xe9, 0xed, 0xf9, 0xdb, 0xfb,
  0x00, 0x00, 0x00, 0xfc, 0xf9, 0xf7, 0xbd, 0x03, 0x00, 0x00, 0x00, 0xf2,
  0xf0, 0xf8, 0xd1, 0x1a, 0x00, 0x00, 0x00, 0xed, 0xff, 0xfb, 0xba, 0x24,
  0x00, 0x00, 0x00, 0xee, 0x08, 0xf7, 0xcc, 0x1f, 0x00, 0x00, 0x00, 0xf2,
  0xed, 0xf8, 0xc4, 0x31, 0x00, 0x00, 0x00, 0xf8, 0x00, 0xf1, 0xc8, 0x3d,
  0x00, 0x00, 0x00, 0xfc, 0x0a, 0xfb, 0xd4, 0x34, 0x00, 0x00, 0x00, 0xf2,
  0x1d, 0xfa, 0xb7, 0x34, 0x00, 0x00, 0x00, 0xf1, 0x14, 0xf3, 0xbe, 0x26,
  0x00, 0x00, 0x00, 0xf4, 0x16, 0xf1, 0xb7, 0xee, 0x00, 0x00, 0x00, 0x02,
  0x13, 0xf7, 0xa8, 0xeb, 0x00, 0x00, 0x00, 0x05, 0x13, 0xf7, 0xc1, 0xdc,
  0x00, 0x00, 0x00, 0x04, 0x13, 0xfa, 0xbe, 0xe9, 0x00, 0x00, 0x00, 0x09,
  0x06, 0xf8, 0xc4, 0xf2, 0x00, 0x00, 0x00, 0x07, 0x22, 0xf7, 0xdc, 0xf0,
  0x00, 0x00, 0x00, 0x0d, 0x21, 0xf6, 0xe7, 0xdd, 0x00, 0x00, 0x00, 0xfc,
  0x0a, 0xf5, 0xe3, 0xe7, 0x00, 0x00, 0x00, 0xf9, 0x03, 0xf9, 0xee, 0x00,
  0x00, 0x00, 0x00, 0xf5, 0xf6, 0xf8, 0xec, 0x05, 0x00, 0x00, 0x00, 0xf7,
  0xfd, 0xf9, 0xea, 0x0f, 0x00, 0x00, 0x00, 0xf6, 0xfa, 0xfc, 0xef, 0x05,
  0x00, 0x00, 0x00, 0xed, 0xf7, 0xfb, 0xf8, 0xfb, 0x00, 0x00, 0x00, 0xe1,
  0xfb, 0xff, 0xfa, 0x08, 0x00, 0x00, 0x00, 0xf9, 0xf6, 0xff, 0xeb, 0xea,
  0x00, 0x00, 0x00, 0x00, 0x21, 0xfb, 0xce, 0xf5, 0x00, 0x00, 0x00, 0xfb,
  0x21, 0xfd, 0xd4, 0xdd, 0x00, 0x00, 0x00, 0xff, 0x24, 0xff, 0xd9, 0xcd,
  0x00, 0x00, 0x00, 0xff, 0x1a, 0x00, 0xd7, 0xc9, 0x00, 0x00, 0x00, 0xec,
  0x28, 0x02, 0xd4, 0xe1, 0x00, 0x00, 0x00, 0xf4, 0x39, 0x01, 0xc8, 0xf1,
  0x00, 0x00, 0x00, 0xed, 0x2b, 0xf9, 0xe2, 0xed, 0x00, 0x00, 0x00, 0xee,
  0x0c, 0x07, 0xde, 0xe5, 0x00, 0x00, 0x00, 0xf6, 0x09, 0x09, 0xdd, 0xfa,
  0x00, 0x00, 0x00, 0xf8, 0x0f, 0x04, 0xdc, 0xfb, 0x00, 0x00, 0x00, 0x01,
  0x24, 0x04, 0xd2, 0xf4, 0x00, 0x00, 0x00, 0x02, 0x43, 0x05, 0xdf, 0xfc,
  0x00, 0x00, 0x00, 0xf6, 0x2f, 0x06, 0xdb, 0x03, 0x00, 0x00, 0x00, 0x01,
  0x20, 0x04, 0xd4, 0xec, 0x00, 0x00, 0x00, 0x07, 0x34, 0x05, 0xe5, 0xdb,
  0x00, 0x00, 0x00, 0x0b, 0x21, 0x02, 0xe5, 0xe4, 0x00, 0x00, 0x00, 0x06,
  0x0b, 0x02, 0xdd, 0xf9, 0x00, 0x00, 0x00, 0x05, 0x0e, 0x02, 0xd3, 0xe6,
  0x00, 0x00, 0x00, 0x05, 0x0f, 0x07, 0xe2, 0xbe, 0x00, 0x00, 0x00, 0xe9,
  0x10, 0x07, 0xd3, 0xb2, 0x00, 0x00, 0x00, 0xf9, 0x02, 0x08, 0xd3, 0xa3,
  0x00, 0x00, 0x00, 0x0f, 0x08, 0x04, 0xe2, 0xa5, 0x00, 0x00, 0x00, 0x39,
  0x01, 0x01, 0xfe, 0xc5, 0x00, 0x00, 0x00, 0x29, 0x18, 0x02, 0x17, 0xd0,
  0x00, 0x00, 0x00, 0x38, 0x18, 0x06, 0x23, 0xd4, 0x00, 0x00, 0x00, 0x24,
  0x17, 0x06, 0x0a, 0xdc, 0x00, 0x00, 0x00, 0x0e, 0x12, 0x08, 0x0a, 0xec,
  0x00, 0x00, 0x00, 0x02, 0x25, 0x0b, 0x16, 0xe4, 0x00, 0x00, 0x00, 0xf4,
  0x18, 0x06, 0x0d, 0xc6, 0x00, 0x00, 0x00, 0x13, 0x12, 0x09, 0x0a, 0xd5,
  0x00, 0x00, 0x00, 0x1c, 0x06, 0x06, 0xf4, 0xdd, 0x00, 0x00, 0x00, 0x25,
  0xfb, 0x05, 0xf9, 0xf0, 0x00, 0x00, 0x00, 0x0a, 0xfb, 0x06, 0x00, 0xc8,
  0x00, 0x00, 0x00, 0x01, 0xe9, 0x03, 0xfd, 0xe6, 0x00, 0x00, 0x00, 0x30,
  0xeb, 0x01, 0x09, 0xdc, 0x00, 0x00, 0x00, 0x42, 0xee, 0xfe, 0x07, 0xc5,
  0x00, 0x00, 0x00, 0x1c, 0xd7, 0xf9, 0xe9, 0xed, 0x00, 0x00, 0x00, 0x1a,
  0xbf, 0x02, 0xd7, 0xec, 0x00, 0x00, 0x00, 0x18, 0xdb, 0x01, 0xef, 0xf2,
  0x00, 0x00, 0x00, 0x0f, 0xd0, 0xfb, 0xe4, 0xef, 0x00, 0x00, 0x00, 0x02,
  0xd8, 0x00, 0xd6, 0xbe, 0x00, 0x00, 0x00, 0xf3, 0xe3, 0xff, 0x03, 0xcc,
  0x00, 0x00, 0x00, 0xeb, 0xc7, 0x03, 0x04, 0xea, 0x00, 0x00, 0x00, 0xed,
  0xd6, 0x05, 0xc1, 0xf7, 0x00, 0x00, 0x00, 0x1c, 0xdd, 0xf7, 0xff, 0xbc,
  0x00, 0x00, 0x00, 0xf8, 0xcc, 0x00, 0x16, 0xb3, 0x00, 0x00, 0x00, 0xfa,
  0xce, 0xfd, 0x02, 0xcc, 0x00, 0x00, 0x00, 0x00, 0xe4, 0x06, 0x30, 0xf4,
  0x00, 0x00, 0x00, 0x0d, 0x00, 0x0c, 0x28, 0xec, 0x00, 0x00, 0x00, 0x07,
  0xff, 0x00, 0x1c, 0xf1, 0x00, 0x00, 0x00, 0x0d, 0xfd, 0xfe, 0x18, 0xde,
  0x00, 0x00, 0x00, 0x0d, 0xe6, 0xfc, 0x33, 0xd9, 0x00, 0x00, 0x00, 0x08,
  0xe9, 0xef, 0x20, 0xb1, 0x00, 0x00, 0x00, 0x15, 0xfe, 0x0f, 0x16, 0xed,
  0x00, 0x00, 0x00, 0x10, 0x02, 0x14, 0x42, 0xf8, 0x00, 0x00, 0x00, 0x10,
  0x15, 0x18, 0x27, 0xf3, 0x00, 0x00, 0x00, 0x0b, 0x08, 0x16, 0x2a, 0xf1,
  0x00, 0x00, 0x00, 0x10, 0x08, 0x18, 0x2b, 0xf2, 0x00, 0x00, 0x00, 0x04,
  0x0e, 0x17, 0xe9, 0x09, 0x00, 0x00, 0x00, 0x0d, 0x11, 0x10, 0x05, 0xdf,
  0x00, 0x00, 0x00, 0x03, 0x1d, 0x0b, 0x23, 0xe4, 0x00, 0x00, 0x00, 0xfc,
  0x03, 0x09, 0x1d, 0xea, 0x00, 0x00, 0x00, 0xf6, 0x01, 0x0b, 0x1f, 0xf4,
  0x00, 0x00, 0x00, 0xed, 0xfe, 0x0b, 0x1a, 0xf6, 0x00, 0x00, 0x00, 0xe9,
  0x11, 0x08, 0x00, 0xf4, 0x00, 0x00, 0x00, 0xed, 0x0b, 0x03, 0xeb, 0xcc,
  0x00, 0x00, 0x00, 0x0d, 0x0b, 0x07, 0xf1, 0xd6, 0x00, 0x00, 0x00, 0x1b,
  0x11, 0x05, 0xf5, 0xcd, 0x00, 0x00, 0x00, 0x18, 0x22, 0x03, 0xee, 0xee,
  0x00, 0x00, 0x00, 0x0a, 0x17, 0x05, 0x01, 0xf6, 0x00, 0x00, 0x00, 0x02,
  0x12, 0x07, 0x00, 0xfb, 0x00, 0x00, 0x00, 0xfc, 0x00, 0x05, 0xf9, 0x22,
  0x00, 0x00, 0x00, 0x09, 0xf0, 0x00, 0xeb, 0x56, 0x00, 0x00, 0x00, 0xf1,
  0xf9, 0x10, 0x24, 0x3b, 0x00, 0x00, 0x00, 0xdd, 0xf6, 0x00, 0xfe, 0x3c,
  0x00, 0x00, 0x00, 0xdd, 0x0b, 0xf6, 0xca, 0x18, 0x00, 0x00, 0x00, 0xd8,
  0xf0, 0xfc, 0xdc, 0x34, 0x00, 0x00, 0x00, 0xe4, 0xf5, 0x00, 0x0b, 0x32,
  0x00, 0x00, 0x00, 0xf0, 0xf1, 0xff, 0xef, 0x0b, 0x00, 0x00, 0x00, 0xfa,
  0xf8, 0xfe, 0xe4, 0xd3, 0x00, 0x00, 0x00, 0x02, 0xf2, 0xfd, 0xce, 0xbc,
  0x00, 0x00, 0x00, 0x04, 0xf1, 0xf7, 0xba, 0xc7, 0x00, 0x00, 0x00, 0xfa,
  0x00, 0xf6, 0xd3, 0xd7, 0x00, 0x00, 0x00, 0xe1, 0x06, 0xfb, 0xdd, 0xcd,
  0x00, 0x00, 0x00, 0xee, 0x00, 0xf8, 0xe3, 0xd4, 0x00, 0x00, 0x00, 0xe9,
  0xfc, 0xfb, 0xca, 0xdf, 0x00, 0x00, 0x00, 0xec, 0x03, 0xf9, 0xc7, 0xec,
  0x00, 0x00, 0x00, 0xf3, 0x06, 0xfc, 0xb5, 0xdf, 0x00, 0x00, 0x00, 0xe9,
  0xf6, 0xfd, 0xc4, 0xf3, 0x00, 0x00, 0x00, 0xfe, 0xf8, 0x05, 0xf2, 0x2f,
  0x00, 0x00, 0x00, 0xe8, 0xfd, 0x05, 0xe4, 0x53, 0x00, 0x00, 0x00, 0xe1,
  0xf9, 0x06, 0xeb, 0x4a, 0x00, 0x00, 0x00, 0xf3, 0xfb, 0xf8, 0xf4, 0x51,
  0x00, 0x00, 0x00, 0x03, 0xf6, 0xf6, 0xe1, 0x54, 0x00, 0x00, 0x00, 0x25,
  0xfd, 0xf6, 0xcb, 0x35, 0x00, 0x00, 0x00, 0x00, 0xfc, 0xe9, 0xc8, 0x28,
  0x00, 0x00, 0x00, 0xf0, 0x16, 0xde, 0xc4, 0xf8, 0x00, 0x00, 0x00, 0xf4,
  0xfc, 0xdb, 0xd6, 0xd2, 0x00, 0x00, 0x00, 0x00, 0x0f, 0xe5, 0xe1, 0xc8,
  0x00, 0x00, 0x00, 0x00, 0x04, 0xf6, 0xef, 0xd9, 0x00, 0x00, 0x00, 0xfb,
  0x0a, 0x00, 0xd5, 0xe0, 0x00, 0x00, 0x00, 0xf8, 0x08, 0xff, 0xd2, 0x03,
  0x00, 0x00, 0x00, 0xea, 0xf7, 0x05, 0xe1, 0xff, 0x00, 0x00, 0x00, 0xe2,
  0x08, 0x03, 0xec, 0xf3, 0x00, 0x00, 0x00, 0xf9, 0x14, 0x05, 0x0a, 0xdd,
  0x00, 0x00, 0x00, 0xf5, 0x21, 0x03, 0xea, 0xea, 0x00, 0x00, 0x00, 0xef,
  0x14, 0x04, 0xe4, 0xe1, 0x00, 0x00, 0x00, 0xec, 0x07, 0x04, 0xee, 0xeb,
  0x00, 0x00, 0x00, 0xf4, 0x05, 0x02, 0xff, 0xfb, 0x00, 0x00, 0x00, 0xfb,
  0x15, 0x02, 0x0d, 0x10, 0x00, 0x00, 0x00, 0xf3, 0x12, 0x02, 0xfa, 0xf6,
  0x00, 0x00, 0x00, 0xe7, 0x10, 0x00, 0xf8, 0xf7, 0x00, 0x00, 0x00, 0xe0,
  0x1d, 0xfe, 0x0d, 0xeb, 0x00, 0x00, 0x00, 0x00, 0x22, 0xff, 0x13, 0xda,
  0x00, 0x00, 0x00, 0xfa, 0x0b, 0xff, 0x0f, 0xe4, 0x00, 0x00, 0x00, 0x03,
  0x0a, 0x02, 0x0d, 0xf4, 0x00, 0x00, 0x00, 0x0b, 0x05, 0x00, 0xf9, 0xf4,
  0x00, 0x00, 0x00, 0x00, 0x09, 0xff, 0xe2, 0x03, 0x00, 0x00, 0x00, 0xff,
  0x06, 0x03, 0xe3, 0xf2, 0x00, 0x00, 0x00, 0x03, 0x03, 0x02, 0xf6, 0xf1,
  0x00, 0x00, 0x00, 0xee, 0x09, 0x04, 0xf2, 0x14, 0x00, 0x00, 0x00, 0xe9,
  0x07, 0x04, 0xee, 0x09, 0x00, 0x00, 0x00, 0xdf, 0xfa, 0xfe, 0xf0, 0x00,
  0x00, 0x00, 0x00, 0xcf, 0xf9, 0xfe, 0xf2, 0xfa, 0x00, 0x00, 0x00, 0xca,
  0xf8, 0xfe, 0xf7, 0xf2, 0x00, 0x00, 0x00, 0xd0, 0xed, 0xfe, 0xf6, 0xf1,
  0x00, 0x00, 0x00, 0xdf, 0xf3, 0xfe, 0xf9, 0xee, 0x00, 0x00, 0x00, 0x10,
  0xf8, 0xff, 0xdf, 0xcf, 0x00, 0x00, 0x00, 0xfc, 0xf8, 0xff, 0xe4, 0xce,
  0x00, 0x00, 0x00, 0x02, 0xf5, 0xff, 0xfc, 0xfe, 0x00, 0x00, 0x00, 0x04,
  0xf7, 0xff, 0xfe, 0xfa, 0x00, 0x00, 0x00, 0x02, 0xf6, 0xff, 0xfd, 0xe1,
  0x00, 0x00, 0x00, 0xff, 0xf3, 0xfe, 0x03, 0xdb, 0x00, 0x00, 0x00, 0x02,
  0xfa, 0xfd, 0x33, 0xe9, 0x00, 0x00, 0x00, 0x02, 0xf2, 0xf5, 0x19, 0xef,
  0x00, 0x00, 0x00, 0x02, 0xf8, 0xf7, 0x0e, 0xeb, 0x00, 0x00, 0x00, 0x00,
  0xed, 0xf9, 0x16, 0xe4, 0x00, 0x00, 0x00, 0xfc, 0xf5, 0xfd, 0xf8, 0xef,
  0x00, 0x00, 0x00, 0xfd, 0xf1, 0xfd, 0xf8, 0xeb, 0x00, 0x00, 0x00, 0xfb,
  0xec, 0xfe, 0x01, 0xfa, 0x00, 0x00, 0x00, 0x00, 0xf2, 0xfe, 0x06, 0xec,
  0x00, 0x00, 0x00, 0xfe, 0xf6, 0xff, 0x1b, 0xef, 0x00, 0x00, 0x00, 0xfb,
  0xf8, 0x00, 0xfe, 0xec, 0x00, 0x00, 0x00, 0xfe, 0xf6, 0x00, 0x0a, 0xe9,
  0x00, 0x00, 0x00, 0x00, 0xf9, 0xff, 0x0b, 0xdd, 0x00, 0x00, 0x00, 0x01,
  0xfd, 0x00, 0x04, 0xee, 0x00, 0x00, 0x00, 0x02, 0xfa, 0x02, 0x04, 0xf2,
  0x00, 0x00, 0x00, 0x07, 0xfd, 0x01, 0x07, 0xf4, 0x00, 0x00, 0x00, 0x00,
  0xfd, 0x02, 0x08, 0xf7, 0x00, 0x00, 0x00, 0x03, 0x07, 0x05, 0x03, 0xf0,
  0x00, 0x00, 0x00, 0xf8, 0x05, 0x03, 0xfa, 0xf0, 0x00, 0x00, 0x00, 0xff,
  0xfc, 0x02, 0x03, 0xf6, 0x00, 0x00, 0x00, 0xff, 0xfd, 0xff, 0xfc, 0xed,
  0x00, 0x00, 0x00, 0xff, 0xfd, 0x00, 0xf4, 0xed, 0x00, 0x00, 0x00, 0xf2,
  0xfe, 0x00, 0xf8, 0xf2, 0x00, 0x00, 0x00, 0xef, 0xfb, 0x02, 0xf1, 0xef,
  0x00, 0x00, 0x00, 0xff, 0x00, 0x01, 0xf2, 0xf0, 0x00, 0x00, 0x00, 0x00,
  0x01, 0x02, 0xeb, 0xf2, 0x00, 0x00, 0x00, 0xff, 0x02, 0x02, 0xf3, 0xeb,
  0x00, 0x00, 0x00, 0x00, 0xfa, 0x02, 0xf7, 0xea, 0x00, 0x00, 0x00, 0xf9,
  0xfb, 0x00, 0xfa, 0xef, 0x00, 0x00, 0x00, 0xfd, 0xf9, 0x00, 0xfb, 0xf0,
  0x00, 0x00, 0x00, 0xf4, 0xf9, 0x01, 0xfd, 0xf6, 0x00, 0x00, 0x00, 0xfa,
  0x02, 0x01, 0x01, 0xf6, 0x00, 0x00, 0x00, 0xfc, 0x02, 0x01, 0xf1, 0xef,
  0x00, 0x00, 0x00, 0xef, 0x04, 0x01, 0xf4, 0xfb, 0x00, 0x00, 0x00, 0x04,
  0xfc, 0x02, 0xf3, 0xf9, 0x00, 0x00, 0x00, 0xfb, 0xfe, 0x02, 0xef, 0xfb,
  0x00, 0x00, 0x00, 0xfd, 0xfe, 0x01, 0xf4, 0x02, 0x00, 0x00, 0x00, 0xff,
  0x01, 0x01, 0xfd, 0xf7, 0x00, 0x00, 0x00, 0xff, 0x03, 0x01, 0x00, 0xf8,
  0x00, 0x00, 0x00, 0xfd, 0x01, 0xff, 0xff, 0xf6, 0x00, 0x00, 0x00, 0xfe,
  0x03, 0x00, 0xf9, 0xff, 0x00, 0x00, 0x00, 0xfc, 0xfc, 0x00, 0xfc, 0xfa,
  0x00, 0x00, 0x00, 0xfb, 0xfa, 0x00, 0xf0, 0xfb, 0x00, 0x00, 0x00, 0xff,
  0x03, 0xff, 0xf5, 0xf5, 0x00, 0x00, 0x00, 0xff, 0x00, 0xff, 0xf5, 0xf5,
  0x00, 0x00, 0x00, 0xfe, 0x04, 0x00, 0xf8, 0xf5, 0x00, 0x00, 0x00, 0x03,
  0x00, 0x00, 0xf6, 0xf1, 0x00, 0x00, 0x00, 0x00, 0x00, 0x00, 0xf7, 0xfc,
  0x00, 0x00, 0x00, 0xfe, 0x00, 0x00, 0xf0, 0xfd, 0x00, 0x00, 0x00, 0xff,
  0xfd, 0xfe, 0xee, 0xf1, 0x00, 0x00, 0x00, 0x00, 0xfe, 0xfd, 0xf5, 0xf0,
  0x00, 0x00, 0x00, 0x1b, 0x01, 0xf9, 0x1d, 0x93, 0x00, 0x00, 0x00, 0x24,
  0x13, 0xf4, 0x0e, 0xb2, 0x00, 0x00, 0x00, 0x21, 0x0b, 0xf0, 0x09, 0xed,
  0x00, 0x00, 0x00, 0x0a, 0x23, 0xee, 0xe9, 0x1d, 0x00, 0x00, 0x00, 0x05,
  0x0c, 0xe7, 0xbf, 0x19, 0x00, 0x00, 0x00, 0xd6, 0xfd, 0xe7, 0xf0, 0x2e,
  0x00, 0x00, 0x00, 0x13, 0x02, 0xf7, 0x04, 0x44, 0x00, 0x00, 0x00, 0x02,
  0x15, 0xfa, 0xf4, 0x05, 0x00, 0x00, 0x00, 0xed, 0x21, 0xf4, 0x0e, 0x32,
  0x00, 0x00, 0x00, 0xe8, 0x22, 0xed, 0x00, 0x12, 0x00, 0x00, 0x00, 0xd7,
  0x14, 0xee, 0xe8, 0x07, 0x00, 0x00, 0x00, 0xd2, 0xf4, 0xf2, 0x96, 0xff,
  0x00, 0x00, 0x00, 0xe4, 0x00, 0x09, 0xc9, 0xed, 0x00, 0x00, 0x00, 0xf5,
  0x0f, 0x06, 0xcf, 0xf3, 0x00, 0x00, 0x00, 0xef, 0xfa, 0xfd, 0xaf, 0xdc,
  0x00, 0x00, 0x00, 0xf3, 0x07, 0x02, 0xba, 0x02, 0x00, 0x00, 0x00, 0xf6,
  0x2a, 0x06, 0xb7, 0xf6, 0x00, 0x00, 0x00, 0xef, 0x2f, 0x03, 0xce, 0x2b,
  0x00, 0x00, 0x00, 0xdd, 0x2d, 0xff, 0xd1, 0x2a, 0x00, 0x00, 0x00, 0xe8,
  0x2a, 0xfa, 0xd2, 0xef, 0x00, 0x00, 0x00, 0xf8, 0x36, 0xf8, 0xec, 0xd6,
  0x00, 0x00, 0x00, 0xe6, 0x2d, 0xfb, 0xd2, 0xe4, 0x00, 0x00, 0x00, 0xef,
  0x2e, 0x00, 0xd6, 0x0a, 0x00, 0x00, 0x00, 0xf2, 0x1d, 0x04, 0xf1, 0xdf,
  0x00, 0x00, 0x00, 0xed, 0x1f, 0x04, 0xb3, 0x14, 0x00, 0x00, 0x00, 0xfd,
  0x1d, 0xfa, 0xc8, 0x3c, 0x00, 0x00, 0x00, 0xef, 0x23, 0xfa, 0xe3, 0x46,
  0x00, 0x00, 0x00, 0xf2, 0x11, 0xef, 0xbd, 0x04, 0x00, 0x00, 0x00, 0x05,
  0x18, 0xf6, 0xcc, 0xce, 0x00, 0x00, 0x00, 0xf6, 0x1b, 0xed, 0xc2, 0xef,
  0x00, 0x00, 0x00, 0xe8, 0x22, 0xf7, 0xb5, 0xcd, 0x00, 0x00, 0x00, 0xdf,
  0x18, 0xf0, 0xe2, 0xf2, 0x00, 0x00, 0x00, 0xfd, 0x04, 0xe5, 0xbd, 0x15,
  0x00, 0x00, 0x00, 0x1c, 0x1c, 0x1e, 0x07, 0x11, 0x00, 0x00, 0x00, 0x02,
  0x15, 0x1f, 0xa0, 0x0f, 0x00, 0x00, 0x00, 0xe1, 0x0e, 0x1a, 0x2b, 0x42,
  0x00, 0x00, 0x00, 0xf8, 0x0a, 0x0a, 0xfa, 0x2e, 0x00, 0x00, 0x00, 0xff,
  0x21, 0xe0, 0xb8, 0x21, 0x00, 0x00, 0x00, 0x14, 0x14, 0xe6, 0xa1, 0x3f,
  0x00, 0x00, 0x00, 0xf2, 0x2b, 0xef, 0x9c, 0x1b, 0x00, 0x00, 0x00, 0xeb,
  0x2d, 0xee, 0xf3, 0x26, 0x00, 0x00, 0x00, 0xe4, 0x07, 0xfc, 0xb0, 0xe1,
  0x00, 0x00, 0x00, 0xd3, 0x1a, 0xfe, 0xbe, 0xc6, 0x00, 0x00, 0x00, 0x13,
  0x15, 0x06, 0xb5, 0xc2, 0x00, 0x00, 0x00, 0xd0, 0x27, 0xff, 0x98, 0xfd,
  0x00, 0x00, 0x00, 0xea, 0x1b, 0x01, 0xac, 0x14, 0x00, 0x00, 0x00, 0xe7,
  0x1b, 0x05, 0xab, 0x2f, 0x00, 0x00, 0x00, 0xd5, 0x18, 0xfa, 0x95, 0x1b,
  0x00, 0x00, 0x00, 0xc1, 0x1d, 0xf8, 0xac, 0x15, 0x00, 0x00, 0x00, 0xde,
  0x22, 0xff, 0xb4, 0xff, 0x00, 0x00, 0x00, 0xe4, 0x1c, 0x02, 0xd0, 0x00,
  0x00, 0x00, 0x00, 0xef, 0x31, 0x04, 0xd2, 0x26, 0x00, 0x00, 0x00, 0x06,
  0x2f, 0x17, 0xf1, 0x43, 0x00, 0x00, 0x00, 0xf1, 0x23, 0xf9, 0xe0, 0xfd,
  0x00, 0x00, 0x00, 0xe6, 0x22, 0xfb, 0xce, 0x0b, 0x00, 0x00, 0x00, 0xea,
  0x11, 0xfb, 0xbe, 0x01, 0x00, 0x00, 0x00, 0xfa, 0x19, 0xfa, 0xa6, 0xee,
  0x00, 0x00, 0x00, 0x00, 0x17, 0xff, 0xa0, 0x0c, 0x00, 0x00, 0x00, 0xfd,
  0x17, 0x01, 0xc2, 0x10, 0x00, 0x00, 0x00, 0xf6, 0x1b, 0x04, 0xbb, 0xfb,
  0x00, 0x00, 0x00, 0xfd, 0x0a, 0x07, 0x8d, 0xd2, 0x00, 0x00, 0x00, 0x00,
  0x00, 0x00, 0x00, 0x00, 0x00, 0x00, 0x00, 0x00, 0x00, 0x00, 0x00, 0x00,
  0x00, 0x00, 0x00, 0x00, 0x00, 0x00, 0x00, 0x00, 0x00, 0x00, 0x00, 0x00,
  0x00, 0x00, 0x00, 0x00, 0x00, 0x00, 0x00, 0x00, 0x00, 0x00, 0x00, 0x00,
  0x00, 0x00, 0x00, 0x00, 0x00, 0x00, 0x00, 0x00, 0x00, 0x00, 0x00, 0x00,
  0x00, 0x00, 0x00, 0x00, 0x00, 0x00, 0x00, 0x00, 0x00, 0x00, 0x00, 0x00,
  0x00, 0x00, 0x00, 0x00, 0x00, 0x00, 0x00, 0x00, 0x00, 0x00, 0x00, 0x00,
  0x00, 0x00, 0x00, 0x00, 0x00, 0x00, 0x00, 0x00, 0x00, 0x00, 0x00, 0x00,
  0x00, 0x00, 0x00, 0x00, 0x00, 0x00, 0x00, 0x00, 0x00, 0x00, 0x00, 0x00,
  0x00, 0x00, 0x00, 0x00, 0x00, 0x00, 0x00, 0x00, 0x00, 0x00, 0x00, 0x00,
  0x00, 0x00, 0x00, 0x00, 0x00, 0x00, 0x00, 0x00, 0x00, 0x00, 0x00, 0x00,
  0x00, 0x00, 0x00, 0x00, 0x00, 0x00, 0x00, 0x00, 0x00, 0x00, 0x00, 0x00,
  0x00, 0x00, 0x00, 0x00, 0x00, 0x00, 0x00, 0x00, 0x00, 0x00, 0x00, 0x00,
  0x00, 0x00, 0x00, 0x00, 0x00, 0x00, 0x00, 0x00, 0x00, 0x00, 0x00, 0x00,
  0x00, 0x00, 0x00, 0x00, 0x00, 0x00, 0x00, 0x00, 0x00, 0x00, 0x00, 0x00,
  0x00, 0x00, 0x00, 0x00, 0x00, 0x00, 0x00, 0x00, 0x00, 0x00, 0x00, 0x00,
  0x00, 0x00, 0x00, 0x00, 0x00, 0x00, 0x00, 0x00, 0x00, 0x00, 0x00, 0x00,
  0x00, 0x00, 0x00, 0x00, 0x00, 0x00, 0x00, 0x00, 0x00, 0x00, 0x00, 0x00,
  0x00, 0x00, 0x00, 0x00, 0x00, 0x00, 0x00, 0x00, 0x00, 0x00, 0x00, 0x00,
  0x00, 0x00, 0x00, 0x00, 0x00, 0x00, 0x00, 0x00, 0x00, 0x00, 0x00, 0x00,
  0x00, 0x00, 0x00, 0x00, 0x00, 0x00, 0x00, 0x00, 0x00, 0x00, 0x00, 0x00,
  0x00, 0x00, 0x00, 0x00, 0x00, 0x00, 0x00, 0x00, 0x00, 0x00, 0x00, 0x00,
  0x00, 0x00, 0x00, 0x00, 0x00, 0x00, 0x00, 0x00, 0x00, 0x00, 0x00, 0x00,
  0x00, 0x00, 0x00, 0x00, 0x00, 0x00, 0x00, 0x00, 0x00, 0x00, 0x00, 0x00,
  0x00, 0x00, 0x00, 0x00, 0x00, 0x00, 0x00, 0x00, 0x00, 0x00, 0x00, 0x00,
  0x00, 0x00, 0x00, 0x00, 0x00, 0x00, 0x00, 0x00, 0x00, 0x00, 0x00, 0x00,
  0x00, 0x00, 0x00, 0x00, 0x00, 0x00, 0x00, 0x00, 0x00, 0x00, 0x00, 0x00,
  0x00, 0x00, 0x00, 0x00, 0x00, 0x00, 0x00, 0x00, 0x00, 0x00, 0x00, 0x00,
  0x00, 0x00, 0x00, 0x00, 0x00, 0x00, 0x00, 0x00, 0x00, 0x00, 0x00, 0x00,
  0x00, 0x00, 0x00, 0x00, 0x00, 0x00, 0x00, 0x00, 0x00, 0x00, 0x00, 0x00,
  0x00, 0x00, 0x00, 0x00, 0x00, 0x00, 0x00, 0x00, 0x00, 0x00, 0x00, 0x00,
  0x00, 0x00, 0x00, 0x00, 0x00, 0x00, 0x00, 0x00, 0x00, 0x00, 0x00, 0x00,
  0x00, 0x00, 0x00, 0x00, 0x00, 0x00, 0x00, 0x00, 0x00, 0x00, 0x00, 0x00,
  0x00, 0x00, 0x00, 0x00, 0x00, 0x00, 0x00, 0x00, 0x00, 0x00, 0x00, 0x00,
  0x00, 0x00, 0x00, 0x00, 0x00, 0x00, 0x00, 0x00, 0x00, 0x00, 0x00, 0x00,
  0x00, 0x00, 0x00, 0x00, 0x00, 0x00, 0x00, 0x00, 0x00, 0x00, 0x00, 0x00,
  0x00, 0x00, 0x00, 0x00, 0x00, 0x00, 0x00, 0x00, 0x00, 0x00, 0x00, 0x00,
  0x00, 0x00, 0x00, 0x00, 0x00, 0x00, 0x00, 0x00, 0x00, 0x00, 0x00, 0x00,
  0x00, 0x00, 0x00, 0x00, 0x00, 0x00, 0x00, 0x00, 0x00, 0x00, 0x00, 0x00,
  0x00, 0x00, 0x00, 0x00, 0x00, 0x00, 0x00, 0x00, 0x00, 0x00, 0x00, 0x00,
  0x00, 0x00, 0x00, 0x00, 0x00, 0x00, 0x00, 0x00, 0x00, 0x00, 0x00, 0x00,
  0x00, 0x00, 0x00, 0x00, 0x00, 0x00, 0x00, 0x01, 0xfd, 0x05, 0x24, 0x08,
  0x00, 0x00, 0x00, 0xff, 0x04, 0x03, 0x39, 0x36, 0x00, 0x00, 0x00, 0xf6,
  0x04, 0x03, 0x39, 0x43, 0x00, 0x00, 0x00, 0xf8, 0x0b, 0x02, 0x1c, 0x3c,
  0x00, 0x00, 0x00, 0xf8, 0x0d, 0x04, 0x10, 0xf6, 0x00, 0x00, 0x00, 0xfa,
  0x10, 0x03, 0x03, 0xd4, 0x00, 0x00, 0x00, 0xf6, 0x1c, 0x08, 0x01, 0xda,
  0x00, 0x00, 0x00, 0xfe, 0x2b, 0x02, 0xf2, 0xcf, 0x00, 0x00, 0x00, 0x0e,
  0x2b, 0x03, 0xf6, 0xe6, 0x00, 0x00, 0x00, 0x0c, 0x1a, 0x05, 0xf2, 0xe0,
  0x00, 0x00, 0x00, 0x05, 0x0e, 0x06, 0xfb, 0xdd, 0x00, 0x00, 0x00, 0x03,
  0x02, 0x06, 0xfc, 0xd1, 0x00, 0x00, 0x00, 0xd7, 0x04, 0x07, 0xfb, 0xd2,
  0x00, 0x00, 0x00, 0xe6, 0x00, 0x08, 0xf8, 0xf6, 0x00, 0x00, 0x00, 0xfc,
  0xfc, 0x0a, 0x00, 0x0a, 0x00, 0x00, 0x00, 0xf2, 0xf6, 0x08, 0xfc, 0x20,
  0x00, 0x00, 0x00, 0xf1, 0xf8, 0x07, 0xf4, 0x10, 0x00, 0x00, 0x00, 0xfd,
  0xf6, 0x05, 0xfa, 0x1f, 0x00, 0x00, 0x00, 0x09, 0xee, 0xf6, 0x09, 0x42,
  0x00, 0x00, 0x00, 0x13, 0xe5, 0xec, 0xef, 0x62, 0x00, 0x00, 0x00, 0x07,
  0xea, 0xef, 0xee, 0x68, 0x00, 0x00, 0x00, 0x03, 0xee, 0xf9, 0xe5, 0x5b,
  0x00, 0x00, 0x00, 0xf5, 0xf0, 0xf4, 0xc7, 0x02, 0x00, 0x00, 0x00, 0xfc,
  0xf2, 0xfb, 0xc5, 0xf2, 0x00, 0x00, 0x00, 0x01, 0xed, 0x00, 0xc5, 0xf9,
  0x00, 0x00, 0x00, 0xf3, 0xf3, 0xfe, 0xc7, 0xe0, 0x00, 0x00, 0x00, 0xfa,
  0xf2, 0xfe, 0xe6, 0x03, 0x00, 0x00, 0x00, 0xf6, 0xf4, 0xfe, 0xf3, 0xe2,
  0x00, 0x00, 0x00, 0xf8, 0xf7, 0xff, 0xe7, 0xd4, 0x00, 0x00, 0x00, 0x00,
  0x03, 0x00, 0xda, 0xc7, 0x00, 0x00, 0x00, 0x03, 0x01, 0xff, 0xce, 0xc6,
  0x00, 0x00, 0x00, 0x01, 0x05, 0xfe, 0xdc, 0xe8, 0x00, 0x00, 0x00, 0xf7,
  0x0a, 0xfd, 0xd4, 0x0c, 0x00, 0x00, 0x00, 0xf9, 0x04, 0xfd, 0xde, 0x07,
  0x00, 0x00, 0x00, 0xf9, 0xfc, 0xfd, 0xc3, 0xf1, 0x00, 0x00, 0x00, 0xf6,
  0xf6, 0xfd, 0xc0, 0xf0, 0x00, 0x00, 0x00, 0xf8, 0x25, 0xfd, 0x03, 0xd8,
  0x00, 0x00, 0x00, 0x00, 0x3b, 0xfc, 0x0f, 0xec, 0x00, 0x00, 0x00, 0xfd,
  0x29, 0xfb, 0xff, 0x03, 0x00, 0x00, 0x00, 0xf9, 0x21, 0xfc, 0x15, 0xf5,
  0x00, 0x00, 0x00, 0xfa, 0x0c, 0xfc, 0xff, 0xf4, 0x00, 0x00, 0x00, 0xfa,
  0xf9, 0xfb, 0x02, 0xf7, 0x00, 0x00, 0x00, 0xfa, 0xf9, 0xf5, 0x12, 0xef,
  0x00, 0x00, 0x00, 0xfb, 0xf4, 0xf3, 0x0d, 0xf5, 0x00, 0x00, 0x00, 0xf9,
  0x04, 0xf5, 0xef, 0x0b, 0x00, 0x00, 0x00, 0xf9, 0x02, 0xf6, 0xe9, 0x11,
  0x00, 0x00, 0x00, 0xfa, 0x03, 0xf9, 0x01, 0xfc, 0x00, 0x00, 0x00, 0x00,
  0xfa, 0xf8, 0xfa, 0xed, 0x00, 0x00, 0x00, 0x00, 0xf5, 0xf8, 0x04, 0xe1,
  0x00, 0x00, 0x00, 0x00, 0xf6, 0xf7, 0x0c, 0xeb, 0x00, 0x00, 0x00, 0x00,
  0xf9, 0xf9, 0xf3, 0xf1, 0x00, 0x00, 0x00, 0x00, 0xf7, 0xfa, 0xf2, 0x01,
  0x00, 0x00, 0x00, 0x00, 0x01, 0xfb, 0xfb, 0xfb, 0x00, 0x00, 0x00, 0xfa,
  0x01, 0xfc, 0xff, 0xf3, 0x00, 0x00, 0x00, 0xf9, 0xfb, 0xfd, 0xfc, 0xff,
  0x00, 0x00, 0x00, 0xf7, 0xf4, 0xfd, 0x00, 0xf9, 0x00, 0x00, 0x00, 0xfa,
  0xf1, 0xfb, 0xf7, 0xff, 0x00, 0x00, 0x00, 0xfb, 0xf2, 0xfc, 0xf8, 0x03,
  0x00, 0x00, 0x00, 0xfc, 0xf6, 0xfc, 0xf4, 0x00, 0x00, 0x00, 0x00, 0xfc,
  0xf5, 0xfc, 0xed, 0xfc, 0x00, 0x00, 0x00, 0xfe, 0xf0, 0xfc, 0xe3, 0xfd,
  0x00, 0x00, 0x00, 0xe6, 0x08, 0x09, 0xf6, 0x55, 0x00, 0x00, 0x00, 0xdb,
  0x08, 0x0b, 0xfa, 0x48, 0x00, 0x00, 0x00, 0xdf, 0x02, 0x0a, 0x07, 0x27,
  0x00, 0x00, 0x00, 0xec, 0xf8, 0x0e, 0x14, 0x11, 0x00, 0x00, 0x00, 0x00,
  0xf9, 0x12, 0x1b, 0x29, 0x00, 0x00, 0x00, 0x1a, 0xfd, 0x0a, 0x21, 0x11,
  0x00, 0x00, 0x00, 0xfd, 0xfe, 0x06, 0x11, 0xfe, 0x00, 0x00, 0x00, 0x00,
  0x05, 0x02, 0x29, 0x10, 0x00, 0x00, 0x00, 0x0b, 0xfb, 0x04, 0x0f, 0xf5,
  0x00, 0x00, 0x00, 0x19, 0xfb, 0x0e, 0x16, 0xfd, 0x00, 0x00, 0x00, 0x21,
  0xf5, 0x12, 0x26, 0xfc, 0x00, 0x00, 0x00, 0x1c, 0xf0, 0x0a, 0x7f, 0xec,
  0x00, 0x00, 0x00, 0x3d, 0xdd, 0xea, 0x17, 0xf2, 0x00, 0x00, 0x00, 0x35,
  0xda, 0xf6, 0x31, 0xde, 0x00, 0x00, 0x00, 0x22, 0xcc, 0x01, 0x33, 0x0c,
  0x00, 0x00, 0x00, 0x2e, 0xd2, 0xff, 0x24, 0x09, 0x00, 0x00, 0x00, 0x31,
  0xc8, 0xf6, 0x0f, 0xfe, 0x00, 0x00, 0x00, 0x28, 0xaf, 0xfa, 0x23, 0x00,
  0x00, 0x00, 0x00, 0x24, 0xb6, 0x03, 0x0c, 0xfc, 0x00, 0x00, 0x00, 0x14,
  0xc0, 0x0a, 0x30, 0x0d, 0x00, 0x00, 0x00, 0x0b, 0xc5, 0x03, 0xfd, 0xf6,
  0x00, 0x00, 0x00, 0x0b, 0xd1, 0x00, 0x2c, 0xfe, 0x00, 0x00, 0x00, 0x03,
  0xdf, 0xfa, 0x22, 0x16, 0x00, 0x00, 0x00, 0xea, 0xda, 0xfd, 0x4b, 0x1f,
  0x00, 0x00, 0x00, 0x01, 0xd7, 0x04, 0x40, 0x23, 0x00, 0x00, 0x00, 0x01,
  0xe5, 0x01, 0x19, 0x1f, 0x00, 0x00, 0x00, 0x01, 0xd9, 0x0c, 0x36, 0xfa,
  0x00, 0x00, 0x00, 0x0c, 0xd4, 0x0c, 0x3a, 0xe9, 0x00, 0x00, 0x00, 0xe1,
  0xbc, 0xf5, 0x08, 0xcb, 0x00, 0x00, 0x00, 0xf5, 0xca, 0xf8, 0x15, 0xed,
  0x00, 0x00, 0x00, 0xf1, 0xe1, 0xff, 0x18, 0x06, 0x00, 0x00, 0x00, 0xfd,
  0xee, 0x0c, 0x04, 0xf6, 0x00, 0x00, 0x00, 0x01, 0xe6, 0x0e, 0x2c, 0x08,
  0x00, 0x00, 0x00, 0xfd, 0xe4, 0x0f, 0x22, 0xf6, 0x00, 0x00, 0x00, 0xfd,
  0xed, 0x16, 0x16, 0xfc, 0x00, 0x00, 0x00, 0xfc, 0xf5, 0x1d, 0xda, 0xe8,
  0x00, 0x00, 0x00, 0xff, 0xdc, 0x26, 0xc2, 0x04, 0x00, 0x00, 0x00, 0x01,
  0xd2, 0x10, 0xf4, 0xe5, 0x00, 0x00, 0x00, 0x04, 0xe1, 0x1b, 0x07, 0xe0,
  0x00, 0x00, 0x00, 0xec, 0xf4, 0x1c, 0x11, 0x01, 0x00, 0x00, 0x00, 0xd4,
  0xf2, 0x15, 0x03, 0xe1, 0x00, 0x00, 0x00, 0xd5, 0xf7, 0x0c, 0xd2, 0xcf,
  0x00, 0x00, 0x00, 0xea, 0xfe, 0x15, 0xca, 0xfd, 0x00, 0x00, 0x00, 0xe9,
  0x05, 0x0e, 0xcd, 0xbc, 0x00, 0x00, 0x00, 0x00, 0x05, 0x14, 0xe0, 0x9c,
  0x00, 0x00, 0x00, 0x0b, 0x0f, 0x10, 0xc9, 0xcd, 0x00, 0x00, 0x00, 0x0b,
  0x11, 0x0f, 0xc7, 0xd8, 0x00, 0x00, 0x00, 0x07, 0x16, 0x0d, 0xf3, 0xd2,
  0x00, 0x00, 0x00, 0x03, 0x17, 0x0c, 0x00, 0xf3, 0x00, 0x00, 0x00, 0xf9,
  0x1a, 0x0b, 0xe5, 0xfa, 0x00, 0x00, 0x00, 0x05, 0x1e, 0x0c, 0xe6, 0xeb,
  0x00, 0x00, 0x00, 0x06, 0x18, 0x0c, 0xed, 0xe4, 0x00, 0x00, 0x00, 0x02,
  0x17, 0x0a, 0xd7, 0xe4, 0x00, 0x00, 0x00, 0x00, 0x1c, 0x04, 0xe1, 0xde,
  0x00, 0x00, 0x00, 0x03, 0x21, 0x07, 0xec, 0xd8, 0x00, 0x00, 0x00, 0x01,
  0x20, 0x06, 0xd2, 0xd0, 0x00, 0x00, 0x00, 0xfe, 0x23, 0x07, 0xf9, 0xe5,
  0x00, 0x00, 0x00, 0xff, 0x1d, 0x07, 0x05, 0xe7, 0x00, 0x00, 0x00, 0xfd,
  0x1d, 0x04, 0xeb, 0xcd, 0x00, 0x00, 0x00, 0xfe, 0x1f, 0xfe, 0x0a, 0xc7,
  0x00, 0x00, 0x00, 0xfe, 0x1c, 0xfe, 0x2d, 0xcd, 0x00, 0x00, 0x00, 0x00,
  0x00, 0x00, 0x00, 0x00, 0x00, 0x00, 0x00, 0x00, 0x00, 0x00, 0x00, 0x00,
  0x00, 0x00, 0x00, 0x00, 0x00, 0x00, 0x00, 0x00, 0x00, 0x00, 0x00, 0x00,
  0x00, 0x00, 0x00, 0x00, 0x00, 0x00, 0x00, 0x00, 0x00, 0x00, 0x00, 0x00,
  0x00, 0x00, 0x00, 0x00, 0x00, 0x00, 0x00, 0x00, 0x00, 0x00, 0x00, 0x00,
  0x00, 0x00, 0x00, 0x00, 0x00, 0x00, 0x00, 0x00, 0x00, 0x00, 0x00, 0x00,
  0x00, 0x00, 0x00, 0x00, 0x00, 0x00, 0x00, 0x00, 0x00, 0x00, 0x00, 0x00,
  0x00, 0x00, 0x00, 0x00, 0x00, 0x00, 0x00, 0x00, 0x00, 0x00, 0x00, 0x00,
  0x00, 0x00, 0x00, 0x00, 0x00, 0x00, 0x00, 0x00, 0x00, 0x00, 0x00, 0x00,
  0x00, 0x00, 0x00, 0x00, 0x00, 0x00, 0x00, 0x00, 0x00, 0x00, 0x00, 0x00,
  0x00, 0x00, 0x00, 0x00, 0x00, 0x00, 0x00, 0x00, 0x00, 0x00, 0x00, 0x00,
  0x00, 0x00, 0x00, 0x00, 0x00, 0x00, 0x00, 0x00, 0x00, 0x00, 0x00, 0x00,
  0x00, 0x00, 0x00, 0x00, 0x00, 0x00, 0x00, 0x00, 0x00, 0x00, 0x00, 0x00,
  0x00, 0x00, 0x00, 0x00, 0x00, 0x00, 0x00, 0x00, 0x00, 0x00, 0x00, 0x00,
  0x00, 0x00, 0x00, 0x00, 0x00, 0x00, 0x00, 0x00, 0x00, 0x00, 0x00, 0x00,
  0x00, 0x00, 0x00, 0x00, 0x00, 0x00, 0x00, 0x00, 0x00, 0x00, 0x00, 0x00,
  0x00, 0x00, 0x00, 0x00, 0x00, 0x00, 0x00, 0x00, 0x00, 0x00, 0x00, 0x00,
  0x00, 0x00, 0x00, 0x00, 0x00, 0x00, 0x00, 0x00, 0x00, 0x00, 0x00, 0x00,
  0x00, 0x00, 0x00, 0x00, 0x00, 0x00, 0x00, 0x00, 0x00, 0x00, 0x00, 0x00,
  0x00, 0x00, 0x00, 0x00, 0x00, 0x00, 0x00, 0x00, 0x00, 0x00, 0x00, 0x00,
  0x00, 0x00, 0x00, 0x00, 0x00, 0x00, 0x00, 0x00, 0x00, 0x00, 0x00, 0x00,
  0x00, 0x00, 0x00, 0x00, 0x00, 0x00, 0x00, 0x00, 0x00, 0x00, 0x00, 0x00,
  0x00, 0x00, 0x00, 0x00, 0x00, 0x00, 0x00, 0x00, 0x00, 0x00, 0x00, 0x00,
  0x00, 0x00, 0x00, 0x00, 0x00, 0x00, 0x00, 0x00, 0x00, 0x00, 0x00, 0x00,
  0x00, 0x00, 0x00, 0x00, 0x00, 0x00, 0x00, 0x00, 0x00, 0x00, 0x00, 0x00,
  0x00, 0x00, 0x00, 0x00, 0x00, 0x00, 0x00, 0x00, 0x00, 0x00, 0x00, 0x00,
  0x00, 0x00, 0x00, 0x00, 0x00, 0x00, 0x00, 0x00, 0x00, 0x00, 0x00, 0x00,
  0x00, 0x00, 0x00, 0x00, 0x00, 0x00, 0x00, 0x00, 0x00, 0x00, 0x00, 0x00,
  0x00, 0x00, 0x00, 0x00, 0x00, 0x00, 0x00, 0x00, 0x00, 0x00, 0x00, 0x00,
  0x00, 0x00, 0x00, 0x00, 0x00, 0x00, 0x00, 0x00, 0x00, 0x00, 0x00, 0x00,
  0x00, 0x00, 0x00, 0x00, 0x00, 0x00, 0x00, 0x00, 0x00, 0x00, 0x00, 0x00,
  0x00, 0x00, 0x00, 0x00, 0x00, 0x00, 0x00, 0x00, 0x00, 0x00, 0x00, 0x00,
  0x00, 0x00, 0x00, 0x00, 0x00, 0x00, 0x00, 0x00, 0x00, 0x00, 0x00, 0x00,
  0x00, 0x00, 0x00, 0x00, 0x00, 0x00, 0x00, 0x00, 0x00, 0x00, 0x00, 0x00,
  0x00, 0x00, 0x00, 0x00, 0x00, 0x00, 0x00, 0x00, 0x00, 0x00, 0x00, 0x00,
  0x00, 0x00, 0x00, 0x00, 0x00, 0x00, 0x00, 0x00, 0x00, 0x00, 0x00, 0x00,
  0x00, 0x00, 0x00, 0x00, 0x00, 0x00, 0x00, 0x00, 0x00, 0x00, 0x00, 0x00,
  0x00, 0x00, 0x00, 0x00, 0x00, 0x00, 0x00, 0x00, 0x00, 0x00, 0x00, 0x00,
  0x00, 0x00, 0x00, 0x00, 0x00, 0x00, 0x00, 0x00, 0x00, 0x00, 0x00, 0x00,
  0x00, 0x00, 0x00, 0x00, 0x00, 0x00, 0x00, 0x00, 0x00, 0x00, 0x00, 0x00,
  0x00, 0x00, 0x00, 0x00, 0x00, 0x00, 0x00, 0x00, 0x00, 0x00, 0x00, 0x00,
  0x00, 0x00, 0x00, 0x00, 0x02, 0xf8, 0xff, 0xff, 0x04, 0x00, 0x00, 0x00,
  0x08, 0x04, 0x00, 0x00, 0xff, 0xff, 0xff, 0xff, 0xfd, 0xfe, 0xfe, 0xfe,
  0xff, 0xff, 0x00, 0x01, 0x00, 0xfd, 0xfb, 0xff, 0x00, 0x00, 0x00, 0x00,
  0x00, 0x00, 0x00, 0x00, 0xff, 0x00, 0x00, 0x00, 0x00, 0x00, 0x00, 0x00,
  0x00, 0x00, 0x00, 0x00, 0x00, 0x00, 0x00, 0x00, 0x00, 0x00, 0x00, 0x00,
  0x00, 0x00, 0x00, 0x00, 0x00, 0x00, 0x00, 0x00, 0x00, 0x00, 0x00, 0x00,
  0x00, 0x00, 0x00, 0x00, 0x00, 0x00, 0x00, 0x00, 0x00, 0x00, 0x00, 0x00,
  0x00, 0x00, 0x00, 0x00, 0x00, 0x00, 0x00, 0x00, 0x00, 0x00, 0x00, 0x00,
  0x00, 0x00, 0x00, 0x00, 0x00, 0x00, 0x00, 0x00, 0x00, 0x00, 0x00, 0x00,
  0x00, 0x00, 0x00, 0x00, 0x00, 0x00, 0x00, 0x00, 0x00, 0x00, 0x00, 0x00,
  0x00, 0x00, 0x00, 0x00, 0x00, 0x00, 0x00, 0x00, 0x00, 0x00, 0x00, 0x00,
  0x00, 0x00, 0x00, 0x00, 0x00, 0x00, 0x00, 0x00, 0x00, 0x00, 0x00, 0x00,
  0x00, 0x00, 0x00, 0x01, 0x00, 0x00, 0x00, 0x00, 0x00, 0x00, 0x00, 0x00,
  0x00, 0x00, 0x00, 0x00, 0x00, 0x00, 0x00, 0x00, 0x00, 0x00, 0x00, 0x00,
  0x00, 0x00, 0x00, 0x00, 0x00, 0x00, 0x00, 0x00, 0x00, 0x00, 0x00, 0x00,
  0x00, 0x00, 0x00, 0x00, 0x00, 0x00, 0x00, 0x00, 0x00, 0x00, 0x00, 0x00,
  0x00, 0x00, 0x00, 0x00, 0x00, 0x00, 0x00, 0x00, 0x00, 0x00, 0x00, 0x00,
  0x00, 0x00, 0x00, 0x00, 0x00, 0x00, 0x00, 0x00, 0x00, 0x00, 0x00, 0x00,
  0x00, 0x00, 0x00, 0x00, 0x00, 0x00, 0x00, 0x00, 0x00, 0x00, 0x00, 0x00,
  0x00, 0x00, 0x00, 0x00, 0x00, 0x00, 0x00, 0x00, 0x00, 0x00, 0x00, 0x00,
  0x00, 0x00, 0x00, 0x00, 0x00, 0x00, 0x00, 0x00, 0x00, 0x00, 0x00, 0x00,
  0x00, 0x00, 0x00, 0x00, 0x00, 0x00, 0x00, 0x00, 0x00, 0x00, 0x00, 0x00,
  0x00, 0x00, 0x00, 0x00, 0x00, 0x00, 0x00, 0x00, 0x00, 0x00, 0x00, 0x00,
  0x00, 0x00, 0x00, 0x00, 0x00, 0x00, 0x00, 0x00, 0x00, 0x00, 0x00, 0x00,
  0x00, 0x00, 0x00, 0x00, 0x00, 0x00, 0x00, 0x00, 0x00, 0x00, 0x00, 0x00,
  0x00, 0x00, 0x00, 0x00, 0x00, 0x00, 0x00, 0x00, 0x00, 0x00, 0x00, 0x00,
  0x00, 0x00, 0x00, 0x00, 0x00, 0x00, 0x00, 0x00, 0x00, 0x00, 0x00, 0x00,
  0x00, 0x00, 0x00, 0x00, 0x00, 0x00, 0x00, 0x00, 0x00, 0x00, 0x00, 0x00,
  0x00, 0x00, 0x00, 0x00, 0x00, 0x00, 0x00, 0x00, 0x00, 0x00, 0x00, 0x00,
  0x00, 0x00, 0x00, 0x00, 0x00, 0x00, 0x00, 0x00, 0x00, 0x00, 0x00, 0x00,
  0x00, 0x00, 0x00, 0x00, 0x00, 0x00, 0x00, 0x00, 0x00, 0x00, 0x00, 0x00,
  0x00, 0x00, 0x00, 0x00, 0x00, 0x00, 0x00, 0x00, 0x00, 0x00, 0x00, 0x00,
  0x00, 0x00, 0x00, 0x00, 0x00, 0x00, 0x00, 0x00, 0x00, 0x00, 0x00, 0x00,
  0x00, 0x00, 0x00, 0x00, 0x00, 0x00, 0x00, 0xf5, 0xeb, 0xf8, 0x13, 0x05,
  0xf3, 0x0c, 0x20, 0x13, 0xf8, 0xef, 0xf0, 0xf1, 0xea, 0xf7, 0xeb, 0xe8,
  0xf6, 0x0a, 0xfb, 0xda, 0xe5, 0xf0, 0xea, 0xf4, 0xf5, 0xee, 0xec, 0xf3,
  0xf7, 0xfa, 0xfa, 0xfb, 0xf9, 0xf9, 0x00, 0x04, 0x05, 0xff, 0xf8, 0xfc,
  0x02, 0x05, 0x05, 0x02, 0xfd, 0x00, 0x02, 0xff, 0x01, 0x02, 0xfe, 0xfc,
  0xfe, 0xfc, 0xff, 0x00, 0xfb, 0xf9, 0xfa, 0xf9, 0xf7, 0xfa, 0xfa, 0xfa,
  0xfa, 0xfb, 0xfe, 0xfd, 0xf8, 0xfa, 0xfa, 0xf8, 0xfc, 0xff, 0xfd, 0xfb,
  0xfb, 0xfe, 0xfd, 0xfd, 0xfd, 0xfc, 0xfb, 0xfb, 0x00, 0xfe, 0xf8, 0xf7,
  0xf6, 0xf8, 0xf7, 0xf6, 0xf6, 0xf6, 0xf6, 0xf7, 0xf6, 0xf6, 0xf8, 0xf9,
  0xf6, 0xf7, 0xf8, 0xf8, 0xf5, 0xf6, 0xf7, 0xf6, 0xf5, 0xf6, 0xf8, 0xf7,
  0xf4, 0xf8, 0xfa, 0xf7, 0xf8, 0xf9, 0xf7, 0xf4, 0xf7, 0xfc, 0xfe, 0xfe,
  0xff, 0x00, 0x00, 0x00, 0xf3, 0xe6, 0xe5, 0xf9, 0x07, 0xf0, 0xdd, 0xed,
  0xf9, 0xf5, 0xff, 0xeb, 0xdd, 0xe3, 0xdd, 0xed, 0xf5, 0xe7, 0xda, 0xdc,
  0xdd, 0xec, 0xdb, 0xcf, 0xdf, 0xf9, 0xff, 0x06, 0x02, 0x11, 0x24, 0x04,
  0x06, 0x2c, 0x3c, 0x31, 0x1b, 0x11, 0x0d, 0x0c, 0xff, 0xf8, 0x03, 0x01,
  0xfe, 0xf3, 0xf7, 0x00, 0x04, 0xf6, 0xf4, 0xf9, 0xef, 0xe9, 0xf4, 0xf5,
  0xf2, 0xf5, 0xfc, 0xf3, 0xf1, 0xfd, 0x05, 0xfd, 0x06, 0x0b, 0x03, 0xfd,
  0xfd, 0xfe, 0xff, 0xfc, 0xfd, 0x00, 0x00, 0xf7, 0xf3, 0xf8, 0xfe, 0xfc,
  0xfd, 0x03, 0xfc, 0xf6, 0xf9, 0xf8, 0xf6, 0xf7, 0xfe, 0xff, 0xf9, 0xf8,
  0xf9, 0xf8, 0xfa, 0xf8, 0xfa, 0xfd, 0xfa, 0xf7, 0xf6, 0xfe, 0x00, 0x01,
  0x01, 0xff, 0x05, 0x08, 0x0b, 0x10, 0x13, 0x0c, 0x0c, 0x11, 0x19, 0x1a,
  0x1f, 0x13, 0x14, 0x18, 0x18, 0x1c, 0x1b, 0x11, 0x08, 0x01, 0x00, 0x00,
  0x00, 0xf1, 0xef, 0xff, 0x02, 0xf5, 0xf7, 0xf0, 0xf1, 0xf9, 0xf7, 0x0a,
  0x0c, 0x0b, 0x09, 0xfe, 0x03, 0x06, 0xf5, 0xeb, 0xf4, 0xf8, 0xff, 0xfc,
  0xf8, 0x00, 0x03, 0x01, 0x06, 0x03, 0x02, 0x04, 0x0e, 0x12, 0x08, 0xfc,
  0xf8, 0xf8, 0xf9, 0xfa, 0xf8, 0xfb, 0xfb, 0xf8, 0xf9, 0xfc, 0xfc, 0xf9,
  0xf8, 0xf8, 0xf9, 0xfc, 0xfc, 0xfa, 0xf8, 0xf5, 0xf7, 0xf6, 0xf8, 0xf7,
  0xf4, 0xf6, 0xf9, 0xf8, 0xf6, 0xf9, 0xfa, 0xfa, 0xfb, 0xfb, 0xfb, 0xfa,
  0xfc, 0xfd, 0xfc, 0xfc, 0xfd, 0xfd, 0xfe, 0xfb, 0xfa, 0xfa, 0xfa, 0xfb,
  0xfa, 0xf8, 0xf8, 0xfa, 0xfb, 0xfa, 0xf9, 0xf9, 0xf9, 0xf9, 0xfa, 0xfa,
  0xfa, 0xfb, 0xfb, 0xfb, 0xfc, 0xfa, 0xfb, 0xfc, 0xfc, 0xfb, 0xfb, 0xfb,
  0xfb, 0xfc, 0xfc, 0xfb, 0xfa, 0xfa, 0xf9, 0xf8, 0xfa, 0xf9, 0xf9, 0xf9,
  0xf8, 0xf8, 0xfa, 0xfc, 0xfe, 0x00, 0x00, 0x00, 0x00, 0x00, 0x01, 0xde,
  0xee, 0x14, 0xf9, 0x00, 0xfa, 0xf1, 0x01, 0x03, 0x21, 0xfe, 0x13, 0x0d,
  0x01, 0x14, 0x0a, 0x06, 0x0e, 0xfa, 0x02, 0xfb, 0x10, 0xf2, 0xed, 0xf4,
  0xff, 0xef, 0xf4, 0x0b, 0xe9, 0xfe, 0x37, 0x17, 0x13, 0x47, 0x41, 0x43,
  0x5b, 0x56, 0x66, 0x7f, 0x64, 0x37, 0x1b, 0xec, 0xc2, 0xc9, 0xd5, 0xd0,
  0xbe, 0xa9, 0xa5, 0xae, 0xb4, 0xaf, 0x9f, 0xa9, 0xb6, 0xb5, 0xa8, 0xad,
  0xb5, 0xb8, 0xbd, 0xce, 0xd7, 0xcc, 0xcc, 0xca, 0xda, 0xe9, 0xe4, 0xe0,
  0xf6, 0xf4, 0xf6, 0x08, 0xf5, 0xe9, 0xee, 0x0f, 0x0d, 0xf4, 0xe1, 0xe5,
  0xf3, 0xf5, 0xf0, 0xee, 0xed, 0xed, 0xf9, 0xf3, 0xe9, 0xe6, 0xfd, 0x06,
  0x0e, 0x04, 0xfa, 0xfa, 0x0b, 0x0e, 0xf8, 0xf5, 0xfc, 0xfb, 0x02, 0xfa,
  0xe7, 0xe5, 0xed, 0xfb, 0xe9, 0xe8, 0xe3, 0xe6, 0xe2, 0xde, 0xd7, 0xdb,
  0xe0, 0xec, 0xf6, 0x01, 0xff, 0x01, 0x01, 0xfc, 0x08, 0xfa, 0x0a, 0xfb,
  0xe7, 0xf8, 0xee, 0xf0, 0x0d, 0x0a, 0x25, 0x27, 0x19, 0x2f, 0x2c, 0x18,
  0x1b, 0x1b, 0x0a, 0xe1, 0xd4, 0xd0, 0xcf, 0xc5, 0xb4, 0xaf, 0xc4, 0xd9,
  0xbe, 0xc9, 0xd3, 0xd9, 0xec, 0xe5, 0xd4, 0xe9, 0xf7, 0xe7, 0xde, 0xd3,
  0xe6, 0xe1, 0xcc, 0xb0, 0xb8, 0xde, 0xe4, 0xcb, 0xc6, 0xcf, 0xd6, 0xde,
  0xca, 0xdd, 0xe9, 0xf6, 0x00, 0xf7, 0xfe, 0x17, 0x21, 0x0e, 0x00, 0x0d,
  0x15, 0x0b, 0xfd, 0x09, 0x15, 0x08, 0x07, 0x0a, 0x0d, 0x11, 0x0a, 0x07,
  0x16, 0x23, 0x1c, 0x13, 0x0c, 0x0e, 0x1d, 0x19, 0x0d, 0x01, 0x00, 0x10,
  0x15, 0x0f, 0xfc, 0xfe, 0x01, 0xff, 0x01, 0xf6, 0xf7, 0xf5, 0xf3, 0x01,
  0x11, 0x0f, 0x06, 0x15, 0x19, 0x0f, 0xff, 0x09, 0x08, 0x19, 0x1f, 0x1c,
  0x13, 0x22, 0x1d, 0x1a, 0x17, 0x1e, 0x28, 0x2b, 0x1e, 0x1d, 0x14, 0x0a,
  0x07, 0xff, 0x00, 0x00, 0x16, 0xfc, 0xff, 0xff, 0x04, 0x00, 0x00, 0x00,
  0x04, 0x00, 0x00, 0x00, 0x00, 0x00, 0x00, 0x00, 0x26, 0xfc, 0xff, 0xff,
  0x04, 0x00, 0x00, 0x00, 0x04, 0x00, 0x00, 0x00, 0x08, 0x00, 0x00, 0x00,
  0x36, 0xfc, 0xff, 0xff, 0x04, 0x00, 0x00, 0x00, 0x04, 0x00, 0x00, 0x00,
  0x02, 0x00, 0x00, 0x00, 0x46, 0xfc, 0xff, 0xff, 0x04, 0x00, 0x00, 0x00,
  0x08, 0x00, 0x00, 0x00, 0x00, 0x00, 0x00, 0x00, 0x01, 0x00, 0x00, 0x00,
  0x5a, 0xfc, 0xff, 0xff, 0x04, 0x00, 0x00, 0x00, 0x08, 0x00, 0x00, 0x00,
  0xff, 0xff, 0xff, 0xff, 0xe8, 0x01, 0x00, 0x00, 0x6e, 0xfc, 0xff, 0xff,
  0x04, 0x00, 0x00, 0x00, 0x40, 0x00, 0x00, 0x00, 0x17, 0x14, 0x17, 0x3f,
  0xb7, 0xc4, 0xe0, 0xbb, 0x94, 0x41, 0x2e, 0xbe, 0xb9, 0xd8, 0x44, 0xbe,
  0xbd, 0x89, 0x83, 0x3e, 0xa8, 0x7a, 0x54, 0xbc, 0x55, 0x7d, 0x9b, 0x3f,
  0x83, 0xc9, 0x2a, 0x3f, 0x24, 0x37, 0x16, 0x3f, 0x74, 0x8a, 0x31, 0x3f,
  0x9a, 0xdd, 0x0e, 0x3f, 0xe4, 0x2f, 0x94, 0x3f, 0x67, 0x3a, 0xcb, 0xbd,
  0xf7, 0xc4, 0x5d, 0x3e, 0xb8, 0xc7, 0x80, 0xbe, 0x12, 0xe9, 0xde, 0xbc,
  0xba, 0xfc, 0xff, 0xff, 0x04, 0x00, 0x00, 0x00, 0x08, 0x00, 0x00, 0x00,
  0x3b, 0xbe, 0xbe, 0x3d, 0x4b, 0xbe, 0xbe, 0xbd, 0xce, 0xfc, 0xff, 0xff,
  0x04, 0x00, 0x00, 0x00, 0x20, 0x00, 0x00, 0x00, 0xd3, 0x64, 0x1e, 0xba,
  0x7c, 0xdf, 0x37, 0xbe, 0xb9, 0xb4, 0x54, 0xbd, 0x61, 0x56, 0x03, 0xbe,
  0x8c, 0xdf, 0xcd, 0x3e, 0x7e, 0x4c, 0xaa, 0x3d, 0x29, 0x8c, 0x2b, 0x3e,
  0x1b, 0x02, 0x92, 0xbd, 0xfa, 0xfc, 0xff, 0xff, 0x04, 0x00, 0x00, 0x00,
  0x80, 0x00, 0x00, 0x00, 0x58, 0xc6, 0x58, 0xbe, 0x0f, 0x50, 0xb6, 0x3a,
  0xb1, 0x96, 0xc8, 0x07, 0xf0, 0x8a, 0x3e, 0x8c, 0x82, 0x25, 0xdb, 0x3d,
  0xa6, 0x41, 0xf4, 0xb9, 0x1d, 0x1a, 0xd7, 0x3e, 0x17, 0x65, 0xca, 0xbe,
  0x85, 0x2b, 0x0c, 0x3f, 0x38, 0x6e, 0xdc, 0xbe, 0x7d, 0xa6, 0x14, 0x3e,
  0x7f, 0x37, 0xe7, 0xbe, 0x4e, 0x6a, 0x5c, 0xbb, 0x7a, 0x37, 0xc1, 0xbe,
  0xc5, 0xda, 0x45, 0x3e, 0x4b, 0xf5, 0x06, 0x3a, 0x57, 0xb8, 0x6c, 0x3e,
  0xa3, 0xca, 0x86, 0x38, 0x33, 0x65, 0x11, 0x08, 0xf5, 0x54, 0x28, 0x8b,
  0xa7, 0xe5, 0xdb, 0xbd, 0x25, 0x15, 0xd5, 0x39, 0x57, 0xe8, 0xd7, 0xbe,
  0x22, 0xb9, 0xc9, 0x3e, 0xd5, 0x09, 0x0c, 0xbf, 0x90, 0x29, 0xe8, 0x3e,
  0xbe, 0x79, 0x15, 0xbe, 0x5c, 0x15, 0xe4, 0x3e, 0x7c, 0x0b, 0xe4, 0x3b,
  0xf7, 0x29, 0xbf, 0x3e, 0x21, 0x36, 0x59, 0xbe, 0x99, 0x02, 0x22, 0x3a,
  0x84, 0xf1, 0xff, 0xff, 0x88, 0xf1, 0xff, 0xff, 0x0f, 0x00, 0x00, 0x00,
  0x4d, 0x4c, 0x49, 0x52, 0x20, 0x43, 0x6f, 0x6e, 0x76, 0x65, 0x72, 0x74,
  0x65, 0x64, 0x2e, 0x00, 0x01, 0x00, 0x00, 0x00, 0x14, 0x00, 0x00, 0x00,
  0x00, 0x00, 0x0e, 0x00, 0x18, 0x00, 0x14, 0x00, 0x10, 0x00, 0x0c, 0x00,
  0x08, 0x00, 0x04, 0x00, 0x0e, 0x00, 0x00, 0x00, 0x14, 0x00, 0x00, 0x00,
  0x1c, 0x00, 0x00, 0x00, 0x70, 0x03, 0x00, 0x00, 0x74, 0x03, 0x00, 0x00,
  0x78, 0x03, 0x00, 0x00, 0x04, 0x00, 0x00, 0x00, 0x6d, 0x61, 0x69, 0x6e,
  0x00, 0x00, 0x00, 0x00, 0x0f, 0x00, 0x00, 0x00, 0x20, 0x03, 0x00, 0x00,
  0xdc, 0x02, 0x00, 0x00, 0x98, 0x02, 0x00, 0x00, 0x64, 0x02, 0x00, 0x00,
  0x30, 0x02, 0x00, 0x00, 0xf0, 0x01, 0x00, 0x00, 0xbc, 0x01, 0x00, 0x00,
  0x94, 0x01, 0x00, 0x00, 0x40, 0x01, 0x00, 0x00, 0x18, 0x01, 0x00, 0x00,
  0xe0, 0x00, 0x00, 0x00, 0xb8, 0x00, 0x00, 0x00, 0x70, 0x00, 0x00, 0x00,
  0x38, 0x00, 0x00, 0x00, 0x04, 0x00, 0x00, 0x00, 0x6a, 0xfd, 0xff, 0xff,
  0x14, 0x00, 0x00, 0x00, 0x00, 0x00, 0x00, 0x09, 0x14, 0x00, 0x00, 0x00,
  0x18, 0x00, 0x00, 0x00, 0x08, 0x00, 0x00, 0x00, 0x36, 0xfe, 0xff, 0xff,
  0x00, 0x00, 0x80, 0x3f, 0x01, 0x00, 0x00, 0x00, 0x1a, 0x00, 0x00, 0x00,
  0x01, 0x00, 0x00, 0x00, 0x19, 0x00, 0x00, 0x00, 0x9a, 0xfd, 0xff, 0xff,
  0x14, 0x00, 0x00, 0x00, 0x00, 0x00, 0x00, 0x08, 0x10, 0x00, 0x00, 0x00,
  0x14, 0x00, 0x00, 0x00, 0x06, 0x00, 0x00, 0x00, 0x64, 0xf2, 0xff, 0xff,
  0x01, 0x00, 0x00, 0x00, 0x19, 0x00, 0x00, 0x00, 0x03, 0x00, 0x00, 0x00,
  0x18, 0x00, 0x00, 0x00, 0x01, 0x00, 0x00, 0x00, 0x03, 0x00, 0x00, 0x00,
  0xce, 0xfd, 0xff, 0xff, 0x20, 0x00, 0x00, 0x00, 0x00, 0x00, 0x00, 0x08,
  0x20, 0x00, 0x00, 0x00, 0x24, 0x00, 0x00, 0x00, 0x06, 0x00, 0x00, 0x00,
  0x0c, 0x00, 0x08, 0x00, 0x07, 0x00, 0x00, 0x00, 0x00, 0x00, 0x06, 0x00,
  0x0c, 0x00, 0x00, 0x00, 0x00, 0x00, 0x01, 0x01, 0x01, 0x00, 0x00, 0x00,
  0x18, 0x00, 0x00, 0x00, 0x03, 0x00, 0x00, 0x00, 0x17, 0x00, 0x00, 0x00,
  0x0b, 0x00, 0x00, 0x00, 0x04, 0x00, 0x00, 0x00, 0x3e, 0xff, 0xff, 0xff,
  0x0c, 0x00, 0x00, 0x00, 0x10, 0x00, 0x00, 0x00, 0x05, 0x00, 0x00, 0x00,
  0x01, 0x00, 0x00, 0x00, 0x17, 0x00, 0x00, 0x00, 0x02, 0x00, 0x00, 0x00,
  0x16, 0x00, 0x00, 0x00, 0x05, 0x00, 0x00, 0x00, 0x36, 0xfe, 0xff, 0xff,
  0x14, 0x00, 0x00, 0x00, 0x00, 0x00, 0x00, 0x0b, 0x14, 0x00, 0x00, 0x00,
  0x18, 0x00, 0x00, 0x00, 0x07, 0x00, 0x00, 0x00, 0xea, 0xfd, 0xff, 0xff,
  0x00, 0x00, 0x00, 0x01, 0x01, 0x00, 0x00, 0x00, 0x16, 0x00, 0x00, 0x00,
  0x02, 0x00, 0x00, 0x00, 0x15, 0x00, 0x00, 0x00, 0x02, 0x00, 0x00, 0x00,
  0x96, 0xff, 0xff, 0xff, 0x0c, 0x00, 0x00, 0x00, 0x10, 0x00, 0x00, 0x00,
  0x05, 0x00, 0x00, 0x00, 0x01, 0x00, 0x00, 0x00, 0x15, 0x00, 0x00, 0x00,
  0x02, 0x00, 0x00, 0x00, 0x14, 0x00, 0x00, 0x00, 0x12, 0x00, 0x00, 0x00,
  0x8e, 0xfe, 0xff, 0xff, 0x20, 0x00, 0x00, 0x00, 0x00, 0x00, 0x00, 0x08,
  0x20, 0x00, 0x00, 0x00, 0x24, 0x00, 0x00, 0x00, 0x06, 0x00, 0x00, 0x00,
  0x0c, 0x00, 0x08, 0x00, 0x00, 0x00, 0x00, 0x00, 0x00, 0x00, 0x07, 0x00,
  0x0c, 0x00, 0x00, 0x00, 0x00, 0x00, 0x00, 0x01, 0x01, 0x00, 0x00, 0x00,
  0x14, 0x00, 0x00, 0x00, 0x03, 0x00, 0x00, 0x00, 0x13, 0x00, 0x00, 0x00,
  0x0a, 0x00, 0x00, 0x00, 0xff, 0xff, 0xff, 0xff, 0x00, 0x00, 0x0a, 0x00,
  0x10, 0x00, 0x0c, 0x00, 0x08, 0x00, 0x04, 0x00, 0x0a, 0x00, 0x00, 0x00,
  0x0c, 0x00, 0x00, 0x00, 0x10, 0x00, 0x00, 0x00, 0x05, 0x00, 0x00, 0x00,
  0x01, 0x00, 0x00, 0x00, 0x13, 0x00, 0x00, 0x00, 0x02, 0x00, 0x00, 0x00,
  0x00, 0x00, 0x00, 0x00, 0x11, 0x00, 0x00, 0x00, 0x02, 0xff, 0xff, 0xff,
  0x14, 0x00, 0x00, 0x00, 0x00, 0x00, 0x00, 0x0a, 0x10, 0x00, 0x00, 0x00,
  0x14, 0x00, 0x00, 0x00, 0x04, 0x00, 0x00, 0x00, 0xcc, 0xf3, 0xff, 0xff,
  0x01, 0x00, 0x00, 0x00, 0x12, 0x00, 0x00, 0x00, 0x02, 0x00, 0x00, 0x00,
  0x0f, 0x00, 0x00, 0x00, 0x08, 0x00, 0x00, 0x00, 0x32, 0xff, 0xff, 0xff,
  0x1c, 0x00, 0x00, 0x00, 0x00, 0x00, 0x00, 0x3b, 0x1c, 0x00, 0x00, 0x00,
  0x20, 0x00, 0x00, 0x00, 0x03, 0x00, 0x00, 0x00, 0x00, 0x00, 0x06, 0x00,
  0x08, 0x00, 0x04, 0x00, 0x06, 0x00, 0x00, 0x00, 0x02, 0x00, 0x00, 0x00,
  0x01, 0x00, 0x00, 0x00, 0x11, 0x00, 0x00, 0x00, 0x02, 0x00, 0x00, 0x00,
  0x10, 0x00, 0x00, 0x00, 0x0e, 0x00, 0x00, 0x00, 0x6e, 0xff, 0xff, 0xff,
  0x14, 0x00, 0x00, 0x00, 0x00, 0x00, 0x00, 0x1b, 0x10, 0x00, 0x00, 0x00,
  0x14, 0x00, 0x00, 0x00, 0x02, 0x00, 0x00, 0x00, 0x38, 0xf4, 0xff, 0xff,
  0x01, 0x00, 0x00, 0x00, 0x10, 0x00, 0x00, 0x00, 0x02, 0x00, 0x00, 0x00,
  0x0f, 0x00, 0x00, 0x00, 0x09, 0x00, 0x00, 0x00, 0x9e, 0xff, 0xff, 0xff,
  0x14, 0x00, 0x00, 0x00, 0x00, 0x00, 0x00, 0x17, 0x10, 0x00, 0x00, 0x00,
  0x14, 0x00, 0x00, 0x00, 0x01, 0x00, 0x00, 0x00, 0x68, 0xf4, 0xff, 0xff,
  0x01, 0x00, 0x00, 0x00, 0x0f, 0x00, 0x00, 0x00, 0x02, 0x00, 0x00, 0x00,
  0x0c, 0x00, 0x00, 0x00, 0x06, 0x00, 0x00, 0x00, 0xce, 0xff, 0xff, 0xff,
  0x14, 0x00, 0x00, 0x00, 0x00, 0x00, 0x00, 0x1b, 0x10, 0x00, 0x00, 0x00,
  0x14, 0x00, 0x00, 0x00, 0x02, 0x00, 0x00, 0x00, 0x98, 0xf4, 0xff, 0xff,
  0x01, 0x00, 0x00, 0x00, 0x0e, 0x00, 0x00, 0x00, 0x02, 0x00, 0x00, 0x00,
  0x0d, 0x00, 0x00, 0x00, 0x09, 0x00, 0x00, 0x00, 0x00, 0x00, 0x0e, 0x00,
  0x18, 0x00, 0x14, 0x00, 0x10, 0x00, 0x0c, 0x00, 0x0b, 0x00, 0x04, 0x00,
  0x0e, 0x00, 0x00, 0x00, 0x14, 0x00, 0x00, 0x00, 0x00, 0x00, 0x00, 0x17,
  0x10, 0x00, 0x00, 0x00, 0x14, 0x00, 0x00, 0x00, 0x01, 0x00, 0x00, 0x00,
  0xd8, 0xf4, 0xff, 0xff, 0x01, 0x00, 0x00, 0x00, 0x0d, 0x00, 0x00, 0x00,
  0x02, 0x00, 0x00, 0x00, 0x0c, 0x00, 0x00, 0x00, 0x07, 0x00, 0x00, 0x00,
  0x00, 0x00, 0x0e, 0x00, 0x16, 0x00, 0x00, 0x00, 0x10, 0x00, 0x0c, 0x00,
  0x0b, 0x00, 0x04, 0x00, 0x0e, 0x00, 0x00, 0x00, 0x18, 0x00, 0x00, 0x00,
  0x00, 0x00, 0x00, 0x37, 0x18, 0x00, 0x00, 0x00, 0x1c, 0x00, 0x00, 0x00,
  0x00, 0x00, 0x06, 0x00, 0x08, 0x00, 0x07, 0x00, 0x06, 0x00, 0x00, 0x00,
  0x00, 0x00, 0x00, 0x02, 0x01, 0x00, 0x00, 0x00, 0x0c, 0x00, 0x00, 0x00,
  0x01, 0x00, 0x00, 0x00, 0x00, 0x00, 0x00, 0x00, 0x01, 0x00, 0x00, 0x00,
  0x1a, 0x00, 0x00, 0x00, 0x01, 0x00, 0x00, 0x00, 0x00, 0x00, 0x00, 0x00,
  0x1b, 0x00, 0x00, 0x00, 0x20, 0x0a, 0x00, 0x00, 0xbc, 0x09, 0x00, 0x00,
  0x50, 0x09, 0x00, 0x00, 0xf8, 0x08, 0x00, 0x00, 0xa0, 0x08, 0x00, 0x00,
  0x54, 0x08, 0x00, 0x00, 0xec, 0x07, 0x00, 0x00, 0x9c, 0x07, 0x00, 0x00,
  0x48, 0x07, 0x00, 0x00, 0xf4, 0x06, 0x00, 0x00, 0x70, 0x06, 0x00, 0x00,
  0x00, 0x06, 0x00, 0x00, 0xac, 0x05, 0x00, 0x00, 0x2c, 0x05, 0x00, 0x00,
  0xdc, 0x04, 0x00, 0x00, 0x5c, 0x04, 0x00, 0x00, 0x10, 0x04, 0x00, 0x00,
  0xbc, 0x03, 0x00, 0x00, 0x68, 0x03, 0x00, 0x00, 0x04, 0x03, 0x00, 0x00,
  0xa0, 0x02, 0x00, 0x00, 0x3c, 0x02, 0x00, 0x00, 0xc4, 0x01, 0x00, 0x00,
  0x68, 0x01, 0x00, 0x00, 0xd8, 0x00, 0x00, 0x00, 0x60, 0x00, 0x00, 0x00,
  0x04, 0x00, 0x00, 0x00, 0x62, 0xf6, 0xff, 0xff, 0x00, 0x00, 0x00, 0x01,
  0x14, 0x00, 0x00, 0x00, 0x1c, 0x00, 0x00, 0x00, 0x1c, 0x00, 0x00, 0x00,
  0x1b, 0x00, 0x00, 0x00, 0x34, 0x00, 0x00, 0x00, 0x02, 0x00, 0x00, 0x00,
  0xff, 0xff, 0xff, 0xff, 0x02, 0x00, 0x00, 0x00, 0xdc, 0xf5, 0xff, 0xff,
  0x19, 0x00, 0x00, 0x00, 0x53, 0x74, 0x61, 0x74, 0x65, 0x66, 0x75, 0x6c,
  0x50, 0x61, 0x72, 0x74, 0x69, 0x74, 0x69, 0x6f, 0x6e, 0x65, 0x64, 0x43,
  0x61, 0x6c, 0x6c, 0x3a, 0x30, 0x00, 0x00, 0x00, 0x02, 0x00, 0x00, 0x00,
  0x01, 0x00, 0x00, 0x00, 0x02, 0x00, 0x00, 0x00, 0xba, 0xf6, 0xff, 0xff,
  0x00, 0x00, 0x00, 0x01, 0x14, 0x00, 0x00, 0x00, 0x1c, 0x00, 0x00, 0x00,
  0x1c, 0x00, 0x00, 0x00, 0x1a, 0x00, 0x00, 0x00, 0x50, 0x00, 0x00, 0x00,
  0x02, 0x00, 0x00, 0x00, 0xff, 0xff, 0xff, 0xff, 0x02, 0x00, 0x00, 0x00,
  0x34, 0xf6, 0xff, 0xff, 0x34, 0x00, 0x00, 0x00, 0x73, 0x65, 0x71, 0x75,
  0x65, 0x6e, 0x74, 0x69, 0x61, 0x6c, 0x2f, 0x64, 0x65, 0x6e, 0x73, 0x65,
  0x5f, 0x32, 0x2f, 0x4d, 0x61, 0x74, 0x4d, 0x75, 0x6c, 0x3b, 0x73, 0x65,
  0x71, 0x75, 0x65, 0x6e, 0x74, 0x69, 0x61, 0x6c, 0x2f, 0x64, 0x65, 0x6e,
  0x73, 0x65, 0x5f, 0x32, 0x2f, 0x42, 0x69, 0x61, 0x73, 0x41, 0x64, 0x64,
  0x00, 0x00, 0x00, 0x00, 0x02, 0x00, 0x00, 0x00, 0x01, 0x00, 0x00, 0x00,
  0x02, 0x00, 0x00, 0x00, 0x2e, 0xf7, 0xff, 0xff, 0x00, 0x00, 0x00, 0x01,
  0x14, 0x00, 0x00, 0x00, 0x1c, 0x00, 0x00, 0x00, 0x1c, 0x00, 0x00, 0x00,
  0x19, 0x00, 0x00, 0x00, 0x68, 0x00, 0x00, 0x00, 0x02, 0x00, 0x00, 0x00,
  0xff, 0xff, 0xff, 0xff, 0x10, 0x00, 0x00, 0x00, 0xa8, 0xf6, 0xff, 0xff,
  0x4c, 0x00, 0x00, 0x00, 0x73, 0x65, 0x71, 0x75, 0x65, 0x6e, 0x74, 0x69,
  0x61, 0x6c, 0x2f, 0x64, 0x65, 0x6e, 0x73, 0x65, 0x5f, 0x31, 0x2f, 0x4d,
  0x61, 0x74, 0x4d, 0x75, 0x6c, 0x3b, 0x73, 0x65, 0x71, 0x75, 0x65, 0x6e,
  0x74, 0x69, 0x61, 0x6c, 0x2f, 0x64, 0x65, 0x6e, 0x73, 0x65, 0x5f, 0x31,
  0x2f, 0x52, 0x65, 0x6c, 0x75, 0x3b, 0x73, 0x65, 0x71, 0x75, 0x65, 0x6e,
  0x74, 0x69, 0x61, 0x6c, 0x2f, 0x64, 0x65, 0x6e, 0x73, 0x65, 0x5f, 0x31,
  0x2f, 0x42, 0x69, 0x61, 0x73, 0x41, 0x64, 0x64, 0x00, 0x00, 0x00, 0x00,
  0x02, 0x00, 0x00, 0x00, 0x01, 0x00, 0x00, 0x00, 0x10, 0x00, 0x00, 0x00,
  0xba, 0xf7, 0xff, 0xff, 0x00, 0x00, 0x00, 0x01, 0x14, 0x00, 0x00, 0x00,
  0x1c, 0x00, 0x00, 0x00, 0x1c, 0x00, 0x00, 0x00, 0x18, 0x00, 0x00, 0x00,
  0x34, 0x00, 0x00, 0x00, 0x02, 0x00, 0x00, 0x00, 0xff, 0xff, 0xff, 0xff,
  0xe8, 0x01, 0x00, 0x00, 0x34, 0xf7, 0xff, 0xff, 0x1a, 0x00, 0x00, 0x00,
  0x73, 0x65, 0x71, 0x75, 0x65, 0x6e, 0x74, 0x69, 0x61, 0x6c, 0x2f, 0x66,
  0x6c, 0x61, 0x74, 0x74, 0x65, 0x6e, 0x2f, 0x52, 0x65, 0x73, 0x68, 0x61,
  0x70, 0x65, 0x00, 0x00, 0x02, 0x00, 0x00, 0x00, 0x01, 0x00, 0x00, 0x00,
  0xe8, 0x01, 0x00, 0x00, 0x12, 0xf8, 0xff, 0xff, 0x00, 0x00, 0x00, 0x01,
  0x14, 0x00, 0x00, 0x00, 0x20, 0x00, 0x00, 0x00, 0x20, 0x00, 0x00, 0x00,
  0x17, 0x00, 0x00, 0x00, 0x4c, 0x00, 0x00, 0x00, 0x03, 0x00, 0x00, 0x00,
  0xff, 0xff, 0xff, 0xff, 0x3d, 0x00, 0x00, 0x00, 0x08, 0x00, 0x00, 0x00,
  0x90, 0xf7, 0xff, 0xff, 0x2e, 0x00, 0x00, 0x00, 0x73, 0x65, 0x71, 0x75,
  0x65, 0x6e, 0x74, 0x69, 0x61, 0x6c, 0x2f, 0x64, 0x65, 0x6e, 0x73, 0x65,
  0x2f, 0x52, 0x65, 0x6c, 0x75, 0x3b, 0x73, 0x65, 0x71, 0x75, 0x65, 0x6e,
  0x74, 0x69, 0x61, 0x6c, 0x2f, 0x64, 0x65, 0x6e, 0x73, 0x65, 0x2f, 0x42,
  0x69, 0x61, 0x73, 0x41, 0x64, 0x64, 0x00, 0x00, 0x03, 0x00, 0x00, 0x00,
  0x01, 0x00, 0x00, 0x00, 0x3d, 0x00, 0x00, 0x00, 0x08, 0x00, 0x00, 0x00,
  0x86, 0xf8, 0xff, 0xff, 0x00, 0x00, 0x00, 0x01, 0x14, 0x00, 0x00, 0x00,
  0x20, 0x00, 0x00, 0x00, 0x20, 0x00, 0x00, 0x00, 0x16, 0x00, 0x00, 0x00,
  0x38, 0x00, 0x00, 0x00, 0x03, 0x00, 0x00, 0x00, 0xff, 0xff, 0xff, 0xff,
  0x3d, 0x00, 0x00, 0x00, 0x08, 0x00, 0x00, 0x00, 0x04, 0xf8, 0xff, 0xff,
  0x1a, 0x00, 0x00, 0x00, 0x73, 0x65, 0x71, 0x75, 0x65, 0x6e, 0x74, 0x69,
  0x61, 0x6c, 0x2f, 0x64, 0x65, 0x6e, 0x73, 0x65, 0x2f, 0x54, 0x65, 0x6e,
  0x73, 0x6f, 0x72, 0x64, 0x6f, 0x74, 0x00, 0x00, 0x03, 0x00, 0x00, 0x00,
  0x01, 0x00, 0x00, 0x00, 0x3d, 0x00, 0x00, 0x00, 0x08, 0x00, 0x00, 0x00,
  0xe6, 0xf8, 0xff, 0xff, 0x00, 0x00, 0x00, 0x01, 0x14, 0x00, 0x00, 0x00,
  0x1c, 0x00, 0x00, 0x00, 0x1c, 0x00, 0x00, 0x00, 0x15, 0x00, 0x00, 0x00,
  0x3c, 0x00, 0x00, 0x00, 0x02, 0x00, 0x00, 0x00, 0xff, 0xff, 0xff, 0xff,
  0x08, 0x00, 0x00, 0x00, 0x60, 0xf8, 0xff, 0xff, 0x22, 0x00, 0x00, 0x00,
  0x73, 0x65, 0x71, 0x75, 0x65, 0x6e, 0x74, 0x69, 0x61, 0x6c, 0x2f, 0x64,
  0x65, 0x6e, 0x73, 0x65, 0x2f, 0x54, 0x65, 0x6e, 0x73, 0x6f, 0x72, 0x64,
  0x6f, 0x74, 0x2f, 0x4d, 0x61, 0x74, 0x4d, 0x75, 0x6c, 0x32, 0x00, 0x00,
  0x02, 0x00, 0x00, 0x00, 0x01, 0x00, 0x00, 0x00, 0x08, 0x00, 0x00, 0x00,
  0x46, 0xf9, 0xff, 0xff, 0x00, 0x00, 0x00, 0x01, 0x14, 0x00, 0x00, 0x00,
  0x1c, 0x00, 0x00, 0x00, 0x1c, 0x00, 0x00, 0x00, 0x14, 0x00, 0x00, 0x00,
  0x3c, 0x00, 0x00, 0x00, 0x02, 0x00, 0x00, 0x00, 0xff, 0xff, 0xff, 0xff,
  0xff, 0xff, 0xff, 0xff, 0xc0, 0xf8, 0xff, 0xff, 0x22, 0x00, 0x00, 0x00,
  0x73, 0x65, 0x71, 0x75, 0x65, 0x6e, 0x74, 0x69, 0x61, 0x6c, 0x2f, 0x64,
  0x65, 0x6e, 0x73, 0x65, 0x2f, 0x54, 0x65, 0x6e, 0x73, 0x6f, 0x72, 0x64,
  0x6f, 0x74, 0x2f, 0x52, 0x65, 0x73, 0x68, 0x61, 0x70, 0x65, 0x00, 0x00,
  0x02, 0x00, 0x00, 0x00, 0x01, 0x00, 0x00, 0x00, 0x01, 0x00, 0x00, 0x00,
  0x5e, 0xfb, 0xff, 0xff, 0x00, 0x00, 0x00, 0x01, 0x14, 0x00, 0x00, 0x00,
  0x14, 0x00, 0x00, 0x00, 0x13, 0x00, 0x00, 0x00, 0x00, 0x00, 0x00, 0x02,
  0x30, 0x00, 0x00, 0x00, 0x14, 0xf9, 0xff, 0xff, 0x23, 0x00, 0x00, 0x00,
  0x73, 0x65, 0x71, 0x75, 0x65, 0x6e, 0x74, 0x69, 0x61, 0x6c, 0x2f, 0x64,
  0x65, 0x6e, 0x73, 0x65, 0x2f, 0x54, 0x65, 0x6e, 0x73, 0x6f, 0x72, 0x64,
  0x6f, 0x74, 0x2f, 0x63, 0x6f, 0x6e, 0x63, 0x61, 0x74, 0x5f, 0x31, 0x00,
  0x01, 0x00, 0x00, 0x00, 0x03, 0x00, 0x00, 0x00, 0xae, 0xfb, 0xff, 0xff,
  0x00, 0x00, 0x00, 0x01, 0x14, 0x00, 0x00, 0x00, 0x14, 0x00, 0x00, 0x00,
  0x12, 0x00, 0x00, 0x00, 0x00, 0x00, 0x00, 0x02, 0x30, 0x00, 0x00, 0x00,
  0x64, 0xf9, 0xff, 0xff, 0x20, 0x00, 0x00, 0x00, 0x73, 0x65, 0x71, 0x75,
  0x65, 0x6e, 0x74, 0x69, 0x61, 0x6c, 0x2f, 0x64, 0x65, 0x6e, 0x73, 0x65,
  0x2f, 0x54, 0x65, 0x6e, 0x73, 0x6f, 0x72, 0x64, 0x6f, 0x74, 0x2f, 0x73,
  0x74, 0x61, 0x63, 0x6b, 0x00, 0x00, 0x00, 0x00, 0x01, 0x00, 0x00, 0x00,
  0x02, 0x00, 0x00, 0x00, 0xfe, 0xfb, 0xff, 0xff, 0x00, 0x00, 0x00, 0x01,
  0x14, 0x00, 0x00, 0x00, 0x14, 0x00, 0x00, 0x00, 0x11, 0x00, 0x00, 0x00,
  0x00, 0x00, 0x00, 0x02, 0x2c, 0x00, 0x00, 0x00, 0xb4, 0xf9, 0xff, 0xff,
  0x1f, 0x00, 0x00, 0x00, 0x73, 0x65, 0x71, 0x75, 0x65, 0x6e, 0x74, 0x69,
  0x61, 0x6c, 0x2f, 0x64, 0x65, 0x6e, 0x73, 0x65, 0x2f, 0x54, 0x65, 0x6e,
  0x73, 0x6f, 0x72, 0x64, 0x6f, 0x74, 0x2f, 0x50, 0x72, 0x6f, 0x64, 0x00,
  0x00, 0x00, 0x00, 0x00, 0x46, 0xfc, 0xff, 0xff, 0x00, 0x00, 0x00, 0x01,
  0x14, 0x00, 0x00, 0x00, 0x14, 0x00, 0x00, 0x00, 0x10, 0x00, 0x00, 0x00,
  0x00, 0x00, 0x00, 0x02, 0x5c, 0x00, 0x00, 0x00, 0xfc, 0xf9, 0xff, 0xff,
  0x4c, 0x00, 0x00, 0x00, 0x73, 0x65, 0x71, 0x75, 0x65, 0x6e, 0x74, 0x69,
  0x61, 0x6c, 0x2f, 0x64, 0x65, 0x6e, 0x73, 0x65, 0x2f, 0x54, 0x65, 0x6e,
  0x73, 0x6f, 0x72, 0x64, 0x6f, 0x74, 0x2f, 0x47, 0x61, 0x74, 0x68, 0x65,
  0x72, 0x56, 0x32, 0x3b, 0x73, 0x65, 0x71, 0x75, 0x65, 0x6e, 0x74, 0x69,
  0x61, 0x6c, 0x2f, 0x64, 0x65, 0x6e, 0x73, 0x65, 0x2f, 0x54, 0x65, 0x6e,
  0x73, 0x6f, 0x72, 0x64, 0x6f, 0x74, 0x2f, 0x47, 0x61, 0x74, 0x68, 0x65,
  0x72, 0x56, 0x32, 0x2f, 0x61, 0x78, 0x69, 0x73, 0x00, 0x00, 0x00, 0x00,
  0x01, 0x00, 0x00, 0x00, 0x02, 0x00, 0x00, 0x00, 0xc2, 0xfc, 0xff, 0xff,
  0x00, 0x00, 0x00, 0x01, 0x14, 0x00, 0x00, 0x00, 0x14, 0x00, 0x00, 0x00,
  0x0f, 0x00, 0x00, 0x00, 0x00, 0x00, 0x00, 0x02, 0x30, 0x00, 0x00, 0x00,
  0x78, 0xfa, 0xff, 0xff, 0x21, 0x00, 0x00, 0x00, 0x73, 0x65, 0x71, 0x75,
  0x65, 0x6e, 0x74, 0x69, 0x61, 0x6c, 0x2f, 0x64, 0x65, 0x6e, 0x73, 0x65,
  0x2f, 0x54, 0x65, 0x6e, 0x73, 0x6f, 0x72, 0x64, 0x6f, 0x74, 0x2f, 0x50,
  0x72, 0x6f, 0x64, 0x5f, 0x31, 0x00, 0x00, 0x00, 0x00, 0x00, 0x00, 0x00,
  0x0e, 0xfd, 0xff, 0xff, 0x00, 0x00, 0x00, 0x01, 0x14, 0x00, 0x00, 0x00,
  0x14, 0x00, 0x00, 0x00, 0x0e, 0x00, 0x00, 0x00, 0x00, 0x00, 0x00, 0x02,
  0x5c, 0x00, 0x00, 0x00, 0xc4, 0xfa, 0xff, 0xff, 0x4e, 0x00, 0x00, 0x00,
  0x73, 0x65, 0x71, 0x75, 0x65, 0x6e, 0x74, 0x69, 0x61, 0x6c, 0x2f, 0x64,
  0x65, 0x6e, 0x73, 0x65, 0x2f, 0x54, 0x65, 0x6e, 0x73, 0x6f, 0x72, 0x64,
  0x6f, 0x74, 0x2f, 0x47, 0x61, 0x74, 0x68, 0x65, 0x72, 0x56, 0x32, 0x5f,
  0x31, 0x3b, 0x73, 0x65, 0x71, 0x75, 0x65, 0x6e, 0x74, 0x69, 0x61, 0x6c,
  0x2f, 0x64, 0x65, 0x6e, 0x73, 0x65, 0x2f, 0x54, 0x65, 0x6e, 0x73, 0x6f,
  0x72, 0x64, 0x6f, 0x74, 0x2f, 0x47, 0x61, 0x74, 0x68, 0x65, 0x72, 0x56,
  0x32, 0x2f, 0x61, 0x78, 0x69, 0x73, 0x00, 0x00, 0x01, 0x00, 0x00, 0x00,
  0x01, 0x00, 0x00, 0x00, 0x8a, 0xfd, 0xff, 0xff, 0x00, 0x00, 0x00, 0x01,
  0x14, 0x00, 0x00, 0x00, 0x14, 0x00, 0x00, 0x00, 0x0d, 0x00, 0x00, 0x00,
  0x00, 0x00, 0x00, 0x02, 0x30, 0x00, 0x00, 0x00, 0x40, 0xfb, 0xff, 0xff,
  0x20, 0x00, 0x00, 0x00, 0x73, 0x65, 0x71, 0x75, 0x65, 0x6e, 0x74, 0x69,
  0x61, 0x6c, 0x2f, 0x64, 0x65, 0x6e, 0x73, 0x65, 0x2f, 0x54, 0x65, 0x6e,
  0x73, 0x6f, 0x72, 0x64, 0x6f, 0x74, 0x2f, 0x53, 0x68, 0x61, 0x70, 0x65,
  0x00, 0x00, 0x00, 0x00, 0x01, 0x00, 0x00, 0x00, 0x03, 0x00, 0x00, 0x00,
  0xda, 0xfd, 0xff, 0xff, 0x00, 0x00, 0x00, 0x01, 0x14, 0x00, 0x00, 0x00,
  0x34, 0x00, 0x00, 0x00, 0x0c, 0x00, 0x00, 0x00, 0x00, 0x00, 0x00, 0x09,
  0x48, 0x00, 0x00, 0x00, 0x94, 0xff, 0xff, 0xff, 0x08, 0x00, 0x00, 0x00,
  0x14, 0x00, 0x00, 0x00, 0x01, 0x00, 0x00, 0x00, 0x00, 0x00, 0x00, 0x00,
  0x00, 0x00, 0x00, 0x00, 0x00, 0x00, 0x00, 0x00, 0x01, 0x00, 0x00, 0x00,
  0xf3, 0xd4, 0x92, 0x3b, 0x19, 0x00, 0x00, 0x00, 0x73, 0x65, 0x71, 0x75,
  0x65, 0x6e, 0x74, 0x69, 0x61, 0x6c, 0x2f, 0x64, 0x65, 0x6e, 0x73, 0x65,
  0x5f, 0x31, 0x2f, 0x4d, 0x61, 0x74, 0x4d, 0x75, 0x6c, 0x00, 0x00, 0x00,
  0x02, 0x00, 0x00, 0x00, 0x10, 0x00, 0x00, 0x00, 0xe8, 0x01, 0x00, 0x00,
  0x46, 0xfe, 0xff, 0xff, 0x00, 0x00, 0x00, 0x01, 0x20, 0x00, 0x00, 0x00,
  0x40, 0x00, 0x00, 0x00, 0x0b, 0x00, 0x00, 0x00, 0x00, 0x00, 0x00, 0x09,
  0x5c, 0x00, 0x00, 0x00, 0x0c, 0x00, 0x0c, 0x00, 0x00, 0x00, 0x00, 0x00,
  0x08, 0x00, 0x04, 0x00, 0x0c, 0x00, 0x00, 0x00, 0x08, 0x00, 0x00, 0x00,
  0x14, 0x00, 0x00, 0x00, 0x01, 0x00, 0x00, 0x00, 0x00, 0x00, 0x00, 0x00,
  0x00, 0x00, 0x00, 0x00, 0x00, 0x00, 0x00, 0x00, 0x01, 0x00, 0x00, 0x00,
  0x0e, 0x23, 0x0b, 0x3c, 0x22, 0x00, 0x00, 0x00, 0x73, 0x65, 0x71, 0x75,
  0x65, 0x6e, 0x74, 0x69, 0x61, 0x6c, 0x2f, 0x64, 0x65, 0x6e, 0x73, 0x65,
  0x2f, 0x54, 0x65, 0x6e, 0x73, 0x6f, 0x72, 0x64, 0x6f, 0x74, 0x2f, 0x4d,
  0x61, 0x74, 0x4d, 0x75, 0x6c, 0x31, 0x00, 0x00, 0x02, 0x00, 0x00, 0x00,
  0x08, 0x00, 0x00, 0x00, 0x81, 0x00, 0x00, 0x00, 0xc6, 0xfe, 0xff, 0xff,
  0x00, 0x00, 0x00, 0x01, 0x14, 0x00, 0x00, 0x00, 0x14, 0x00, 0x00, 0x00,
  0x0a, 0x00, 0x00, 0x00, 0x00, 0x00, 0x00, 0x02, 0x30, 0x00, 0x00, 0x00,
  0x7c, 0xfc, 0xff, 0xff, 0x20, 0x00, 0x00, 0x00, 0x73, 0x65, 0x71, 0x75,
  0x65, 0x6e, 0x74, 0x69, 0x61, 0x6c, 0x2f, 0x64, 0x65, 0x6e, 0x73, 0x65,
  0x2f, 0x54, 0x65, 0x6e, 0x73, 0x6f, 0x72, 0x64, 0x6f, 0x74, 0x2f, 0x43,
  0x6f, 0x6e, 0x73, 0x74, 0x00, 0x00, 0x00, 0x00, 0x01, 0x00, 0x00, 0x00,
  0x01, 0x00, 0x00, 0x00, 0x16, 0xff, 0xff, 0xff, 0x00, 0x00, 0x00, 0x01,
  0x14, 0x00, 0x00, 0x00, 0x14, 0x00, 0x00, 0x00, 0x09, 0x00, 0x00, 0x00,
  0x00, 0x00, 0x00, 0x02, 0x30, 0x00, 0x00, 0x00, 0xcc, 0xfc, 0xff, 0xff,
  0x22, 0x00, 0x00, 0x00, 0x73, 0x65, 0x71, 0x75, 0x65, 0x6e, 0x74, 0x69,
  0x61, 0x6c, 0x2f, 0x64, 0x65, 0x6e, 0x73, 0x65, 0x2f, 0x54, 0x65, 0x6e,
  0x73, 0x6f, 0x72, 0x64, 0x6f, 0x74, 0x2f, 0x43, 0x6f, 0x6e, 0x73, 0x74,
  0x5f, 0x32, 0x00, 0x00, 0x01, 0x00, 0x00, 0x00, 0x01, 0x00, 0x00, 0x00,
  0x66, 0xff, 0xff, 0xff, 0x00, 0x00, 0x00, 0x01, 0x14, 0x00, 0x00, 0x00,
  0x14, 0x00, 0x00, 0x00, 0x08, 0x00, 0x00, 0x00, 0x00, 0x00, 0x00, 0x02,
  0x2c, 0x00, 0x00, 0x00, 0x1c, 0xfd, 0xff, 0xff, 0x1f, 0x00, 0x00, 0x00,
  0x73, 0x65, 0x71, 0x75, 0x65, 0x6e, 0x74, 0x69, 0x61, 0x6c, 0x2f, 0x64,
  0x65, 0x6e, 0x73, 0x65, 0x2f, 0x54, 0x65, 0x6e, 0x73, 0x6f, 0x72, 0x64,
  0x6f, 0x74, 0x2f, 0x61, 0x78, 0x65, 0x73, 0x00, 0x01, 0x00, 0x00, 0x00,
  0x01, 0x00, 0x00, 0x00, 0xb2, 0xff, 0xff, 0xff, 0x00, 0x00, 0x00, 0x01,
  0x14, 0x00, 0x00, 0x00, 0x14, 0x00, 0x00, 0x00, 0x07, 0x00, 0x00, 0x00,
  0x00, 0x00, 0x00, 0x02, 0x2c, 0x00, 0x00, 0x00, 0x68, 0xfd, 0xff, 0xff,
  0x1f, 0x00, 0x00, 0x00, 0x73, 0x65, 0x71, 0x75, 0x65, 0x6e, 0x74, 0x69,
  0x61, 0x6c, 0x2f, 0x64, 0x65, 0x6e, 0x73, 0x65, 0x2f, 0x54, 0x65, 0x6e,
  0x73, 0x6f, 0x72, 0x64, 0x6f, 0x74, 0x2f, 0x66, 0x72, 0x65, 0x65, 0x00,
  0x01, 0x00, 0x00, 0x00, 0x02, 0x00, 0x00, 0x00, 0x00, 0x00, 0x16, 0x00,
  0x1c, 0x00, 0x18, 0x00, 0x17, 0x00, 0x10, 0x00, 0x0c, 0x00, 0x08, 0x00,
  0x00, 0x00, 0x00, 0x00, 0x00, 0x00, 0x07, 0x00, 0x16, 0x00, 0x00, 0x00,
  0x00, 0x00, 0x00, 0x01, 0x14, 0x00, 0x00, 0x00, 0x14, 0x00, 0x00, 0x00,
  0x06, 0x00, 0x00, 0x00, 0x00, 0x00, 0x00, 0x02, 0x28, 0x00, 0x00, 0x00,
  0xcc, 0xfd, 0xff, 0xff, 0x18, 0x00, 0x00, 0x00, 0x73, 0x65, 0x71, 0x75,
  0x65, 0x6e, 0x74, 0x69, 0x61, 0x6c, 0x2f, 0x66, 0x6c, 0x61, 0x74, 0x74,
  0x65, 0x6e, 0x2f, 0x43, 0x6f, 0x6e, 0x73, 0x74, 0x00, 0x00, 0x00, 0x00,
  0x01, 0x00, 0x00, 0x00, 0x02, 0x00, 0x00, 0x00, 0x06, 0xff, 0xff, 0xff,
  0x00, 0x00, 0x00, 0x01, 0x10, 0x00, 0x00, 0x00, 0x10, 0x00, 0x00, 0x00,
  0x05, 0x00, 0x00, 0x00, 0x38, 0x00, 0x00, 0x00, 0x10, 0xfe, 0xff, 0xff,
  0x29, 0x00, 0x00, 0x00, 0x73, 0x65, 0x71, 0x75, 0x65, 0x6e, 0x74, 0x69,
  0x61, 0x6c, 0x2f, 0x64, 0x65, 0x6e, 0x73, 0x65, 0x5f, 0x31, 0x2f, 0x42,
  0x69, 0x61, 0x73, 0x41, 0x64, 0x64, 0x2f, 0x52, 0x65, 0x61, 0x64, 0x56,
  0x61, 0x72, 0x69, 0x61, 0x62, 0x6c, 0x65, 0x4f, 0x70, 0x00, 0x00, 0x00,
  0x01, 0x00, 0x00, 0x00, 0x10, 0x00, 0x00, 0x00, 0x5a, 0xff, 0xff, 0xff,
  0x00, 0x00, 0x00, 0x01, 0x10, 0x00, 0x00, 0x00, 0x10, 0x00, 0x00, 0x00,
  0x04, 0x00, 0x00, 0x00, 0x38, 0x00, 0x00, 0x00, 0x64, 0xfe, 0xff, 0xff,
  0x29, 0x00, 0x00, 0x00, 0x73, 0x65, 0x71, 0x75, 0x65, 0x6e, 0x74, 0x69,
  0x61, 0x6c, 0x2f, 0x64, 0x65, 0x6e, 0x73, 0x65, 0x5f, 0x32, 0x2f, 0x42,
  0x69, 0x61, 0x73, 0x41, 0x64, 0x64, 0x2f, 0x52, 0x65, 0x61, 0x64, 0x56,
  0x61, 0x72, 0x69, 0x61, 0x62, 0x6c, 0x65, 0x4f, 0x70, 0x00, 0x00, 0x00,
  0x01, 0x00, 0x00, 0x00, 0x02, 0x00, 0x00, 0x00, 0xae, 0xff, 0xff, 0xff,
  0x00, 0x00, 0x00, 0x01, 0x10, 0x00, 0x00, 0x00, 0x10, 0x00, 0x00, 0x00,
  0x03, 0x00, 0x00, 0x00, 0x34, 0x00, 0x00, 0x00, 0xb8, 0xfe, 0xff, 0xff,
  0x27, 0x00, 0x00, 0x00, 0x73, 0x65, 0x71, 0x75, 0x65, 0x6e, 0x74, 0x69,
  0x61, 0x6c, 0x2f, 0x64, 0x65, 0x6e, 0x73, 0x65, 0x2f, 0x42, 0x69, 0x61,
  0x73, 0x41, 0x64, 0x64, 0x2f, 0x52, 0x65, 0x61, 0x64, 0x56, 0x61, 0x72,
  0x69, 0x61, 0x62, 0x6c, 0x65, 0x4f, 0x70, 0x00, 0x01, 0x00, 0x00, 0x00,
  0x08, 0x00, 0x00, 0x00, 0x00, 0x00, 0x16, 0x00, 0x18, 0x00, 0x14, 0x00,
  0x00, 0x00, 0x10, 0x00, 0x0c, 0x00, 0x08, 0x00, 0x00, 0x00, 0x00, 0x00,
  0x00, 0x00, 0x07, 0x00, 0x16, 0x00, 0x00, 0x00, 0x00, 0x00, 0x00, 0x01,
  0x10, 0x00, 0x00, 0x00, 0x10, 0x00, 0x00, 0x00, 0x02, 0x00, 0x00, 0x00,
  0x28, 0x00, 0x00, 0x00, 0x20, 0xff, 0xff, 0xff, 0x19, 0x00, 0x00, 0x00,
  0x73, 0x65, 0x71, 0x75, 0x65, 0x6e, 0x74, 0x69, 0x61, 0x6c, 0x2f, 0x64,
  0x65, 0x6e, 0x73, 0x65, 0x5f, 0x32, 0x2f, 0x4d, 0x61, 0x74, 0x4d, 0x75,
  0x6c, 0x00, 0x00, 0x00, 0x02, 0x00, 0x00, 0x00, 0x02, 0x00, 0x00, 0x00,
  0x10, 0x00, 0x00, 0x00, 0x00, 0x00, 0x16, 0x00, 0x1c, 0x00, 0x18, 0x00,
  0x00, 0x00, 0x14, 0x00, 0x10, 0x00, 0x0c, 0x00, 0x00, 0x00, 0x00, 0x00,
  0x08, 0x00, 0x07, 0x00, 0x16, 0x00, 0x00, 0x00, 0x00, 0x00, 0x00, 0x01,
  0x14, 0x00, 0x00, 0x00, 0x20, 0x00, 0x00, 0x00, 0x20, 0x00, 0x00, 0x00,
  0x01, 0x00, 0x00, 0x00, 0x3c, 0x00, 0x00, 0x00, 0x03, 0x00, 0x00, 0x00,
  0xff, 0xff, 0xff, 0xff, 0x3d, 0x00, 0x00, 0x00, 0x81, 0x00, 0x00, 0x00,
  0x94, 0xff, 0xff, 0xff, 0x1d, 0x00, 0x00, 0x00, 0x73, 0x65, 0x72, 0x76,
  0x69, 0x6e, 0x67, 0x5f, 0x64, 0x65, 0x66, 0x61, 0x75, 0x6c, 0x74, 0x5f,
  0x64, 0x65, 0x6e, 0x73, 0x65, 0x5f, 0x69, 0x6e, 0x70, 0x75, 0x74, 0x3a,
  0x30, 0x00, 0x00, 0x00, 0x03, 0x00, 0x00, 0x00, 0x01, 0x00, 0x00, 0x00,
  0x3d, 0x00, 0x00, 0x00, 0x81, 0x00, 0x00, 0x00, 0x09, 0x00, 0x00, 0x00,
  0x9c, 0x00, 0x00, 0x00, 0x80, 0x00, 0x00, 0x00, 0x70, 0x00, 0x00, 0x00,
  0x60, 0x00, 0x00, 0x00, 0x50, 0x00, 0x00, 0x00, 0x40, 0x00, 0x00, 0x00,
  0x2c, 0x00, 0x00, 0x00, 0x18, 0x00, 0x00, 0x00, 0x04, 0x00, 0x00, 0x00,
  0x94, 0xff, 0xff, 0xff, 0x19, 0x00, 0x00, 0x00, 0x00, 0x00, 0x00, 0x19,
  0x04, 0x00, 0x04, 0x00, 0x04, 0x00, 0x00, 0x00, 0x0c, 0x00, 0x10, 0x00,
  0x0f, 0x00, 0x00, 0x00, 0x08, 0x00, 0x04, 0x00, 0x0c, 0x00, 0x00, 0x00,
  0x09, 0x00, 0x00, 0x00, 0x09, 0x00, 0x00, 0x00, 0x00, 0x00, 0x00, 0x09,
  0xc4, 0xff, 0xff, 0xff, 0x16, 0x00, 0x00, 0x00, 0x00, 0x00, 0x00, 0x16,
  0xd0, 0xff, 0xff, 0xff, 0x02, 0x00, 0x00, 0x00, 0x00, 0x00, 0x00, 0x02,
  0xdc, 0xff, 0xff, 0xff, 0x53, 0x00, 0x00, 0x00, 0x00, 0x00, 0x00, 0x53,
  0xe8, 0xff, 0xff, 0xff, 0x51, 0x00, 0x00, 0x00, 0x00, 0x00, 0x00, 0x51,
  0xf4, 0xff, 0xff, 0xff, 0x24, 0x00, 0x00, 0x00, 0x00, 0x00, 0x00, 0x24,
  0x0c, 0x00, 0x0c, 0x00, 0x0b, 0x00, 0x00, 0x00, 0x00, 0x00, 0x04, 0x00,
  0x0c, 0x00, 0x00, 0x00, 0x4d, 0x00, 0x00, 0x00, 0x00, 0x00, 0x00, 0x4d
};
